{
  "version": "1.0",
  "truncation": null,
  "padding": null,
  "added_tokens": [
    {
      "id": 0,
      "content": "[PAD]",
      "single_word": false,
      "lstrip": false,
      "rstrip": false,
      "normalized": false,
      "special": true
    },
    {
      "id": 1,
      "content": "[UNK]",
      "single_word": false,
      "lstrip": false,
      "rstrip": false,
      "normalized": false,
      "special": true
    },
    {
      "id": 2,
      "content": "[CLS]",
      "single_word": false,
      "lstrip": false,
      "rstrip": false,
      "normalized": false,
      "special": true
    },
    {
      "id": 3,
      "content": "[SEP]",
      "single_word": false,
      "lstrip": false,
      "rstrip": false,
      "normalized": false,
      "special": true
    },
    {
      "id": 4,
      "content": "[MASK]",
      "single_word": false,
      "lstrip": false,
      "rstrip": false,
      "normalized": false,
      "special": true
    }
  ],
  "normalizer": {
    "type": "BertNormalizer",
    "clean_text": true,
    "handle_chinese_chars": true,
    "strip_accents": null,
    "lowercase": true
  },
  "pre_tokenizer": {
    "type": "BertPreTokenizer"
  },
  "post_processor": {
    "type": "TemplateProcessing",
    "single": [
      {
        "SpecialToken": {
          "id": "[CLS]",
          "type_id": 0
        }
      },
      {
        "Sequence": {
          "id": "A",
          "type_id": 0
        }
      },
      {
        "SpecialToken": {
          "id": "[SEP]",
          "type_id": 0
        }
      }
    ],
    "pair": [
      {
        "SpecialToken": {
          "id": "[CLS]",
          "type_id": 0
        }
      },
      {
        "Sequence": {
          "id": "A",
          "type_id": 0
        }
      },
      {
        "SpecialToken": {
          "id": "[SEP]",
          "type_id": 0
        }
      },
      {
        "Sequence": {
          "id": "B",
          "type_id": 1
        }
      },
      {
        "SpecialToken": {
          "id": "[SEP]",
          "type_id": 1
        }
      }
    ],
    "special_tokens": {
      "[CLS]": {
        "id": "[CLS]",
        "ids": [
          2
        ],
        "tokens": [
          "[CLS]"
        ]
      },
      "[SEP]": {
        "id": "[SEP]",
        "ids": [
          3
        ],
        "tokens": [
          "[SEP]"
        ]
      }
    }
  },
  "decoder": {
    "type": "WordPiece",
    "prefix": "##",
    "cleanup": true
  },
  "model": {
    "type": "WordPiece",
    "unk_token": "[UNK]",
    "continuing_subword_prefix": "##",
    "max_input_chars_per_word": 100,
    "vocab": {
      "[PAD]": 0,
      "[UNK]": 1,
      "[CLS]": 2,
      "[SEP]": 3,
      "[MASK]": 4,
      "!": 5,
      "\"": 6,
      "#": 7,
      "$": 8,
      "%": 9,
      "&": 10,
      "'": 11,
      "(": 12,
      ")": 13,
      "*": 14,
      "+": 15,
      ",": 16,
      "-": 17,
      ".": 18,
      "/": 19,
      ":": 20,
      ";": 21,
      "<": 22,
      "=": 23,
      ">": 24,
      "?": 25,
      "@": 26,
      "[": 27,
      "\\": 28,
      "]": 29,
      "^": 30,
      "_": 31,
      "`": 32,
      "{": 33,
      "|": 34,
      "}": 35,
      "~": 36,
      "ஃ": 37,
      "அ": 38,
      "ஆ": 39,
      "இ": 40,
      "ஈ": 41,
      "உ": 42,
      "ஊ": 43,
      "஋": 44,
      "஌": 45,
      "எ": 46,
      "ஏ": 47,
      "ஐ": 48,
      "ஒ": 49,
      "ஓ": 50,
      "க": 51,
      "ங": 52,
      "ச": 53,
      "ஜ": 54,
      "ஞ": 55,
      "ட": 56,
      "஠": 57,
      "஡": 58,
      "஢": 59,
      "ண": 60,
      "த": 61,
      "஥": 62,
      "஦": 63,
      "஧": 64,
      "ந": 65,
      "ன": 66,
      "ப": 67,
      "஫": 68,
      "஬": 69,
      "஭": 70,
      "ம": 71,
      "ய": 72,
      "ர": 73,
      "ற": 74,
      "ல": 75,
      "ள": 76,
      "ழ": 77,
      "வ": 78,
      "ஶ": 79,
      "ஷ": 80,
      "ஸ": 81,
      "ஹ": 82,
      "ா": 83,
      "ி": 84,
      "ு": 85,
      "ூ": 86,
      "௃": 87,
      "௅": 88,
      "ெ": 89,
      "ே": 90,
      "ை": 91,
      "ௐ": 92,
      "ௗ": 93,
      "௙": 94,
      "௝": 95,
      "௰": 96,
      "௱": 97,
      "௲": 98,
      "௳": 99,
      "௴": 100,
      "௵": 101,
      "௸": 102,
      "௾": 103,
      "##ே": 104,
      "##ட": 105,
      "##ு": 106,
      "##ம": 107,
      "##ண": 108,
      "##க": 109,
      "##ள": 110,
      "##த": 111,
      "##ி": 112,
      "##ல": 113,
      "##ய": 114,
      "##ெ": 115,
      "##ா": 116,
      "##ந": 117,
      "##ன": 118,
      "##ூ": 119,
      "##ப": 120,
      "##ழ": 121,
      "##ங": 122,
      "##ை": 123,
      "##வ": 124,
      "##ஸ": 125,
      "##ர": 126,
      "##ற": 127,
      "##ஜ": 128,
      "##ச": 129,
      "##ஈ": 130,
      "##உ": 131,
      "##எ": 132,
      "##ௗ": 133,
      "##ஷ": 134,
      "##ஹ": 135,
      "##ஞ": 136,
      "##அ": 137,
      "##ஏ": 138,
      "##இ": 139,
      "##ஃ": 140,
      "##ஒ": 141,
      "##ஆ": 142,
      "##ஐ": 143,
      "##ஓ": 144,
      "##ஊ": 145,
      "##ஶ": 146,
      "##௰": 147,
      "##௵": 148,
      "##ௐ": 149,
      "##஢": 150,
      "##௅": 151,
      "##஡": 152,
      "##஧": 153,
      "##஦": 154,
      "##஥": 155,
      "##஭": 156,
      "##௃": 157,
      "##஠": 158,
      "##௳": 159,
      "##௴": 160,
      "##௸": 161,
      "##஫": 162,
      "##௙": 163,
      "##஬": 164,
      "##௝": 165,
      "##து": 166,
      "##கக": 167,
      "##ில": 168,
      "##ும": 169,
      "##ிய": 170,
      "##கள": 171,
      "##தத": 172,
      "##பப": 173,
      "##டட": 174,
      "##ார": 175,
      "##ரு": 176,
      "##ோ": 177,
      "##நத": 178,
      "##ின": 179,
      "##ைய": 180,
      "##ொ": 181,
      "##டு": 182,
      "##ாக": 183,
      "##ிர": 184,
      "##ிற": 185,
      "##ான": 186,
      "##ஙக": 187,
      "##ளள": 188,
      "##ககு": 189,
      "##தது": 190,
      "##ால": 191,
      "##று": 192,
      "##வர": 193,
      "##தி": 194,
      "##டி": 195,
      "என": 196,
      "செ": 197,
      "மு": 198,
      "எண": 199,
      "##றற": 200,
      "வி": 201,
      "##ஙகள": 202,
      "##வி": 203,
      "##லை": 204,
      "##நது": 205,
      "##டடு": 206,
      "##ணட": 207,
      "##ாம": 208,
      "கு": 209,
      "##வு": 210,
      "##ரி": 211,
      "##கு": 212,
      "##சச": 213,
      "செய": 214,
      "பெ": 215,
      "##ிரு": 216,
      "மா": 217,
      "##ாள": 218,
      "##லல": 219,
      "##ததில": 220,
      "போ": 221,
      "##ாய": 222,
      "##ேர": 223,
      "இரு": 224,
      "##ையில": 225,
      "##பபு": 226,
      "கொ": 227,
      "##றி": 228,
      "##னர": 229,
      "##னை": 230,
      "##சி": 231,
      "##டை": 232,
      "வே": 233,
      "##மை": 234,
      "##ககும": 235,
      "தொ": 236,
      "##ாவ": 237,
      "##ுககு": 238,
      "இநத": 239,
      "##மப": 240,
      "##ணி": 241,
      "##ரகள": 242,
      "##ுவ": 243,
      "##ணடு": 244,
      "##தல": 245,
      "கூ": 246,
      "##கிற": 247,
      "##னற": 248,
      "பு": 249,
      "##வரகள": 250,
      "உளள": 251,
      "வெ": 252,
      "##பபடட": 253,
      "##திய": 254,
      "##ாட": 255,
      "##ிக": 256,
      "நட": 257,
      "##ாத": 258,
      "##றப": 259,
      "வர": 260,
      "##றை": 261,
      "##ிகக": 262,
      "##வே": 263,
      "##னன": 264,
      "ஒரு": 265,
      "##ிட": 266,
      "கட": 267,
      "தெ": 268,
      "##டிய": 269,
      "அர": 270,
      "##ிழ": 271,
      "##களை": 272,
      "பிர": 273,
      "இத": 274,
      "##வில": 275,
      "அத": 276,
      "மே": 277,
      "##ஙகில": 278,
      "வழ": 279,
      "##சிய": 280,
      "##ோர": 281,
      "##ததை": 282,
      "##மாக": 283,
      "##டர": 284,
      "##றறு": 285,
      "கா": 286,
      "ஆஙகில": 287,
      "##ழு": 288,
      "##ககள": 289,
      "##டன": 290,
      "ஆஙகிலம": 291,
      "##ூர": 292,
      "##ணடும": 293,
      "##டுதத": 294,
      "##கர": 295,
      "மறற": 296,
      "##ினற": 297,
      "கோ": 298,
      "தே": 299,
      "##ளளது": 300,
      "##வை": 301,
      "எனற": 302,
      "##ிடட": 303,
      "##றக": 304,
      "##வத": 305,
      "##சு": 306,
      "##பபட": 307,
      "##ையும": 308,
      "பா": 309,
      "##னறு": 310,
      "அதி": 311,
      "பல": 312,
      "வரு": 313,
      "##ிகள": 314,
      "##பபடடு": 315,
      "தம": 316,
      "எனறு": 317,
      "வா": 318,
      "##மு": 319,
      "சு": 320,
      "மறறும": 321,
      "பொ": 322,
      "##வும": 323,
      "நில": 324,
      "##மான": 325,
      "##ரிய": 326,
      "##கிறது": 327,
      "##பு": 328,
      "##ோது": 329,
      "தலை": 330,
      "##ததின": 331,
      "##வா": 332,
      "அவர": 333,
      "தமிழ": 334,
      "##ககிற": 335,
      "து": 336,
      "செயய": 337,
      "அமை": 338,
      "##ியில": 339,
      "##ாடட": 340,
      "##னால": 341,
      "முதல": 342,
      "வேணடும": 343,
      "##ளி": 344,
      "##ணை": 345,
      "அவ": 346,
      "பய": 347,
      "##டுதது": 348,
      "அதிக": 349,
      "மூ": 350,
      "பார": 351,
      "தன": 352,
      "சி": 353,
      "##தான": 354,
      "##களில": 355,
      "##திர": 356,
      "பே": 357,
      "வை": 358,
      "நிற": 359,
      "##ையை": 360,
      "தெரி": 361,
      "குறி": 362,
      "##ாரு": 363,
      "சிற": 364,
      "கால": 365,
      "##ணம": 366,
      "##நதது": 367,
      "பி": 368,
      "எனப": 369,
      "##கினற": 370,
      "##நில": 371,
      "##ுமப": 372,
      "தொடர": 373,
      "கே": 374,
      "கல": 375,
      "##ததிய": 376,
      "##ணண": 377,
      "##சார": 378,
      "மன": 379,
      "இட": 380,
      "இது": 381,
      "##ிறகு": 382,
      "சொ": 383,
      "திரு": 384,
      "##தாக": 385,
      "இல": 386,
      "##ஙகு": 387,
      "##டிகக": 388,
      "இர": 389,
      "ஆக": 390,
      "பட": 391,
      "##லி": 392,
      "##ாடு": 393,
      "அறி": 394,
      "ஏறப": 395,
      "##தை": 396,
      "##ேன": 397,
      "##கா": 398,
      "##டடி": 399,
      "##கம": 400,
      "##ரை": 401,
      "போல": 402,
      "##ாரகள": 403,
      "##ரம": 404,
      "##லம": 405,
      "மககள": 406,
      "##ியு": 407,
      "தெரிவி": 408,
      "##ாகக": 409,
      "##ாஜ": 410,
      "##ஙகளில": 411,
      "சேர": 412,
      "##னப": 413,
      "அநத": 414,
      "##பபடு": 415,
      "மேல": 416,
      "##றகு": 417,
      "##ாளர": 418,
      "தேர": 419,
      "##தம": 420,
      "##ததி": 421,
      "தர": 422,
      "அம": 423,
      "##யர": 424,
      "கார": 425,
      "கி": 426,
      "##வடட": 427,
      "##தும": 428,
      "எதிர": 429,
      "##வன": 430,
      "திர": 431,
      "##கை": 432,
      "அரசு": 433,
      "##ளளார": 434,
      "##ளிய": 435,
      "##ணடி": 436,
      "இய": 437,
      "மாவடட": 438,
      "ஆர": 439,
      "இநதிய": 440,
      "##ித": 441,
      "அவரகள": 442,
      "##ிடம": 443,
      "கூற": 444,
      "அன": 445,
      "##ாமல": 446,
      "##ழை": 447,
      "##பெ": 448,
      "##ினர": 449,
      "##ஙகளை": 450,
      "பகு": 451,
      "##டடும": 452,
      "பேர": 453,
      "வழஙக": 454,
      "##தில": 455,
      "##வாக": 456,
      "##ஞச": 457,
      "செயல": 458,
      "##ோம": 459,
      "##ழி": 460,
      "##டுகக": 461,
      "சில": 462,
      "##றறி": 463,
      "செயது": 464,
      "##பர": 465,
      "##லாம": 466,
      "வெளிய": 467,
      "கரு": 468,
      "##வம": 469,
      "வநத": 470,
      "பின": 471,
      "##யில": 472,
      "##சசி": 473,
      "##டைய": 474,
      "ரூ": 475,
      "அபப": 476,
      "##விய": 477,
      "செல": 478,
      "##ளை": 479,
      "##ரும": 480,
      "நான": 481,
      "##னம": 482,
      "இருநத": 483,
      "முனன": 484,
      "ஆணடு": 485,
      "ஆய": 486,
      "சம": 487,
      "##களுககு": 488,
      "தி": 489,
      "கொணட": 490,
      "##விலலை": 491,
      "##ககிய": 492,
      "##பி": 493,
      "##ாது": 494,
      "##பபடும": 495,
      "மது": 496,
      "##பபடடது": 497,
      "ஆனால": 498,
      "மாண": 499,
      "##ெய": 500,
      "கண": 501,
      "இருநது": 502,
      "##லக": 503,
      "உட": 504,
      "முடி": 505,
      "சநத": 506,
      "கை": 507,
      "##ணிய": 508,
      "##மா": 509,
      "##தியில": 510,
      "நே": 511,
      "எழு": 512,
      "தான": 513,
      "ஆகிய": 514,
      "##ிருநத": 515,
      "நேர": 516,
      "முடிய": 517,
      "கிர": 518,
      "##னி": 519,
      "மரு": 520,
      "அல": 521,
      "##ாடசி": 522,
      "கடட": 523,
      "குழ": 524,
      "##ிரம": 525,
      "##ருககு": 526,
      "அள": 527,
      "கடநத": 528,
      "சர": 529,
      "##ாலை": 530,
      "##ககிறது": 531,
      "கொணடு": 532,
      "##ாளரகள": 533,
      "##டும": 534,
      "##ஙகி": 535,
      "##டச": 536,
      "நி": 537,
      "சே": 538,
      "முன": 539,
      "##பபி": 540,
      "##ினை": 541,
      "##ிருநது": 542,
      "மணி": 543,
      "##வது": 544,
      "##ருக": 545,
      "நடை": 546,
      "##ாப": 547,
      "##கார": 548,
      "##ககம": 549,
      "தவ": 550,
      "##ாடடு": 551,
      "##தால": 552,
      "##ததார": 553,
      "##ுடன": 554,
      "நிர": 555,
      "##கும": 556,
      "##ையாக": 557,
      "##ினார": 558,
      "பொரு": 559,
      "வரும": 560,
      "##ளளனர": 561,
      "விர": 562,
      "போர": 563,
      "##ாச": 564,
      "திடட": 565,
      "உளளது": 566,
      "பர": 567,
      "##விடட": 568,
      "மடடும": 569,
      "##ததுககு": 570,
      "அனை": 571,
      "எனன": 572,
      "##கினறனர": 573,
      "பளள": 574,
      "கூடட": 575,
      "சேரநத": 576,
      "நகர": 577,
      "நாள": 578,
      "வாழ": 579,
      "##ாவது": 580,
      "நடி": 581,
      "இபப": 582,
      "##வல": 583,
      "தலைவர": 584,
      "##தர": 585,
      "##டடை": 586,
      "அதிகார": 587,
      "##பபடடுளளது": 588,
      "நிறுவ": 589,
      "டி": 590,
      "சமப": 591,
      "விள": 592,
      "##லா": 593,
      "##வச": 594,
      "பூ": 595,
      "##ாவில": 596,
      "பெண": 597,
      "தொழ": 598,
      "நெ": 599,
      "##வெ": 600,
      "தோ": 601,
      "மோ": 602,
      "##ததிறகு": 603,
      "##ததால": 604,
      "மருதது": 605,
      "தமிழக": 606,
      "உண": 607,
      "உத": 608,
      "##ோடு": 609,
      "நோ": 610,
      "வள": 611,
      "செயத": 612,
      "##ாண": 613,
      "பணி": 614,
      "##ககான": 615,
      "##ைகள": 616,
      "நேறறு": 617,
      "சடட": 618,
      "அடி": 619,
      "##ையின": 620,
      "அரச": 621,
      "##ரிகக": 622,
      "மாநில": 623,
      "அது": 624,
      "##ியாக": 625,
      "##னனை": 626,
      "சார": 627,
      "##ததிர": 628,
      "நதி": 629,
      "விசார": 630,
      "வில": 631,
      "##ககி": 632,
      "##றும": 633,
      "##ேய": 634,
      "பெறற": 635,
      "##ியை": 636,
      "##நதிர": 637,
      "இவ": 638,
      "##டம": 639,
      "மேலும": 640,
      "##திகக": 641,
      "##பாய": 642,
      "##போ": 643,
      "நடைபெ": 644,
      "##னா": 645,
      "எம": 646,
      "##ையான": 647,
      "குறிதது": 648,
      "##ிகழ": 649,
      "மிக": 650,
      "##ககொ": 651,
      "வரை": 652,
      "போடட": 653,
      "அமைசச": 654,
      "தா": 655,
      "##கொ": 656,
      "குறை": 657,
      "நாட": 658,
      "பால": 659,
      "ராஜ": 660,
      "##வடிகக": 661,
      "##முக": 662,
      "சொலல": 663,
      "எனபது": 664,
      "வார": 665,
      "உயர": 666,
      "மக": 667,
      "##ாலும": 668,
      "நடவடிகக": 669,
      "##வுககு": 670,
      "##தே": 671,
      "தேரதல": 672,
      "##லில": 673,
      "##ஙகளுககு": 674,
      "##றிய": 675,
      "தய": 676,
      "##திகள": 677,
      "##ததர": 678,
      "உறு": 679,
      "##பபடுகிறது": 680,
      "நம": 681,
      "##பபில": 682,
      "செலல": 683,
      "மூலம": 684,
      "##ிதத": 685,
      "##சன": 686,
      "##கையில": 687,
      "##டடில": 688,
      "அலல": 689,
      "செனனை": 690,
      "நிலையில": 691,
      "இலல": 692,
      "கிடை": 693,
      "##தா": 694,
      "பதி": 695,
      "இருககும": 696,
      "##ையே": 697,
      "தொழில": 698,
      "##ென": 699,
      "##பபை": 700,
      "இருகக": 701,
      "இனறு": 702,
      "இருபப": 703,
      "கொளள": 704,
      "பிற": 705,
      "##கிறார": 706,
      "இந": 707,
      "##ணடிரு": 708,
      "வநது": 709,
      "மொ": 710,
      "ஒனற": 711,
      "அலுவ": 712,
      "##ிதது": 713,
      "பொது": 714,
      "##ககை": 715,
      "தொட": 716,
      "தெரிவிதது": 717,
      "செனற": 718,
      "##டப": 719,
      "##வரும": 720,
      "நிகழ": 721,
      "தறப": 722,
      "உரு": 723,
      "நர": 724,
      "வாய": 725,
      "##பட": 726,
      "##ிரிய": 727,
      "தேதி": 728,
      "மததிய": 729,
      "##ஙகே": 730,
      "பயனப": 731,
      "இலலை": 732,
      "எஸ": 733,
      "##சை": 734,
      "அனு": 735,
      "பழ": 736,
      "##கோ": 737,
      "அருக": 738,
      "தக": 739,
      "கோர": 740,
      "போனற": 741,
      "##ாவின": 742,
      "படட": 743,
      "பரி": 744,
      "சா": 745,
      "கழ": 746,
      "சூ": 747,
      "##ியம": 748,
      "##களின": 749,
      "போது": 750,
      "##நர": 751,
      "##றகொ": 752,
      "##மனற": 753,
      "##ாமி": 754,
      "பாது": 755,
      "அறிவி": 756,
      "குறிபப": 757,
      "##வார": 758,
      "கூட": 759,
      "தொடரநது": 760,
      "ஆம": 761,
      "ரூபாய": 762,
      "##ககாக": 763,
      "குழநத": 764,
      "வச": 765,
      "##ேஷ": 766,
      "தெரிய": 767,
      "மின": 768,
      "##ஙகிய": 769,
      "தொடரப": 770,
      "##ததம": 771,
      "உளளிடட": 772,
      "பாதுகா": 773,
      "இதனால": 774,
      "தின": 775,
      "##ெலல": 776,
      "எலல": 777,
      "##ோத": 778,
      "##கினறன": 779,
      "##போது": 780,
      "வய": 781,
      "கிராம": 782,
      "கர": 783,
      "##ணடிய": 784,
      "பண": 785,
      "##பபடுதத": 786,
      "##வரை": 787,
      "காண": 788,
      "படி": 789,
      "##ுககும": 790,
      "##பா": 791,
      "##ோக": 792,
      "சஙக": 793,
      "நிறுவன": 794,
      "தறபோது": 795,
      "##மும": 796,
      "இதில": 797,
      "வருகிறது": 798,
      "அக": 799,
      "##களும": 800,
      "ஊர": 801,
      "##பதி": 802,
      "அரசிய": 803,
      "தூ": 804,
      "விழ": 805,
      "அணி": 806,
      "##ையம": 807,
      "போலசார": 808,
      "பாட": 809,
      "உய": 810,
      "##வின": 811,
      "புதிய": 812,
      "##வசாய": 813,
      "தகவல": 814,
      "##டுப": 815,
      "தவிர": 816,
      "##ளம": 817,
      "விவசாய": 818,
      "லடச": 819,
      "வைதது": 820,
      "கடசி": 821,
      "வெளி": 822,
      "##ியா": 823,
      "##யம": 824,
      "எநத": 825,
      "நடவடிககை": 826,
      "திற": 827,
      "நிலை": 828,
      "பத": 829,
      "வேலை": 830,
      "இன": 831,
      "தனது": 832,
      "##ாரி": 833,
      "காவ": 834,
      "பகுதி": 835,
      "##வான": 836,
      "விடு": 837,
      "பெரிய": 838,
      "முககிய": 839,
      "##வாய": 840,
      "இணை": 841,
      "அனைதது": 842,
      "செனறு": 843,
      "##நதி": 844,
      "ஆட": 845,
      "மாணவரகள": 846,
      "##விட": 847,
      "இற": 848,
      "##ைப": 849,
      "எடுதது": 850,
      "##தன": 851,
      "##நிலையில": 852,
      "##ாதார": 853,
      "கலல": 854,
      "##சசு": 855,
      "எடுகக": 856,
      "##பபின": 857,
      "##ேயே": 858,
      "##ெட": 859,
      "##பபடடுளள": 860,
      "இவர": 861,
      "திரும": 862,
      "##றகாக": 863,
      "வளர": 864,
      "எபப": 865,
      "##ஙகை": 866,
      "##பபது": 867,
      "உததர": 868,
      "நினை": 869,
      "குட": 870,
      "நாம": 871,
      "பெரும": 872,
      "##கி": 873,
      "நலல": 874,
      "##ககபபடட": 875,
      "ஆச": 876,
      "அமைசசர": 877,
      "##ததிரு": 878,
      "புது": 879,
      "பேச": 880,
      "பகுதியில": 881,
      "அரசியல": 882,
      "மர": 883,
      "##வேறு": 884,
      "அதை": 885,
      "குறற": 886,
      "##ிஸ": 887,
      "முழ": 888,
      "கைது": 889,
      "முக": 890,
      "அதிகாரிகள": 891,
      "அளி": 892,
      "இரணடு": 893,
      "பிரி": 894,
      "மேறகொ": 895,
      "கொள": 896,
      "துறை": 897,
      "##டக": 898,
      "அடுதத": 899,
      "நிரவாக": 900,
      "ராம": 901,
      "##ககூ": 902,
      "எனறும": 903,
      "##குதி": 904,
      "ஈடுப": 905,
      "பக": 906,
      "##ிரி": 907,
      "காலை": 908,
      "##ததது": 909,
      "வாக": 910,
      "இனன": 911,
      "##ியல": 912,
      "வழககு": 913,
      "பெறறு": 914,
      "##ககில": 915,
      "##நகர": 916,
      "துவ": 917,
      "விற": 918,
      "காரண": 919,
      "##ிடடு": 920,
      "##லு": 921,
      "##ாஙக": 922,
      "##பார": 923,
      "கலநது": 924,
      "##றறிய": 925,
      "சத": 926,
      "குடி": 927,
      "ஸட": 928,
      "விரு": 929,
      "ஆண": 930,
      "அதன": 931,
      "கொணடிரு": 932,
      "யார": 933,
      "##பில": 934,
      "பளளி": 935,
      "விடட": 936,
      "முற": 937,
      "போராடட": 938,
      "கடை": 939,
      "ஜெய": 940,
      "##சசை": 941,
      "முய": 942,
      "முறை": 943,
      "அவரது": 944,
      "தேசிய": 945,
      "##ஸட": 946,
      "சின": 947,
      "உடன": 948,
      "நாடு": 949,
      "பலவேறு": 950,
      "##படி": 951,
      "அலலது": 952,
      "மெ": 953,
      "##லர": 954,
      "இநநிலையில": 955,
      "விட": 956,
      "அழை": 957,
      "##ததான": 958,
      "பணிய": 959,
      "உலக": 960,
      "##ததனர": 961,
      "##ியின": 962,
      "##ககிறார": 963,
      "##மர": 964,
      "##விடடு": 965,
      "ஆகியோர": 966,
      "பொருள": 967,
      "அதில": 968,
      "அமெ": 969,
      "குடுமப": 970,
      "கடடு": 971,
      "##பபா": 972,
      "போலஸ": 973,
      "தலைமை": 974,
      "அமெரிகக": 975,
      "##பபத": 976,
      "அடை": 977,
      "##ொரு": 978,
      "நடநதது": 979,
      "அனும": 980,
      "##வதாக": 981,
      "கம": 982,
      "முதலவர": 983,
      "வருகினறனர": 984,
      "உயிர": 985,
      "விசாரணை": 986,
      "தாகக": 987,
      "மாறற": 988,
      "மதி": 989,
      "ரயில": 990,
      "நமப": 991,
      "காய": 992,
      "நிறை": 993,
      "மருததுவம": 994,
      "அதே": 995,
      "மார": 996,
      "வழி": 997,
      "சிறபபு": 998,
      "##யா": 999,
      "##ககினற": 1000,
      "சிக": 1001,
      "பினனர": 1002,
      "நதிமனற": 1003,
      "செயலப": 1004,
      "நடதத": 1005,
      "##ைக": 1006,
      "வல": 1007,
      "பிடி": 1008,
      "##ூக": 1009,
      "நா": 1010,
      "அருகே": 1011,
      "கலவி": 1012,
      "##மன": 1013,
      "கோவில": 1014,
      "##டியாக": 1015,
      "அபபோது": 1016,
      "##புரம": 1017,
      "ஆல": 1018,
      "##ுதத": 1019,
      "நாடட": 1020,
      "எனறார": 1021,
      "##ியுளளது": 1022,
      "##நாய": 1023,
      "தஙகள": 1024,
      "##கன": 1025,
      "வெறறி": 1026,
      "வடட": 1027,
      "தலைம": 1028,
      "வகையில": 1029,
      "எல": 1030,
      "ஒருவர": 1031,
      "##ததக": 1032,
      "##றகான": 1033,
      "##ததுறை": 1034,
      "இதன": 1035,
      "##ையா": 1036,
      "##ரே": 1037,
      "மனித": 1038,
      "கெ": 1039,
      "##தார": 1040,
      "##ுடைய": 1041,
      "பெயர": 1042,
      "நூ": 1043,
      "கோடி": 1044,
      "நு": 1045,
      "சாரபில": 1046,
      "மறு": 1047,
      "வாகன": 1048,
      "##ளளி": 1049,
      "மணடும": 1050,
      "விஜ": 1051,
      "##றறில": 1052,
      "##வாறு": 1053,
      "##ஷண": 1054,
      "##முறை": 1055,
      "கோயில": 1056,
      "இதை": 1057,
      "ஆசிரிய": 1058,
      "துணை": 1059,
      "##நதார": 1060,
      "##ததுடன": 1061,
      "பிரதம": 1062,
      "##ககோ": 1063,
      "##ிககை": 1064,
      "##ராஜ": 1065,
      "உற": 1066,
      "தணண": 1067,
      "பாதுகாபபு": 1068,
      "முடியும": 1069,
      "##வரு": 1070,
      "மடடுமே": 1071,
      "செயதி": 1072,
      "விடடு": 1073,
      "கூறிய": 1074,
      "கடசிய": 1075,
      "உஙகள": 1076,
      "உரி": 1077,
      "பஙகே": 1078,
      "##ததுக": 1079,
      "சிறு": 1080,
      "பயனபடுதத": 1081,
      "பயிற": 1082,
      "##தியை": 1083,
      "##சனை": 1084,
      "##ஙகும": 1085,
      "உள": 1086,
      "அஙகு": 1087,
      "இயககு": 1088,
      "நடநத": 1089,
      "##வுகள": 1090,
      "அவன": 1091,
      "##மபர": 1092,
      "##ுமார": 1093,
      "உதவி": 1094,
      "ஆரமப": 1095,
      "பொறு": 1096,
      "##ாவை": 1097,
      "ஊழ": 1098,
      "ஏறபடட": 1099,
      "சமூக": 1100,
      "##சில": 1101,
      "நிலைய": 1102,
      "சோ": 1103,
      "##ியார": 1104,
      "கூறு": 1105,
      "மாத": 1106,
      "##பபுகள": 1107,
      "காஙக": 1108,
      "கள": 1109,
      "எனபதை": 1110,
      "##வள": 1111,
      "##கிறாரகள": 1112,
      "டெ": 1113,
      "##ுளள": 1114,
      "##மம": 1115,
      "பிறகு": 1116,
      "திடடம": 1117,
      "உடல": 1118,
      "வடு": 1119,
      "பாக": 1120,
      "##பை": 1121,
      "மூனறு": 1122,
      "கணட": 1123,
      "வேணடிய": 1124,
      "##ிரஸ": 1125,
      "##நாத": 1126,
      "##ிலலை": 1127,
      "##ியன": 1128,
      "##றறை": 1129,
      "தயார": 1130,
      "தேவ": 1131,
      "##நிலை": 1132,
      "எனககு": 1133,
      "##சம": 1134,
      "இவரகள": 1135,
      "எனவே": 1136,
      "##வதறகு": 1137,
      "நடைபெறற": 1138,
      "ஒனறு": 1139,
      "பதில": 1140,
      "புகார": 1141,
      "##பபெ": 1142,
      "##களாக": 1143,
      "பெர": 1144,
      "##ிழமை": 1145,
      "செயலாளர": 1146,
      "##நதுளளது": 1147,
      "செயயபபடட": 1148,
      "அழ": 1149,
      "கேள": 1150,
      "விஜய": 1151,
      "##ாறு": 1152,
      "பறறி": 1153,
      "##நதத": 1154,
      "ஏறபடுதத": 1155,
      "அரு": 1156,
      "தேரவு": 1157,
      "இருநதது": 1158,
      "பதிவு": 1159,
      "விஷ": 1160,
      "மழை": 1161,
      "விவசாயிகள": 1162,
      "ஏன": 1163,
      "பிரசச": 1164,
      "பெய": 1165,
      "பெற": 1166,
      "பஸ": 1167,
      "இலஙகை": 1168,
      "லடசம": 1169,
      "வது": 1170,
      "##ஸவர": 1171,
      "பிரதமர": 1172,
      "காவல": 1173,
      "ஆள": 1174,
      "##பபோ": 1175,
      "வெளள": 1176,
      "##ிருஷண": 1177,
      "வெளியே": 1178,
      "உருவா": 1179,
      "மனை": 1180,
      "##சர": 1181,
      "ஒவ": 1182,
      "இருககிறது": 1183,
      "பொதும": 1184,
      "விறப": 1185,
      "##றைய": 1186,
      "##நதர": 1187,
      "##நாடு": 1188,
      "சுறறு": 1189,
      "நோய": 1190,
      "கலை": 1191,
      "உணர": 1192,
      "மாலை": 1193,
      "சிகி": 1194,
      "##பால": 1195,
      "##சிக": 1196,
      "##தின": 1197,
      "##தியாக": 1198,
      "அளவில": 1199,
      "##ெக": 1200,
      "இநதியா": 1201,
      "##ையடுதது": 1202,
      "ஸர": 1203,
      "முயற": 1204,
      "##வொரு": 1205,
      "ஆணட": 1206,
      "அதிகரி": 1207,
      "##ததிற": 1208,
      "விப": 1209,
      "படம": 1210,
      "பாதிகக": 1211,
      "வன": 1212,
      "##மபெ": 1213,
      "கொடுதத": 1214,
      "##சல": 1215,
      "சிவ": 1216,
      "விமான": 1217,
      "தணணர": 1218,
      "மாதம": 1219,
      "மேறப": 1220,
      "விளைய": 1221,
      "##சியில": 1222,
      "காரணமாக": 1223,
      "விழு": 1224,
      "##ைககு": 1225,
      "நஙகள": 1226,
      "##நி": 1227,
      "அலுவலக": 1228,
      "கருதது": 1229,
      "பொதுமககள": 1230,
      "முனனாள": 1231,
      "வட": 1232,
      "வரி": 1233,
      "அண": 1234,
      "மண": 1235,
      "அமைகக": 1236,
      "கேடட": 1237,
      "சக": 1238,
      "##குமார": 1239,
      "நல": 1240,
      "##மபு": 1241,
      "##ககல": 1242,
      "பெணகள": 1243,
      "ஆதர": 1244,
      "##ுககான": 1245,
      "##ியுளளார": 1246,
      "வேறு": 1247,
      "சரி": 1248,
      "##ெலலாம": 1249,
      "##மே": 1250,
      "கடும": 1251,
      "மனு": 1252,
      "காஙகிரஸ": 1253,
      "##ிகளில": 1254,
      "##பபாக": 1255,
      "உளளன": 1256,
      "மணிககு": 1257,
      "திருபப": 1258,
      "விழா": 1259,
      "##பபடை": 1260,
      "##சாமி": 1261,
      "##ியும": 1262,
      "ஜி": 1263,
      "பாதி": 1264,
      "##பரகள": 1265,
      "##ரோ": 1266,
      "அதிர": 1267,
      "முழுவ": 1268,
      "படை": 1269,
      "கணடு": 1270,
      "##ததினர": 1271,
      "##ததல": 1272,
      "ஜன": 1273,
      "##தாவது": 1274,
      "##பே": 1275,
      "##ஙகம": 1276,
      "##தாகவும": 1277,
      "தனி": 1278,
      "இரணட": 1279,
      "அதறகு": 1280,
      "குறிதத": 1281,
      "மிகவும": 1282,
      "முடிவு": 1283,
      "##ககர": 1284,
      "##ியுளள": 1285,
      "சொல": 1286,
      "போய": 1287,
      "இரவு": 1288,
      "அளிகக": 1289,
      "##தலை": 1290,
      "குறிபபிட": 1291,
      "##ாஸ": 1292,
      "போககு": 1293,
      "சொனன": 1294,
      "கிட": 1295,
      "போன": 1296,
      "ஆன": 1297,
      "##ததும": 1298,
      "வைகக": 1299,
      "மாவடடம": 1300,
      "சூழ": 1301,
      "##ஙகளின": 1302,
      "##ூரி": 1303,
      "சன": 1304,
      "சாலை": 1305,
      "##ெல": 1306,
      "தலைமையில": 1307,
      "கவன": 1308,
      "ரோ": 1309,
      "தெரிவிததுளளார": 1310,
      "##கால": 1311,
      "இஙகு": 1312,
      "##டடம": 1313,
      "##குதியில": 1314,
      "ஆயவு": 1315,
      "தொடரபாக": 1316,
      "இயகக": 1317,
      "ஆயிரம": 1318,
      "புற": 1319,
      "##ததையும": 1320,
      "இறு": 1321,
      "இடம": 1322,
      "கன": 1323,
      "மதுரை": 1324,
      "##பபினர": 1325,
      "கழி": 1326,
      "##போல": 1327,
      "மல": 1328,
      "திருமப": 1329,
      "ஒவவொரு": 1330,
      "##குறி": 1331,
      "மி": 1332,
      "தாய": 1333,
      "##ிருககும": 1334,
      "சுவ": 1335,
      "கேளவி": 1336,
      "மருததுவ": 1337,
      "##னு": 1338,
      "இனனும": 1339,
      "##ததகக": 1340,
      "சிகிசசை": 1341,
      "நன": 1342,
      "விரை": 1343,
      "வயது": 1344,
      "பொருட": 1345,
      "##படட": 1346,
      "குடிய": 1347,
      "சரிய": 1348,
      "நடநது": 1349,
      "##ிலல": 1350,
      "செயயும": 1351,
      "இண": 1352,
      "மாவடடததில": 1353,
      "##ரகளுககு": 1354,
      "எதிரபார": 1355,
      "முடியாது": 1356,
      "மை": 1357,
      "அட": 1358,
      "எபபடி": 1359,
      "##வியல": 1360,
      "தேவை": 1361,
      "##ாடடில": 1362,
      "கணண": 1363,
      "வகு": 1364,
      "பயிறசி": 1365,
      "##கலை": 1366,
      "##களையும": 1367,
      "##பபான": 1368,
      "செயதனர": 1369,
      "##ியது": 1370,
      "##ணர": 1371,
      "கேடடு": 1372,
      "நேரம": 1373,
      "இழ": 1374,
      "சால": 1375,
      "##ேச": 1376,
      "இடஙகளில": 1377,
      "##வேணடும": 1378,
      "சிகக": 1379,
      "##கிறேன": 1380,
      "##ஞசி": 1381,
      "மகன": 1382,
      "##றறும": 1383,
      "##பக": 1384,
      "ஜெ": 1385,
      "பகுதிகளில": 1386,
      "ஏறக": 1387,
      "##வுன": 1388,
      "கூறினார": 1389,
      "ஏறபடடு": 1390,
      "இள": 1391,
      "##ஙகளும": 1392,
      "##ததுளளது": 1393,
      "##ேரி": 1394,
      "இபபோது": 1395,
      "அவள": 1396,
      "##ியான": 1397,
      "வேல": 1398,
      "புல": 1399,
      "எணண": 1400,
      "தனியார": 1401,
      "##ேக": 1402,
      "##னையில": 1403,
      "முழுவதும": 1404,
      "நிதி": 1405,
      "குழு": 1406,
      "குழநதை": 1407,
      "##ிருகக": 1408,
      "##ககுள": 1409,
      "போககுவர": 1410,
      "தாககு": 1411,
      "##ாகும": 1412,
      "வாஙக": 1413,
      "##நதுளள": 1414,
      "காரணம": 1415,
      "##ஞர": 1416,
      "விலை": 1417,
      "##டைநத": 1418,
      "தடை": 1419,
      "பயணி": 1420,
      "##ததன": 1421,
      "வநதது": 1422,
      "##ாணுவ": 1423,
      "##ினால": 1424,
      "##றையில": 1425,
      "செலலும": 1426,
      "##லகள": 1427,
      "சதவத": 1428,
      "##டடர": 1429,
      "கத": 1430,
      "##ூரில": 1431,
      "இளை": 1432,
      "##ூன": 1433,
      "பிள": 1434,
      "வடி": 1435,
      "பாரகக": 1436,
      "தெரிவிததார": 1437,
      "பணம": 1438,
      "##ுமபோது": 1439,
      "திரை": 1440,
      "அவரை": 1441,
      "வடடு": 1442,
      "##ககார": 1443,
      "##ோதனை": 1444,
      "வடடில": 1445,
      "##ிககொ": 1446,
      "##ககால": 1447,
      "##பல": 1448,
      "##ககிறாரகள": 1449,
      "மணட": 1450,
      "பலர": 1451,
      "சுக": 1452,
      "இதறகு": 1453,
      "##ரகளை": 1454,
      "டிர": 1455,
      "அமர": 1456,
      "கொடுகக": 1457,
      "ஒரே": 1458,
      "கொலை": 1459,
      "##ாகவும": 1460,
      "ஊழிய": 1461,
      "##வாத": 1462,
      "நாய": 1463,
      "இடததில": 1464,
      "மேறபடட": 1465,
      "##நாள": 1466,
      "##கூ": 1467,
      "தநத": 1468,
      "கிள": 1469,
      "மைய": 1470,
      "##ஙகா": 1471,
      "பேசிய": 1472,
      "பாரதது": 1473,
      "தொலை": 1474,
      "வின": 1475,
      "##லகம": 1476,
      "உடபட": 1477,
      "##டுதல": 1478,
      "##மைய": 1479,
      "ஈர": 1480,
      "குழநதைகள": 1481,
      "விறபனை": 1482,
      "உணவு": 1483,
      "நண": 1484,
      "விய": 1485,
      "தமிழகததில": 1486,
      "ஒது": 1487,
      "கலலூரி": 1488,
      "ஈடுபடட": 1489,
      "##வரி": 1490,
      "கேர": 1491,
      "உறப": 1492,
      "பெருமப": 1493,
      "வலியு": 1494,
      "தெரிவிகக": 1495,
      "கடல": 1496,
      "##வதை": 1497,
      "முயறசி": 1498,
      "வாயபபு": 1499,
      "##ுமபு": 1500,
      "##ரகளின": 1501,
      "##ததா": 1502,
      "மேறகொளள": 1503,
      "வாககு": 1504,
      "மகள": 1505,
      "##தோ": 1506,
      "##ாளையம": 1507,
      "##நதன": 1508,
      "வலியுறு": 1509,
      "##விழ": 1510,
      "##டுததும": 1511,
      "சாத": 1512,
      "ஊராடசி": 1513,
      "##ாகி": 1514,
      "##ககே": 1515,
      "##ாளும": 1516,
      "தாம": 1517,
      "தஙக": 1518,
      "##டசி": 1519,
      "கோரிககை": 1520,
      "இவவாறு": 1521,
      "எவ": 1522,
      "##சே": 1523,
      "செனன": 1524,
      "##ஜின": 1525,
      "அடிபபட": 1526,
      "அதனால": 1527,
      "வரவே": 1528,
      "##ககெ": 1529,
      "விதி": 1530,
      "குள": 1531,
      "இபபடி": 1532,
      "##ாயம": 1533,
      "அவருககு": 1534,
      "நியம": 1535,
      "##டுபப": 1536,
      "பலகலை": 1537,
      "நாக": 1538,
      "காதல": 1539,
      "எனனை": 1540,
      "இடமபெ": 1541,
      "##னின": 1542,
      "இதுகுறி": 1543,
      "குடிநர": 1544,
      "ஓர": 1545,
      "இநதப": 1546,
      "அடைய": 1547,
      "கூடடம": 1548,
      "##ததொ": 1549,
      "ஆப": 1550,
      "கொடுதது": 1551,
      "அஙக": 1552,
      "##கே": 1553,
      "எஙகள": 1554,
      "##வதால": 1555,
      "##பபர": 1556,
      "முழு": 1557,
      "ஆலோ": 1558,
      "முகாம": 1559,
      "##ஜி": 1560,
      "குர": 1561,
      "எலலாம": 1562,
      "##னாதி": 1563,
      "மறை": 1564,
      "##ாளி": 1565,
      "திமுக": 1566,
      "வேடப": 1567,
      "பதவி": 1568,
      "காடட": 1569,
      "##ாளிகள": 1570,
      "##ணா": 1571,
      "இனற": 1572,
      "##ிதா": 1573,
      "எனறால": 1574,
      "சப": 1575,
      "##ோல": 1576,
      "உசச": 1577,
      "நிறுவனம": 1578,
      "##ிஷ": 1579,
      "##பபாளர": 1580,
      "உளளனர": 1581,
      "##வுடன": 1582,
      "##விடடது": 1583,
      "##ினும": 1584,
      "பாத": 1585,
      "##வாரகள": 1586,
      "நிகழசச": 1587,
      "மூல": 1588,
      "சமபவ": 1589,
      "போடடி": 1590,
      "அனுமதி": 1591,
      "##ாகு": 1592,
      "ஜனாதி": 1593,
      "கோவை": 1594,
      "தொகுதி": 1595,
      "தாககுதல": 1596,
      "##தததில": 1597,
      "தல": 1598,
      "##ஙகல": 1599,
      "இடை": 1600,
      "காம": 1601,
      "வழகக": 1602,
      "##தேச": 1603,
      "##ாளுமனற": 1604,
      "நேரததில": 1605,
      "தரமான": 1606,
      "##ேஷன": 1607,
      "##ைச": 1608,
      "போககுவரதது": 1609,
      "இதுகுறிதது": 1610,
      "கதை": 1611,
      "##வரகளுககு": 1612,
      "வஙக": 1613,
      "திருவ": 1614,
      "அரசின": 1615,
      "தனன": 1616,
      "நானகு": 1617,
      "##டுககும": 1618,
      "அனுபப": 1619,
      "##கான": 1620,
      "##ததிருநத": 1621,
      "##ஙகர": 1622,
      "##ுமி": 1623,
      "பெரு": 1624,
      "எணணி": 1625,
      "கிழ": 1626,
      "ஜெயலல": 1627,
      "தள": 1628,
      "அணண": 1629,
      "##சசல": 1630,
      "நிறைவே": 1631,
      "தேரதலில": 1632,
      "கூறி": 1633,
      "மாநகர": 1634,
      "ஜோ": 1635,
      "இதையடுதது": 1636,
      "##டியே": 1637,
      "##பாடு": 1638,
      "##ாணட": 1639,
      "படததில": 1640,
      "##ிருககிறது": 1641,
      "பறறிய": 1642,
      "பாஜ": 1643,
      "##ிபபு": 1644,
      "பொலி": 1645,
      "சுகாதார": 1646,
      "##பபம": 1647,
      "திட": 1648,
      "##வித": 1649,
      "##ூல": 1650,
      "##கிறோம": 1651,
      "நாஙகள": 1652,
      "நெரு": 1653,
      "நடததி": 1654,
      "##றறம": 1655,
      "மனைவி": 1656,
      "சொநத": 1657,
      "போடடியில": 1658,
      "##வால": 1659,
      "##ழிபபு": 1660,
      "பகக": 1661,
      "தொடரபு": 1662,
      "##மபி": 1663,
      "இதனை": 1664,
      "##கினறது": 1665,
      "##ிஸதான": 1666,
      "எது": 1667,
      "##நதனர": 1668,
      "##ததககது": 1669,
      "##ேல": 1670,
      "இதே": 1671,
      "##டா": 1672,
      "போடடு": 1673,
      "##வண": 1674,
      "மருததுவமனை": 1675,
      "இணைய": 1676,
      "பறி": 1677,
      "வசி": 1678,
      "##ஜர": 1679,
      "விணண": 1680,
      "தணட": 1681,
      "அணிய": 1682,
      "##ிருநதது": 1683,
      "ஏறபாடு": 1684,
      "டாக": 1685,
      "புரி": 1686,
      "வேள": 1687,
      "##கல": 1688,
      "புர": 1689,
      "##ததனை": 1690,
      "பாரதத": 1691,
      "உறுதி": 1692,
      "##ாடசிய": 1693,
      "கில": 1694,
      "மோடி": 1695,
      "மேமப": 1696,
      "பூஜ": 1697,
      "##ிருபப": 1698,
      "ஆடட": 1699,
      "நிறு": 1700,
      "##ிம": 1701,
      "கிருஷண": 1702,
      "##செய": 1703,
      "##ாடி": 1704,
      "வரலா": 1705,
      "சுமார": 1706,
      "நடிகர": 1707,
      "##தறகு": 1708,
      "அதிமுக": 1709,
      "வருகிறார": 1710,
      "எதிராக": 1711,
      "தாககல": 1712,
      "தெரு": 1713,
      "அருகில": 1714,
      "##களைப": 1715,
      "ஓடடு": 1716,
      "##ஞசம": 1717,
      "##ததிக": 1718,
      "தரு": 1719,
      "ஆயிர": 1720,
      "##சசர": 1721,
      "##யூ": 1722,
      "##வளவு": 1723,
      "உரிமை": 1724,
      "இதுவரை": 1725,
      "அதிகம": 1726,
      "##டியோ": 1727,
      "ஓடட": 1728,
      "தொடஙக": 1729,
      "##களைக": 1730,
      "##ெனற": 1731,
      "கூடுதல": 1732,
      "பஙகேறற": 1733,
      "ஒனறிய": 1734,
      "திரைபபட": 1735,
      "##ேநதிர": 1736,
      "கைய": 1737,
      "##டியில": 1738,
      "காடசி": 1739,
      "ஏர": 1740,
      "##பபே": 1741,
      "மகிழ": 1742,
      "##கததில": 1743,
      "சினன": 1744,
      "அமைபபு": 1745,
      "மான": 1746,
      "##ததிரம": 1747,
      "உறுபபின": 1748,
      "அரசாஙக": 1749,
      "புக": 1750,
      "பரிச": 1751,
      "பாஜக": 1752,
      "காலததில": 1753,
      "அடிபபடையில": 1754,
      "ரன": 1755,
      "யோ": 1756,
      "##பபடடுளளன": 1757,
      "##ககளை": 1758,
      "சேவை": 1759,
      "நிய": 1760,
      "தயாரி": 1761,
      "அப": 1762,
      "ககும": 1763,
      "ஆசிரியர": 1764,
      "அச": 1765,
      "##டுகிறது": 1766,
      "பன": 1767,
      "ரெ": 1768,
      "##மைபபு": 1769,
      "இயககுனர": 1770,
      "விருது": 1771,
      "கடி": 1772,
      "##வோ": 1773,
      "குறிபபிடட": 1774,
      "முனபு": 1775,
      "கேரள": 1776,
      "பணிகள": 1777,
      "ஒபப": 1778,
      "ஆடசி": 1779,
      "வக": 1780,
      "##றவு": 1781,
      "உணம": 1782,
      "பரு": 1783,
      "ரா": 1784,
      "அபபடி": 1785,
      "மதத": 1786,
      "எடுதத": 1787,
      "##ஷட": 1788,
      "##கஸ": 1789,
      "பை": 1790,
      "##பபடடன": 1791,
      "பகத": 1792,
      "##நாட": 1793,
      "##ிறது": 1794,
      "##ுறை": 1795,
      "##ுத": 1796,
      "##ிலும": 1797,
      "ஆகும": 1798,
      "இலலாமல": 1799,
      "##ியே": 1800,
      "இனி": 1801,
      "கமப": 1802,
      "வித": 1803,
      "பஙகு": 1804,
      "##ககொளள": 1805,
      "விருமப": 1806,
      "##படுதத": 1807,
      "ஏறபடும": 1808,
      "உயிரிழ": 1809,
      "ஆறு": 1810,
      "மககளின": 1811,
      "பததிர": 1812,
      "யா": 1813,
      "செலு": 1814,
      "கிடைககும": 1815,
      "##ுககாக": 1816,
      "##ாணடு": 1817,
      "போடடிய": 1818,
      "##நாடடு": 1819,
      "பிறநத": 1820,
      "சான": 1821,
      "வான": 1822,
      "சை": 1823,
      "டெலல": 1824,
      "##கொளள": 1825,
      "சாம": 1826,
      "பெறறோர": 1827,
      "##ாரம": 1828,
      "குறிபபிடததககது": 1829,
      "##பாக": 1830,
      "கலெக": 1831,
      "கடசியின": 1832,
      "குழுவ": 1833,
      "வெளியிட": 1834,
      "##களிலும": 1835,
      "வண": 1836,
      "##ககையில": 1837,
      "ஜனாதிபதி": 1838,
      "##னஸ": 1839,
      "உடை": 1840,
      "பொருளாதார": 1841,
      "முறையில": 1842,
      "கிடைகக": 1843,
      "நடததிய": 1844,
      "##பபடி": 1845,
      "செனனையில": 1846,
      "பெறு": 1847,
      "புதுசச": 1848,
      "##சா": 1849,
      "முருக": 1850,
      "##ழுது": 1851,
      "எரி": 1852,
      "வருட": 1853,
      "##ையர": 1854,
      "##சியம": 1855,
      "##பபாடட": 1856,
      "##ததுளள": 1857,
      "மாணவி": 1858,
      "##ாலி": 1859,
      "##ாததால": 1860,
      "சூர": 1861,
      "##ானது": 1862,
      "##எஸ": 1863,
      "##வகார": 1864,
      "கடன": 1865,
      "உறுபபினர": 1866,
      "பாகிஸதான": 1867,
      "பேரு": 1868,
      "##பபாகக": 1869,
      "##ததைச": 1870,
      "அகக": 1871,
      "##ிடையே": 1872,
      "மருததுவமனையில": 1873,
      "அறிவு": 1874,
      "போராடடம": 1875,
      "##ியோ": 1876,
      "சேரநதவர": 1877,
      "இநதியாவில": 1878,
      "மாதிர": 1879,
      "இலலாத": 1880,
      "##ினறி": 1881,
      "குரு": 1882,
      "##ககுப": 1883,
      "##ையால": 1884,
      "##ககழ": 1885,
      "##முதல": 1886,
      "கூடடு": 1887,
      "நடு": 1888,
      "ஆடசிய": 1889,
      "##காணி": 1890,
      "##பபும": 1891,
      "சரவத": 1892,
      "உர": 1893,
      "தலைவரகள": 1894,
      "பிரிவு": 1895,
      "அபி": 1896,
      "இநது": 1897,
      "திடர": 1898,
      "##நு": 1899,
      "உணடு": 1900,
      "வஙகி": 1901,
      "தமிழநாடு": 1902,
      "அவை": 1903,
      "கூடிய": 1904,
      "##லிம": 1905,
      "அதிகாரி": 1906,
      "##ததிலும": 1907,
      "ஆராய": 1908,
      "##நதம": 1909,
      "ஓய": 1910,
      "எனது": 1911,
      "அவரு": 1912,
      "சிலர": 1913,
      "நிறுதத": 1914,
      "கணகாணி": 1915,
      "அழைதது": 1916,
      "வழியாக": 1917,
      "##டுபபு": 1918,
      "எனவும": 1919,
      "வேணட": 1920,
      "நடககிறது": 1921,
      "##தினம": 1922,
      "ஏறறு": 1923,
      "சரவதேச": 1924,
      "##மி": 1925,
      "##வைய": 1926,
      "சும": 1927,
      "விடுதலை": 1928,
      "ஆழ": 1929,
      "##பபன": 1930,
      "##வோம": 1931,
      "##ககிறேன": 1932,
      "##ததுளளார": 1933,
      "##கொணட": 1934,
      "அதனை": 1935,
      "படு": 1936,
      "##ககினறன": 1937,
      "மாறறு": 1938,
      "பணியா": 1939,
      "##ிககெட": 1940,
      "பயன": 1941,
      "##றறின": 1942,
      "கூடாது": 1943,
      "##ிலை": 1944,
      "குமார": 1945,
      "விரி": 1946,
      "##வியை": 1947,
      "வளரசசி": 1948,
      "பேசச": 1949,
      "##ுஙகள": 1950,
      "அனுப": 1951,
      "சிறநத": 1952,
      "ஐநது": 1953,
      "##நிதி": 1954,
      "விளையாடடு": 1955,
      "##ககொணட": 1956,
      "##விரு": 1957,
      "விஷய": 1958,
      "##னனு": 1959,
      "திருமணம": 1960,
      "இறுதி": 1961,
      "##ேஸவர": 1962,
      "இணைநது": 1963,
      "அவரகளுககு": 1964,
      "சொலலி": 1965,
      "அனறு": 1966,
      "பற": 1967,
      "##பபடுகினறன": 1968,
      "##ததைப": 1969,
      "##ததிடட": 1970,
      "நாளை": 1971,
      "மூனற": 1972,
      "மககளுககு": 1973,
      "செயதார": 1974,
      "##பிடி": 1975,
      "மாடட": 1976,
      "இஸ": 1977,
      "##துறை": 1978,
      "அதனப": 1979,
      "##பபிடடு": 1980,
      "மட": 1981,
      "##மானது": 1982,
      "##ாவும": 1983,
      "முதலில": 1984,
      "போலஸார": 1985,
      "##ரிடம": 1986,
      "##ஷன": 1987,
      "##லலை": 1988,
      "உடனடியாக": 1989,
      "வழககில": 1990,
      "அடையாள": 1991,
      "நாடடு": 1992,
      "##புர": 1993,
      "எழுதிய": 1994,
      "வகை": 1995,
      "விளை": 1996,
      "விவகார": 1997,
      "##ககண": 1998,
      "முஸ": 1999,
      "உப": 2000,
      "வெளியிடடு": 2001,
      "வருகினறன": 2002,
      "ஆகியவ": 2003,
      "ரசிக": 2004,
      "##ாநத": 2005,
      "பிளள": 2006,
      "புகை": 2007,
      "ஜெயலலிதா": 2008,
      "##றையினர": 2009,
      "அவரகளின": 2010,
      "கவி": 2011,
      "##றகும": 2012,
      "அழு": 2013,
      "தொகு": 2014,
      "##பபுற": 2015,
      "செயயபபடடு": 2016,
      "##ேகம": 2017,
      "##விடு": 2018,
      "##ாசிரிய": 2019,
      "##வதிலலை": 2020,
      "குமப": 2021,
      "அனைவரும": 2022,
      "##ானம": 2023,
      "எனபதால": 2024,
      "##ஙகியது": 2025,
      "வசதி": 2026,
      "திருமண": 2027,
      "##ஙகளாக": 2028,
      "காடடு": 2029,
      "சமபவம": 2030,
      "பஞச": 2031,
      "##வதறகாக": 2032,
      "##பபாடு": 2033,
      "கணடி": 2034,
      "அதிகமாக": 2035,
      "அமமா": 2036,
      "##ினறனர": 2037,
      "மாக": 2038,
      "கூறியதாவது": 2039,
      "தொடரபான": 2040,
      "நதிபதி": 2041,
      "##கரன": 2042,
      "பிரதி": 2043,
      "நடைபெறறது": 2044,
      "உறபததி": 2045,
      "கலெகடர": 2046,
      "சுத": 2047,
      "##டல": 2048,
      "குறைநத": 2049,
      "கூறியுளளார": 2050,
      "##ஞரகள": 2051,
      "##ஙகளையும": 2052,
      "மலை": 2053,
      "ஒதுகக": 2054,
      "##வையில": 2055,
      "விடும": 2056,
      "##ூரததி": 2057,
      "பொலிஸ": 2058,
      "இலஙக": 2059,
      "உருவாகக": 2060,
      "இருவரும": 2061,
      "தோல": 2062,
      "##விடடார": 2063,
      "முனப": 2064,
      "பாடல": 2065,
      "மற": 2066,
      "வளாக": 2067,
      "கூடடணி": 2068,
      "ஆலோசனை": 2069,
      "நிகழசசி": 2070,
      "சேலம": 2071,
      "விரைவில": 2072,
      "எதிரபபு": 2073,
      "தட": 2074,
      "முடியாத": 2075,
      "அணை": 2076,
      "##பம": 2077,
      "அந": 2078,
      "ரஜின": 2079,
      "ஏறபடடது": 2080,
      "உரிய": 2081,
      "ஆஸ": 2082,
      "##ததைக": 2083,
      "அடிகக": 2084,
      "பிரசனை": 2085,
      "##விடும": 2086,
      "கரநாட": 2087,
      "வகுபபு": 2088,
      "மோச": 2089,
      "இசை": 2090,
      "வநதார": 2091,
      "##பபடவிலலை": 2092,
      "பிரதேச": 2093,
      "##வலை": 2094,
      "ஆகக": 2095,
      "##ிருககிறார": 2096,
      "அசச": 2097,
      "வெள": 2098,
      "பணியில": 2099,
      "ராணுவ": 2100,
      "மத": 2101,
      "##ியுடன": 2102,
      "சோதனை": 2103,
      "கூடடததில": 2104,
      "சுர": 2105,
      "##பபிர": 2106,
      "பினன": 2107,
      "##பபதி": 2108,
      "அளவு": 2109,
      "தென": 2110,
      "நமது": 2111,
      "இயல": 2112,
      "அறிவிகக": 2113,
      "எனனும": 2114,
      "கிலோ": 2115,
      "##ஞசு": 2116,
      "##நோ": 2117,
      "வடடார": 2118,
      "##ககூட": 2119,
      "##ைத": 2120,
      "தவற": 2121,
      "சநதிர": 2122,
      "##வநத": 2123,
      "##தியின": 2124,
      "நகை": 2125,
      "##ிருநதார": 2126,
      "அற": 2127,
      "கூறுகையில": 2128,
      "வெஙக": 2129,
      "அணு": 2130,
      "நிம": 2131,
      "##னில": 2132,
      "விபதது": 2133,
      "முழும": 2134,
      "நிறுவனஙகள": 2135,
      "##ககினறனர": 2136,
      "இறை": 2137,
      "பலகலைககழ": 2138,
      "##ாா": 2139,
      "திக": 2140,
      "முனனே": 2141,
      "மொழ": 2142,
      "காலம": 2143,
      "அலுவலர": 2144,
      "விவர": 2145,
      "##ியர": 2146,
      "ஊடக": 2147,
      "அனுமதிகக": 2148,
      "##ினி": 2149,
      "அமப": 2150,
      "விழிபபு": 2151,
      "##நுடப": 2152,
      "இருநதாலும": 2153,
      "இலவச": 2154,
      "இருநதால": 2155,
      "காநதி": 2156,
      "நகராடசி": 2157,
      "வெளியிடட": 2158,
      "அறிய": 2159,
      "நாடடின": 2160,
      "அடுதது": 2161,
      "##டுகள": 2162,
      "எபபோது": 2163,
      "மொழி": 2164,
      "##பபதறகு": 2165,
      "##ககூடிய": 2166,
      "மாற": 2167,
      "அறிககை": 2168,
      "ஆணடில": 2169,
      "இயறக": 2170,
      "##ளவில": 2171,
      "நெடு": 2172,
      "கொணடனர": 2173,
      "##தையும": 2174,
      "முனதினம": 2175,
      "பழைய": 2176,
      "கும": 2177,
      "##தியான": 2178,
      "##தொ": 2179,
      "படததின": 2180,
      "பிரபல": 2181,
      "##ையுடன": 2182,
      "நணட": 2183,
      "உன": 2184,
      "அரி": 2185,
      "##ேட": 2186,
      "குறு": 2187,
      "சாலையில": 2188,
      "நோககி": 2189,
      "வியாப": 2190,
      "நாடாளுமனற": 2191,
      "இநதக": 2192,
      "##வோர": 2193,
      "கூறபபடுகிறது": 2194,
      "மனற": 2195,
      "##வரகளை": 2196,
      "வரரகள": 2197,
      "தேடி": 2198,
      "##வருககும": 2199,
      "எசச": 2200,
      "##னவே": 2201,
      "##ஃப": 2202,
      "மனன": 2203,
      "விமர": 2204,
      "தேவையான": 2205,
      "##ணரவு": 2206,
      "பரபர": 2207,
      "அய": 2208,
      "##நாடடில": 2209,
      "##வேல": 2210,
      "பாதிககபபடட": 2211,
      "சதவதம": 2212,
      "மரம": 2213,
      "##காக": 2214,
      "##ெடுகக": 2215,
      "தினம": 2216,
      "செயதிரு": 2217,
      "வெடி": 2218,
      "நகரில": 2219,
      "##சசிய": 2220,
      "##ோன": 2221,
      "##பபடுதது": 2222,
      "##ணடை": 2223,
      "##குநத": 2224,
      "##சாலை": 2225,
      "##டடிய": 2226,
      "நிரவாகிகள": 2227,
      "இடையே": 2228,
      "##டியும": 2229,
      "##ககொணடு": 2230,
      "##வதில": 2231,
      "##ெனறு": 2232,
      "வாழககை": 2233,
      "தொழிற": 2234,
      "தொகை": 2235,
      "நிரவாகம": 2236,
      "முதன": 2237,
      "##ிப": 2238,
      "##கமாக": 2239,
      "தொழிலநுடப": 2240,
      "அறு": 2241,
      "##பபிகக": 2242,
      "சநதிதது": 2243,
      "##வதறகான": 2244,
      "அவரகளை": 2245,
      "அதிபர": 2246,
      "ஈடுபடடு": 2247,
      "எனபவர": 2248,
      "##ிறு": 2249,
      "யு": 2250,
      "##ளிகக": 2251,
      "பொருடகள": 2252,
      "தெளி": 2253,
      "அனுபபி": 2254,
      "தறகொ": 2255,
      "பராம": 2256,
      "யான": 2257,
      "ஆதார": 2258,
      "##ோட": 2259,
      "##ொழி": 2260,
      "வாட": 2261,
      "வடியோ": 2262,
      "நாடகள": 2263,
      "போக": 2264,
      "உறுபபினரகள": 2265,
      "##ாநது": 2266,
      "ஏறகனவே": 2267,
      "நின": 2268,
      "முகம": 2269,
      "நாடடில": 2270,
      "எலலா": 2271,
      "ஊழியரகள": 2272,
      "யாரும": 2273,
      "ரயிலவே": 2274,
      "எழுத": 2275,
      "##ததூர": 2276,
      "நடககும": 2277,
      "கலலு": 2278,
      "சுய": 2279,
      "##ோடட": 2280,
      "எனும": 2281,
      "கிரிககெட": 2282,
      "##ியுளளனர": 2283,
      "வருவாய": 2284,
      "##ததுப": 2285,
      "போட": 2286,
      "மேறகு": 2287,
      "##ளளன": 2288,
      "நதிமனறம": 2289,
      "##ூரவ": 2290,
      "##ினறன": 2291,
      "புததக": 2292,
      "##ரன": 2293,
      "குறிபபாக": 2294,
      "முமப": 2295,
      "உருவாக": 2296,
      "வாஙகி": 2297,
      "கிற": 2298,
      "செயறப": 2299,
      "பிரசசினை": 2300,
      "பெணண": 2301,
      "டாகடர": 2302,
      "இவை": 2303,
      "தறகொலை": 2304,
      "ஏராள": 2305,
      "மொதத": 2306,
      "புதுசசேரி": 2307,
      "##தள": 2308,
      "##ஙகளிலும": 2309,
      "##ககபபடடு": 2310,
      "##கடர": 2311,
      "நனறி": 2312,
      "கொணடிருநத": 2313,
      "கருணா": 2314,
      "கடவு": 2315,
      "ககு": 2316,
      "##ணடர": 2317,
      "அனப": 2318,
      "கனன": 2319,
      "மடட": 2320,
      "##ேசன": 2321,
      "ஏறபடடுளளது": 2322,
      "##ாமன": 2323,
      "பயணிகள": 2324,
      "##நாதன": 2325,
      "##டசிய": 2326,
      "ஸடால": 2327,
      "அலுவலகததில": 2328,
      "நவ": 2329,
      "நடைபெறும": 2330,
      "தொழிலாளரகள": 2331,
      "எதுவும": 2332,
      "எளி": 2333,
      "இலககிய": 2334,
      "தெரிவிததனர": 2335,
      "சேரதது": 2336,
      "##பபிடி": 2337,
      "நடிகை": 2338,
      "##ிநத": 2339,
      "வலை": 2340,
      "##தததை": 2341,
      "ரொ": 2342,
      "சிறி": 2343,
      "பளளியில": 2344,
      "மததியில": 2345,
      "அநதப": 2346,
      "உணமை": 2347,
      "பகதரகள": 2348,
      "##பன": 2349,
      "நிறைவேறற": 2350,
      "##ாலையில": 2351,
      "##டிக": 2352,
      "##ணியில": 2353,
      "குறறம": 2354,
      "##மாகும": 2355,
      "கேடக": 2356,
      "##திலலை": 2357,
      "##ுவார": 2358,
      "ஆளு": 2359,
      "மருநது": 2360,
      "சித": 2361,
      "முஸலிம": 2362,
      "##வாதிகள": 2363,
      "இயககுநர": 2364,
      "சடடம": 2365,
      "##கையை": 2366,
      "##ிலலி": 2367,
      "தெரியும": 2368,
      "மிர": 2369,
      "சேரநது": 2370,
      "ரோடு": 2371,
      "##பான": 2372,
      "திருபபூர": 2373,
      "மினசார": 2374,
      "மாகாண": 2375,
      "ஒளி": 2376,
      "தரம": 2377,
      "செலுதத": 2378,
      "பஙகேறறனர": 2379,
      "##ததுவ": 2380,
      "அறிவியல": 2381,
      "##ரா": 2382,
      "உளளார": 2383,
      "நிலையததில": 2384,
      "மாணவ": 2385,
      "பழனி": 2386,
      "##நததால": 2387,
      "வெளியாக": 2388,
      "அளவுககு": 2389,
      "சகோ": 2390,
      "வேணடாம": 2391,
      "சமபநத": 2392,
      "பாஸ": 2393,
      "தடுகக": 2394,
      "தரபபு": 2395,
      "##ுவை": 2396,
      "வைததிரு": 2397,
      "வைர": 2398,
      "##வரகளின": 2399,
      "தளள": 2400,
      "ஆணடுகளுககு": 2401,
      "பாதிபபு": 2402,
      "##ாதி": 2403,
      "நணபரகள": 2404,
      "அறிமுக": 2405,
      "##ககிழமை": 2406,
      "##பபிட": 2407,
      "வேளாண": 2408,
      "சநதி": 2409,
      "தினமும": 2410,
      "மனம": 2411,
      "##யல": 2412,
      "கொலல": 2413,
      "##தறகாக": 2414,
      "முறையாக": 2415,
      "சிறை": 2416,
      "கவுன": 2417,
      "செயயபபடடது": 2418,
      "##சக": 2419,
      "ஒழு": 2420,
      "##ளளதாக": 2421,
      "ஏறற": 2422,
      "##நாயகர": 2423,
      "கணி": 2424,
      "காயம": 2425,
      "##நதிமனற": 2426,
      "##ையோ": 2427,
      "எதிரான": 2428,
      "தமிழகம": 2429,
      "நுழை": 2430,
      "விச": 2431,
      "ஆசிரியரகள": 2432,
      "தனனை": 2433,
      "##கடட": 2434,
      "##தியம": 2435,
      "யாழ": 2436,
      "வேடபாளர": 2437,
      "வழஙகும": 2438,
      "##பபார": 2439,
      "திருந": 2440,
      "##ககிறோம": 2441,
      "குவி": 2442,
      "கமல": 2443,
      "##பரம": 2444,
      "##டோ": 2445,
      "##கிரி": 2446,
      "நடதது": 2447,
      "##களால": 2448,
      "விசாரண": 2449,
      "பெஙகள": 2450,
      "திருசசி": 2451,
      "ஆதரவு": 2452,
      "##வேன": 2453,
      "பேசி": 2454,
      "வகி": 2455,
      "உல": 2456,
      "##வருககு": 2457,
      "ஒபபு": 2458,
      "மாதிரி": 2459,
      "கவர": 2460,
      "##டைநது": 2461,
      "இநதியாவின": 2462,
      "கழக": 2463,
      "மாறி": 2464,
      "புரிநது": 2465,
      "தூர": 2466,
      "பூஜை": 2467,
      "நடகக": 2468,
      "##தாய": 2469,
      "எணணிககை": 2470,
      "கறப": 2471,
      "நதிமனறததில": 2472,
      "அளிதத": 2473,
      "##நாயக": 2474,
      "##விர": 2475,
      "##களைத": 2476,
      "பரிசு": 2477,
      "##தரி": 2478,
      "கோல": 2479,
      "உஙகளுககு": 2480,
      "சகதி": 2481,
      "##ிறறு": 2482,
      "நிறைய": 2483,
      "##நதில": 2484,
      "பயஙகர": 2485,
      "ஆணடுகள": 2486,
      "வெறற": 2487,
      "புகைபபட": 2488,
      "கைபப": 2489,
      "##முகம": 2490,
      "##வழ": 2491,
      "தரும": 2492,
      "வாசி": 2493,
      "##பிர": 2494,
      "உதவிய": 2495,
      "தரவு": 2496,
      "நியமிகக": 2497,
      "நடிகக": 2498,
      "ஆணடுகளாக": 2499,
      "##ருககும": 2500,
      "##ழுவ": 2501,
      "ஸடாலின": 2502,
      "பணண": 2503,
      "அதாவது": 2504,
      "##ககா": 2505,
      "##மைசசர": 2506,
      "சாரநத": 2507,
      "##ுவன": 2508,
      "கொர": 2509,
      "##ததுககும": 2510,
      "இவரது": 2511,
      "இரணடாம": 2512,
      "கான": 2513,
      "வரர": 2514,
      "##போன": 2515,
      "##ககுழு": 2516,
      "பயிர": 2517,
      "இருபபது": 2518,
      "நூல": 2519,
      "தகவலகள": 2520,
      "சிறையில": 2521,
      "##கூட": 2522,
      "சாய": 2523,
      "டெலலி": 2524,
      "மாணவர": 2525,
      "விததிய": 2526,
      "மாநகராடசி": 2527,
      "சிறிய": 2528,
      "புகழ": 2529,
      "தொடரபில": 2530,
      "##விறகு": 2531,
      "பகுதியை": 2532,
      "குறறசச": 2533,
      "வடிவ": 2534,
      "கொஞசம": 2535,
      "நமபிககை": 2536,
      "ஏராளமான": 2537,
      "விடுதது": 2538,
      "பொறிய": 2539,
      "##றையின": 2540,
      "அவசியம": 2541,
      "பேருநது": 2542,
      "##திக": 2543,
      "பேசசு": 2544,
      "அடிபபடை": 2545,
      "மாநிலம": 2546,
      "தெரிவிததுளளது": 2547,
      "கடடி": 2548,
      "##விழா": 2549,
      "கேட": 2550,
      "அலுவலகம": 2551,
      "##பபதாக": 2552,
      "அனன": 2553,
      "கிழககு": 2554,
      "சுதநதிர": 2555,
      "ஐககிய": 2556,
      "##ஸபெ": 2557,
      "பாலியல": 2558,
      "##வாள": 2559,
      "##யததில": 2560,
      "கொணடாட": 2561,
      "ஒருஙகி": 2562,
      "##ையொ": 2563,
      "விழாவில": 2564,
      "பகிர": 2565,
      "சுவாமி": 2566,
      "தொடஙகி": 2567,
      "போதும": 2568,
      "##நாடட": 2569,
      "சடடச": 2570,
      "சிங": 2571,
      "தரி": 2572,
      "பாரவைய": 2573,
      "##றபு": 2574,
      "##படச": 2575,
      "நிலையம": 2576,
      "சிநத": 2577,
      "மணடல": 2578,
      "பததிரிக": 2579,
      "செயலர": 2580,
      "எனக": 2581,
      "ஒருஙகிணை": 2582,
      "##பபிய": 2583,
      "எனகிற": 2584,
      "வடககு": 2585,
      "அழி": 2586,
      "பெறும": 2587,
      "நினறு": 2588,
      "இச": 2589,
      "##ாகப": 2590,
      "##ரசு": 2591,
      "ரி": 2592,
      "##கிய": 2593,
      "##ிடு": 2594,
      "##ராஜன": 2595,
      "##விடம": 2596,
      "செனறனர": 2597,
      "##ததேர": 2598,
      "நாடுகள": 2599,
      "##பபணி": 2600,
      "ரசிகரகள": 2601,
      "மூதத": 2602,
      "##ாலு": 2603,
      "##ணும": 2604,
      "அஞச": 2605,
      "படிகக": 2606,
      "##ாசன": 2607,
      "கமிஷ": 2608,
      "##ுள": 2609,
      "விதிகக": 2610,
      "பேசு": 2611,
      "நினைவு": 2612,
      "மஹ": 2613,
      "திறன": 2614,
      "கவுனசில": 2615,
      "தமது": 2616,
      "##ாசிரியர": 2617,
      "பிடிதது": 2618,
      "துபபாகக": 2619,
      "நமம": 2620,
      "செயதிய": 2621,
      "குறிபபிடடு": 2622,
      "நடைபெறறு": 2623,
      "கடவுள": 2624,
      "விடடது": 2625,
      "##ததே": 2626,
      "##ததுவம": 2627,
      "சமபததில": 2628,
      "வநதனர": 2629,
      "##ாலான": 2630,
      "##எல": 2631,
      "இனறைய": 2632,
      "##ாமா": 2633,
      "##ததகைய": 2634,
      "##பாளையம": 2635,
      "படததை": 2636,
      "மதான": 2637,
      "##மையை": 2638,
      "இரணடாவது": 2639,
      "பயணம": 2640,
      "##ககபபடடது": 2641,
      "##ணமாக": 2642,
      "இஙகில": 2643,
      "அலை": 2644,
      "அமெரிககா": 2645,
      "துர": 2646,
      "மாறறம": 2647,
      "வணி": 2648,
      "கழிவு": 2649,
      "இபபட": 2650,
      "உததரவு": 2651,
      "அரசுககு": 2652,
      "##சசியில": 2653,
      "விழிபபுணரவு": 2654,
      "தெரியவ": 2655,
      "தணடனை": 2656,
      "படடு": 2657,
      "நெடுஞச": 2658,
      "பிரே": 2659,
      "##ிமா": 2660,
      "நனற": 2661,
      "சஙகம": 2662,
      "நார": 2663,
      "##ிககிழமை": 2664,
      "##ையாளரகள": 2665,
      "இராணுவ": 2666,
      "இம": 2667,
      "##படடு": 2668,
      "செயவது": 2669,
      "ஆககிரம": 2670,
      "மொததம": 2671,
      "##றித": 2672,
      "##ரிபபு": 2673,
      "நமககு": 2674,
      "##ததிலிருநது": 2675,
      "##நேர": 2676,
      "உணட": 2677,
      "ஆரபபாடட": 2678,
      "##வுட": 2679,
      "##ாகவே": 2680,
      "நெருகக": 2681,
      "##ணன": 2682,
      "வாகனஙகள": 2683,
      "பாய": 2684,
      "விழுபபு": 2685,
      "உரிமைய": 2686,
      "ஈரோடு": 2687,
      "ரக": 2688,
      "மய": 2689,
      "மேறகொணடு": 2690,
      "டிச": 2691,
      "##ுவது": 2692,
      "மகளிர": 2693,
      "நபரகள": 2694,
      "நிசச": 2695,
      "காஞசி": 2696,
      "ஆதி": 2697,
      "##பவரகள": 2698,
      "தோனற": 2699,
      "மதிபபு": 2700,
      "இடமபெறற": 2701,
      "ராகு": 2702,
      "திருதத": 2703,
      "பேசினார": 2704,
      "வாரததை": 2705,
      "மாணவரகளுககு": 2706,
      "ஜூ": 2707,
      "முடியவிலலை": 2708,
      "##சசியை": 2709,
      "பாம": 2710,
      "இருவர": 2711,
      "##லுககு": 2712,
      "தேரநத": 2713,
      "வழஙகபபடும": 2714,
      "##ாடசியில": 2715,
      "பெயரில": 2716,
      "அணணா": 2717,
      "வெனற": 2718,
      "கவு": 2719,
      "மச": 2720,
      "ஒனறை": 2721,
      "##கொணடு": 2722,
      "##ணு": 2723,
      "##ெழு": 2724,
      "முர": 2725,
      "அலுவல": 2726,
      "##ததலை": 2727,
      "படடிய": 2728,
      "மழ": 2729,
      "மாணவிய": 2730,
      "##ூப": 2731,
      "உடனே": 2732,
      "திறநது": 2733,
      "பெருமபாலான": 2734,
      "##லுார": 2735,
      "ஏறபட": 2736,
      "##ககையை": 2737,
      "அநதக": 2738,
      "தொடகக": 2739,
      "எட": 2740,
      "மேறகொணட": 2741,
      "பயனபடுததி": 2742,
      "அவருடைய": 2743,
      "விததியாச": 2744,
      "##சனம": 2745,
      "##யன": 2746,
      "செயயபபடடுளளது": 2747,
      "கரநாடக": 2748,
      "##ககபபடும": 2749,
      "எனினும": 2750,
      "டை": 2751,
      "##புற": 2752,
      "முடியாமல": 2753,
      "ஏமா": 2754,
      "முனனிலை": 2755,
      "கொணடார": 2756,
      "தநதை": 2757,
      "மையம": 2758,
      "அடிககடி": 2759,
      "##திரேல": 2760,
      "நபர": 2761,
      "வாகக": 2762,
      "நாடகளுககு": 2763,
      "அபபா": 2764,
      "புதி": 2765,
      "##வக": 2766,
      "இருபபதாக": 2767,
      "சுறறி": 2768,
      "ஆவண": 2769,
      "##ிரா": 2770,
      "உறச": 2771,
      "##தியும": 2772,
      "ரதது": 2773,
      "இநதத": 2774,
      "##பபடுததி": 2775,
      "செவ": 2776,
      "##நதிரன": 2777,
      "தோடட": 2778,
      "வகிததார": 2779,
      "மணிய": 2780,
      "அனற": 2781,
      "##ாதம": 2782,
      "விளககம": 2783,
      "விகக": 2784,
      "##ிங": 2785,
      "##ளவு": 2786,
      "கோடட": 2787,
      "##திலும": 2788,
      "வலியுறுததி": 2789,
      "ஆநதிர": 2790,
      "டே": 2791,
      "பறிமுதல": 2792,
      "##பிள": 2793,
      "நினற": 2794,
      "##ததிறகும": 2795,
      "தப": 2796,
      "இருபபதால": 2797,
      "##ிருஷணன": 2798,
      "##களுடன": 2799,
      "##ககொள": 2800,
      "வழஙகி": 2801,
      "##ோதைய": 2802,
      "திணடு": 2803,
      "##டரகள": 2804,
      "பயண": 2805,
      "சென": 2806,
      "சினிமா": 2807,
      "புன": 2808,
      "பலல": 2809,
      "வைததார": 2810,
      "##ககூடாது": 2811,
      "செயதது": 2812,
      "##டடார": 2813,
      "சநதேக": 2814,
      "##வியில": 2815,
      "கிறிஸ": 2816,
      "##ஙகலம": 2817,
      "##ாரிகள": 2818,
      "ஜூன": 2819,
      "ஆணைய": 2820,
      "சாதனை": 2821,
      "வலல": 2822,
      "தூததுககு": 2823,
      "##வாளர": 2824,
      "ரம": 2825,
      "##பபடடி": 2826,
      "திகதி": 2827,
      "ரவி": 2828,
      "##ஙகக": 2829,
      "எஙக": 2830,
      "உலகம": 2831,
      "நியூ": 2832,
      "##விடடால": 2833,
      "##ககணககான": 2834,
      "குடியிரு": 2835,
      "சுறறுலா": 2836,
      "சமு": 2837,
      "##பபடடார": 2838,
      "முககியமான": 2839,
      "##பபதிவு": 2840,
      "##ிலலியன": 2841,
      "நிகழசசியில": 2842,
      "சொதது": 2843,
      "##ாதை": 2844,
      "##டஸ": 2845,
      "##ிலிருநது": 2846,
      "நதிப": 2847,
      "பயனபடுதது": 2848,
      "பரிசோதனை": 2849,
      "பேசசுவார": 2850,
      "##களைச": 2851,
      "துவஙக": 2852,
      "##நா": 2853,
      "பினப": 2854,
      "தெரிநது": 2855,
      "தடுபபு": 2856,
      "##ணடன": 2857,
      "##றையை": 2858,
      "தார": 2859,
      "##பின": 2860,
      "பேரும": 2861,
      "சமர": 2862,
      "##ஷம": 2863,
      "கடைசி": 2864,
      "##ாவல": 2865,
      "அமைநதுளள": 2866,
      "பெருமாள": 2867,
      "##நதால": 2868,
      "##மாகவும": 2869,
      "##ததிரை": 2870,
      "டிரை": 2871,
      "நடததினர": 2872,
      "அமமன": 2873,
      "பிடிகக": 2874,
      "##ையாது": 2875,
      "வாழதது": 2876,
      "வரததக": 2877,
      "கொடு": 2878,
      "அகறற": 2879,
      "பநது": 2880,
      "##றறிலும": 2881,
      "மேறக": 2882,
      "அவசர": 2883,
      "##மபரம": 2884,
      "கையில": 2885,
      "பிரிவில": 2886,
      "##வதும": 2887,
      "இதறகாக": 2888,
      "##ஙகளைப": 2889,
      "இருநதார": 2890,
      "கடடும": 2891,
      "##வாதி": 2892,
      "நடவடிககைகள": 2893,
      "##ாபா": 2894,
      "சிரம": 2895,
      "சிர": 2896,
      "##டாக": 2897,
      "காவிரி": 2898,
      "பச": 2899,
      "##ஷா": 2900,
      "அறை": 2901,
      "##பபளளி": 2902,
      "பாவ": 2903,
      "தரபபில": 2904,
      "##ககரை": 2905,
      "##ரின": 2906,
      "போராடடததில": 2907,
      "பககம": 2908,
      "தவறு": 2909,
      "மடடுமலல": 2910,
      "##ககோடடை": 2911,
      "சிறபபாக": 2912,
      "தஞச": 2913,
      "செலவு": 2914,
      "எணணெய": 2915,
      "##ததைத": 2916,
      "இளைஞர": 2917,
      "நடிதது": 2918,
      "ஜே": 2919,
      "தஙகளது": 2920,
      "வருமான": 2921,
      "கோரி": 2922,
      "நவன": 2923,
      "லோக": 2924,
      "விழுபபுரம": 2925,
      "கிண": 2926,
      "தெரிவிததுளளனர": 2927,
      "##டியை": 2928,
      "கலலூர": 2929,
      "சரியான": 2930,
      "அறிவிபபு": 2931,
      "##ககடட": 2932,
      "சிஙக": 2933,
      "##பபெண": 2934,
      "##நதா": 2935,
      "கடடுபப": 2936,
      "தலைமையிலான": 2937,
      "அருள": 2938,
      "##களுககும": 2939,
      "வைதத": 2940,
      "##நதை": 2941,
      "##ொனற": 2942,
      "##ிகளின": 2943,
      "ஈடுபடடனர": 2944,
      "தெலு": 2945,
      "##னும": 2946,
      "பிக": 2947,
      "##தாம": 2948,
      "##வதாகவும": 2949,
      "வரையில": 2950,
      "முனனர": 2951,
      "வால": 2952,
      "ஆஜர": 2953,
      "##ககுமார": 2954,
      "##ததினார": 2955,
      "முயனற": 2956,
      "இருககிறார": 2957,
      "முதது": 2958,
      "கருத": 2959,
      "முனனிடடு": 2960,
      "இருககிற": 2961,
      "எழுதத": 2962,
      "##ஸதான": 2963,
      "##ிகர": 2964,
      "எதிரகக": 2965,
      "நடைமுறை": 2966,
      "##படடி": 2967,
      "ஒலி": 2968,
      "கிராமததில": 2969,
      "நிறுவனததின": 2970,
      "கழே": 2971,
      "##வினர": 2972,
      "அஜ": 2973,
      "மரிய": 2974,
      "கழு": 2975,
      "பிரசார": 2976,
      "அரை": 2977,
      "##ையாட": 2978,
      "தயாரிகக": 2979,
      "##ாவிறகு": 2980,
      "##சசார": 2981,
      "##ககுறி": 2982,
      "மககளை": 2983,
      "மகா": 2984,
      "##ழல": 2985,
      "கடடட": 2986,
      "சவு": 2987,
      "தொகுதியில": 2988,
      "எவவளவு": 2989,
      "வழககறி": 2990,
      "உறவின": 2991,
      "பலகலைககழக": 2992,
      "காபபா": 2993,
      "தகுதி": 2994,
      "சுடட": 2995,
      "திருவளள": 2996,
      "அதிகரிதது": 2997,
      "ஒபபடை": 2998,
      "ராஜபக": 2999,
      "இஙகே": 3000,
      "விசாரிகக": 3001,
      "கொழ": 3002,
      "எலலை": 3003,
      "ராஜா": 3004,
      "பரிநது": 3005,
      "திடரென": 3006,
      "##ககலாம": 3007,
      "##ாடடி": 3008,
      "##தாப": 3009,
      "##ாசசி": 3010,
      "##ாயவு": 3011,
      "##றகால": 3012,
      "##ையொடடி": 3013,
      "##யின": 3014,
      "##ாககி": 3015,
      "##செல": 3016,
      "கிடையாது": 3017,
      "நாடகளில": 3018,
      "மணல": 3019,
      "வெறும": 3020,
      "நிதிய": 3021,
      "ஊழல": 3022,
      "அவறறை": 3023,
      "கடடணம": 3024,
      "கொளகை": 3025,
      "##ஜா": 3026,
      "##நதிரம": 3027,
      "##வேளை": 3028,
      "உளபட": 3029,
      "##டடியில": 3030,
      "எலலோர": 3031,
      "ஓயவு": 3032,
      "முருகன": 3033,
      "கிளை": 3034,
      "மறறொரு": 3035,
      "கரை": 3036,
      "விளையாட": 3037,
      "நாளில": 3038,
      "##ககபபடுகிறது": 3039,
      "கலா": 3040,
      "இடையில": 3041,
      "சானறித": 3042,
      "##ஸடர": 3043,
      "##தொடர": 3044,
      "முமபை": 3045,
      "##ரிக": 3046,
      "பொய": 3047,
      "இனனொரு": 3048,
      "உளளே": 3049,
      "##ததத": 3050,
      "##டடா": 3051,
      "ரே": 3052,
      "வாரம": 3053,
      "பிரச": 3054,
      "##வாதம": 3055,
      "##பபிடு": 3056,
      "போடடிகளில": 3057,
      "இயறகை": 3058,
      "##ெனறால": 3059,
      "பவு": 3060,
      "சேக": 3061,
      "##ையையும": 3062,
      "##பபதை": 3063,
      "##ழில": 3064,
      "##வாளரகள": 3065,
      "சாதார": 3066,
      "உழை": 3067,
      "தவி": 3068,
      "கருணாநிதி": 3069,
      "##பிடிகக": 3070,
      "மாரச": 3071,
      "##பபதறகாக": 3072,
      "சபை": 3073,
      "தெரிகிறது": 3074,
      "செனறார": 3075,
      "களள": 3076,
      "##வைத": 3077,
      "அலஙக": 3078,
      "அனைததும": 3079,
      "பறற": 3080,
      "தகக": 3081,
      "##டிகள": 3082,
      "வசூல": 3083,
      "யூ": 3084,
      "வழஙகபபடடது": 3085,
      "இழு": 3086,
      "##ரகளும": 3087,
      "சனி": 3088,
      "பொறுபபு": 3089,
      "இசச": 3090,
      "முழுமையாக": 3091,
      "##ினம": 3092,
      "ஒரும": 3093,
      "குணடு": 3094,
      "##ருடன": 3095,
      "##மலை": 3096,
      "திணடுககல": 3097,
      "##நோய": 3098,
      "ரனகள": 3099,
      "##ையைக": 3100,
      "பரம": 3101,
      "முதலமைசசர": 3102,
      "வைததிய": 3103,
      "பெரி": 3104,
      "குண": 3105,
      "தனககு": 3106,
      "பெடர": 3107,
      "அறிநது": 3108,
      "நமபிகக": 3109,
      "தெரிவிககபபடடுளளது": 3110,
      "##ிகளுககு": 3111,
      "##விடடர": 3112,
      "##ையைப": 3113,
      "##ததிரி": 3114,
      "நடைபெறு": 3115,
      "ஆயிரதது": 3116,
      "##பபாடி": 3117,
      "அதேபோல": 3118,
      "##நிற": 3119,
      "##ாககம": 3120,
      "படடா": 3121,
      "##ையல": 3122,
      "வளாகததில": 3123,
      "##பெரும": 3124,
      "இளம": 3125,
      "##ிததனர": 3126,
      "வழியில": 3127,
      "வசதிகள": 3128,
      "எசசரிகக": 3129,
      "##பபோம": 3130,
      "மறிய": 3131,
      "இனஸபெ": 3132,
      "##ஜன": 3133,
      "##புரி": 3134,
      "பேரில": 3135,
      "மணண": 3136,
      "தை": 3137,
      "குற": 3138,
      "மிகக": 3139,
      "செயலபடுதத": 3140,
      "அமல": 3141,
      "நடைபெற": 3142,
      "##ெனட": 3143,
      "பணியாளரகள": 3144,
      "விளகக": 3145,
      "##றறார": 3146,
      "##ஷேகம": 3147,
      "அணியின": 3148,
      "மஞச": 3149,
      "கொளளலாம": 3150,
      "நிவார": 3151,
      "##பபிரம": 3152,
      "குபபை": 3153,
      "##ககொணடிரு": 3154,
      "பலரும": 3155,
      "மாநிலததில": 3156,
      "ராகுல": 3157,
      "##ானஸ": 3158,
      "##ியமமன": 3159,
      "##மார": 3160,
      "##பபால": 3161,
      "முது": 3162,
      "வலி": 3163,
      "வடடுககு": 3164,
      "##ிடும": 3165,
      "துவகக": 3166,
      "##முளள": 3167,
      "பணததை": 3168,
      "புதிதாக": 3169,
      "##நடை": 3170,
      "தெரியவிலலை": 3171,
      "காததிரு": 3172,
      "சடடசபை": 3173,
      "நிரண": 3174,
      "எழுதி": 3175,
      "கறறு": 3176,
      "தெய": 3177,
      "அதறகான": 3178,
      "உததரவிடடு": 3179,
      "எழுதது": 3180,
      "##ாககு": 3181,
      "##னறி": 3182,
      "##ஙகோ": 3183,
      "பொலிஸார": 3184,
      "குறறசசாடடு": 3185,
      "சசிக": 3186,
      "கூடடுறவு": 3187,
      "கபப": 3188,
      "##மைகக": 3189,
      "##துர": 3190,
      "படஙகள": 3191,
      "சல": 3192,
      "கணவர": 3193,
      "பில": 3194,
      "##வடை": 3195,
      "தமிழர": 3196,
      "கணடுபிடி": 3197,
      "ரதத": 3198,
      "##ாஹ": 3199,
      "களை": 3200,
      "##வறறை": 3201,
      "##லலி": 3202,
      "கணககு": 3203,
      "வாலி": 3204,
      "குளிர": 3205,
      "சநதோ": 3206,
      "விபததில": 3207,
      "இருககு": 3208,
      "##ிடமிருநது": 3209,
      "ஆகியவை": 3210,
      "##வெளி": 3211,
      "தெனன": 3212,
      "##ஷமர": 3213,
      "கடிதம": 3214,
      "இளைஞரகள": 3215,
      "மாறு": 3216,
      "மூட": 3217,
      "நூறற": 3218,
      "மிகபபெ": 3219,
      "அதனபடி": 3220,
      "கரூர": 3221,
      "கலலுாரி": 3222,
      "கவலை": 3223,
      "தமப": 3224,
      "##பபூர": 3225,
      "அறிககையில": 3226,
      "##ூரு": 3227,
      "சாகு": 3228,
      "##பபுககு": 3229,
      "##செயய": 3230,
      "கமயூ": 3231,
      "சகோதர": 3232,
      "##வதி": 3233,
      "அமைநதுளளது": 3234,
      "##ோககிய": 3235,
      "கணககில": 3236,
      "வணிக": 3237,
      "ஒதது": 3238,
      "எடுததுக": 3239,
      "குரல": 3240,
      "அததுடன": 3241,
      "மடடர": 3242,
      "##ையன": 3243,
      "அதிகமான": 3244,
      "பெறறது": 3245,
      "##ிருநதனர": 3246,
      "##பபடடனர": 3247,
      "நேரில": 3248,
      "அமம": 3249,
      "இலஙகையில": 3250,
      "தூததுககுடி": 3251,
      "எபபோதும": 3252,
      "##நததாக": 3253,
      "##ாதே": 3254,
      "##சையில": 3255,
      "மூலமாக": 3256,
      "கவிதை": 3257,
      "நோகக": 3258,
      "எஙகளுககு": 3259,
      "##பபடுததும": 3260,
      "மலைய": 3261,
      "சானறிதழ": 3262,
      "நிமிட": 3263,
      "தெறகு": 3264,
      "ராமநாத": 3265,
      "ரசி": 3266,
      "படடியல": 3267,
      "##சூர": 3268,
      "செயயபபடும": 3269,
      "நிறுததி": 3270,
      "வழககம": 3271,
      "முனவை": 3272,
      "நாடகளாக": 3273,
      "##டசுமி": 3274,
      "கிடட": 3275,
      "ஆயுத": 3276,
      "மாம": 3277,
      "செயதுளளனர": 3278,
      "பொளள": 3279,
      "பொருதத": 3280,
      "விதை": 3281,
      "மனவரகள": 3282,
      "ஞாய": 3283,
      "சேதம": 3284,
      "நடிதத": 3285,
      "##ஙகுகிறது": 3286,
      "##ெனில": 3287,
      "அமைசசரகள": 3288,
      "கோவிலில": 3289,
      "திடடமிடடு": 3290,
      "##ததினால": 3291,
      "காஞசிபுரம": 3292,
      "அஙகே": 3293,
      "##ரிமை": 3294,
      "##கட": 3295,
      "சநதிகக": 3296,
      "அபபடியே": 3297,
      "ஏககர": 3298,
      "பிரதான": 3299,
      "கடற": 3300,
      "தாஙக": 3301,
      "செவவாய": 3302,
      "லாரி": 3303,
      "ஏபர": 3304,
      "பணிகளை": 3305,
      "நடச": 3306,
      "முடிநத": 3307,
      "##பபூ": 3308,
      "ஆஸதிரேல": 3309,
      "சிலை": 3310,
      "நடிக": 3311,
      "##ததுளளனர": 3312,
      "##ஙகளைக": 3313,
      "சூழல": 3314,
      "செயதிகள": 3315,
      "மிகுநத": 3316,
      "##ளிக": 3317,
      "##லூர": 3318,
      "வாடிகக": 3319,
      "கடநது": 3320,
      "தாழ": 3321,
      "மதுர": 3322,
      "அரசாஙகம": 3323,
      "ஆணகள": 3324,
      "பொருடகளை": 3325,
      "சறறு": 3326,
      "பொதுவாக": 3327,
      "##டியான": 3328,
      "இஸலாம": 3329,
      "சமபநதபபடட": 3330,
      "எனகிறார": 3331,
      "தனனுடைய": 3332,
      "தேச": 3333,
      "பதது": 3334,
      "##வராஜ": 3335,
      "காடடி": 3336,
      "தமிழில": 3337,
      "பரிநதுரை": 3338,
      "##சசியாக": 3339,
      "அடைநத": 3340,
      "##நாயகக": 3341,
      "சிவக": 3342,
      "அனைவருககும": 3343,
      "##போனற": 3344,
      "##சசூ": 3345,
      "##வாற": 3346,
      "போனறு": 3347,
      "முனனதாக": 3348,
      "ரஜினி": 3349,
      "டெஸட": 3350,
      "கிடைதத": 3351,
      "ஹரோ": 3352,
      "அடிதது": 3353,
      "ஹெ": 3354,
      "தெரிவிதத": 3355,
      "##தாஸ": 3356,
      "உணண": 3357,
      "விசாரணைககு": 3358,
      "ரஷ": 3359,
      "விந": 3360,
      "படைய": 3361,
      "##வூ": 3362,
      "புளள": 3363,
      "வைககபபடட": 3364,
      "சடடமனற": 3365,
      "மதிபபெண": 3366,
      "##சசெய": 3367,
      "மாவடடஙகளில": 3368,
      "டிசமபர": 3369,
      "##முடிய": 3370,
      "கடடுரை": 3371,
      "இதறக": 3372,
      "##கொள": 3373,
      "மாரக": 3374,
      "விளககு": 3375,
      "##டடின": 3376,
      "காரததிக": 3377,
      "அனபு": 3378,
      "காஷமர": 3379,
      "##பைல": 3380,
      "படிதது": 3381,
      "##னுககு": 3382,
      "எமது": 3383,
      "மேலநிலை": 3384,
      "நாடுகளில": 3385,
      "முனனணி": 3386,
      "அவரின": 3387,
      "##ஞான": 3388,
      "கோரிகக": 3389,
      "எததனை": 3390,
      "கொணடே": 3391,
      "பேருககு": 3392,
      "காலநடை": 3393,
      "எதிரதது": 3394,
      "##ொழுது": 3395,
      "எதிரகால": 3396,
      "பேசசுவாரததை": 3397,
      "அபாய": 3398,
      "சரியாக": 3399,
      "##பபதால": 3400,
      "வதி": 3401,
      "ஜூலை": 3402,
      "##கோர": 3403,
      "திடடததை": 3404,
      "வெகு": 3405,
      "சுரு": 3406,
      "ஞான": 3407,
      "செயதுளளது": 3408,
      "புதத": 3409,
      "ஜனநாயக": 3410,
      "கவனம": 3411,
      "ஆடடோ": 3412,
      "இஙகிலாநது": 3413,
      "இறநது": 3414,
      "அறிநத": 3415,
      "##வையும": 3416,
      "துறையில": 3417,
      "ரொமப": 3418,
      "ஐரோ": 3419,
      "கடசிகள": 3420,
      "##ுகக": 3421,
      "##ிடடி": 3422,
      "பாராளுமனற": 3423,
      "ஆளும": 3424,
      "துபபாககி": 3425,
      "தொணட": 3426,
      "தாலு": 3427,
      "முட": 3428,
      "கடடண": 3429,
      "நொ": 3430,
      "##லின": 3431,
      "##ததோடு": 3432,
      "பஙகள": 3433,
      "##பபடடுளளனர": 3434,
      "திடடததின": 3435,
      "ஏழு": 3436,
      "##விகக": 3437,
      "விநாயகர": 3438,
      "செயதால": 3439,
      "##வரின": 3440,
      "பககததில": 3441,
      "இடி": 3442,
      "மைதான": 3443,
      "போடடிகள": 3444,
      "வநதால": 3445,
      "நதிபதிகள": 3446,
      "இனஸபெகடர": 3447,
      "##வரம": 3448,
      "ஆறற": 3449,
      "##கரம": 3450,
      "##கிழமை": 3451,
      "காள": 3452,
      "##கரை": 3453,
      "இதனப": 3454,
      "##ாபி": 3455,
      "பனனர": 3456,
      "பொஙகல": 3457,
      "சிறிது": 3458,
      "இணைபபு": 3459,
      "களம": 3460,
      "பான": 3461,
      "ஆணடுகளில": 3462,
      "கேப": 3463,
      "இருககலாம": 3464,
      "புரிய": 3465,
      "சிஙகள": 3466,
      "அடடை": 3467,
      "ஜான": 3468,
      "மரண": 3469,
      "பிரசசனை": 3470,
      "அவதி": 3471,
      "சினிம": 3472,
      "ஈடு": 3473,
      "மினன": 3474,
      "மிகபபெரிய": 3475,
      "அறிவுறு": 3476,
      "கடுமையாக": 3477,
      "##பபாளரகள": 3478,
      "வெளியான": 3479,
      "நானும": 3480,
      "ஏறபடுததியுளளது": 3481,
      "காலவாய": 3482,
      "அஸ": 3483,
      "பேரூர": 3484,
      "உளளாடசி": 3485,
      "ஓவிய": 3486,
      "##ுமான": 3487,
      "##ாணடில": 3488,
      "ரோடடில": 3489,
      "பேடடி": 3490,
      "மருததுவமனைககு": 3491,
      "துணி": 3492,
      "##ததுல": 3493,
      "இறநத": 3494,
      "ஒனறில": 3495,
      "ஆனாலும": 3496,
      "ஏபரல": 3497,
      "##ையோர": 3498,
      "யாரு": 3499,
      "##ோனா": 3500,
      "எழுது": 3501,
      "அமைதது": 3502,
      "சூபபர": 3503,
      "தலைய": 3504,
      "##பபிரமணிய": 3505,
      "இளைஞ": 3506,
      "##ககுத": 3507,
      "தியாக": 3508,
      "##ேசிய": 3509,
      "பெடரோல": 3510,
      "##கிறான": 3511,
      "தேனி": 3512,
      "##நதிய": 3513,
      "வாழும": 3514,
      "##ககிள": 3515,
      "##ொருள": 3516,
      "நேரடியாக": 3517,
      "முதனமை": 3518,
      "அதிகள": 3519,
      "வாரடு": 3520,
      "குழாய": 3521,
      "##ேநதிரன": 3522,
      "##ாஜி": 3523,
      "சமய": 3524,
      "உடபடட": 3525,
      "விருமபு": 3526,
      "செயதியாளரகள": 3527,
      "##டோபர": 3528,
      "அளவிலான": 3529,
      "##பபடடுளளதாக": 3530,
      "##டடல": 3531,
      "ஆசை": 3532,
      "##பபடுகினறது": 3533,
      "##பொரு": 3534,
      "##ஙகளுடன": 3535,
      "இருபபினும": 3536,
      "##ததியம": 3537,
      "தபபி": 3538,
      "வியா": 3539,
      "##ுளளார": 3540,
      "உலகில": 3541,
      "பாணடிய": 3542,
      "இதறகான": 3543,
      "முனை": 3544,
      "கடறப": 3545,
      "##னையை": 3546,
      "##பபகுதியில": 3547,
      "புயல": 3548,
      "##றது": 3549,
      "நனறாக": 3550,
      "படடியலில": 3551,
      "மெய": 3552,
      "மோடடார": 3553,
      "##பாஸ": 3554,
      "##சின": 3555,
      "மாறறி": 3556,
      "சண": 3557,
      "வேத": 3558,
      "ஆரோககிய": 3559,
      "மணியளவில": 3560,
      "##ுக": 3561,
      "கொளளும": 3562,
      "அவரகளது": 3563,
      "தகர": 3564,
      "##ககவும": 3565,
      "தஙகம": 3566,
      "##ாணமை": 3567,
      "##வுளள": 3568,
      "வேற": 3569,
      "டால": 3570,
      "உளளிடடோர": 3571,
      "தலா": 3572,
      "வழஙகிய": 3573,
      "சிககல": 3574,
      "விலல": 3575,
      "வேணடு": 3576,
      "பஙகேறக": 3577,
      "எடடு": 3578,
      "அடையாளம": 3579,
      "காங": 3580,
      "கணக": 3581,
      "நஙக": 3582,
      "இருககினறன": 3583,
      "இநதச": 3584,
      "##மாகி": 3585,
      "நிலம": 3586,
      "டர": 3587,
      "##வராக": 3588,
      "##மையான": 3589,
      "பேரை": 3590,
      "பாரககும": 3591,
      "மலர": 3592,
      "நவமபர": 3593,
      "வேக": 3594,
      "உடைய": 3595,
      "உயரவு": 3596,
      "ராய": 3597,
      "வயதில": 3598,
      "ஏழை": 3599,
      "##பெறற": 3600,
      "அடட": 3601,
      "##ததொடர": 3602,
      "எனறாலும": 3603,
      "சுநதர": 3604,
      "வாரிய": 3605,
      "##யோக": 3606,
      "வெஙகட": 3607,
      "##மபடடி": 3608,
      "கலலூரியில": 3609,
      "வழஙகினார": 3610,
      "செலவ": 3611,
      "##ுமலை": 3612,
      "கொணடது": 3613,
      "யூன": 3614,
      "மறி": 3615,
      "திருவிழா": 3616,
      "##ெடுதது": 3617,
      "ஜனவரி": 3618,
      "##ானா": 3619,
      "பாராடட": 3620,
      "விணணபப": 3621,
      "##போர": 3622,
      "சுபரம": 3623,
      "அவரிடம": 3624,
      "##ககுச": 3625,
      "மோதல": 3626,
      "##கோவில": 3627,
      "எகஸ": 3628,
      "கரும": 3629,
      "வற": 3630,
      "படிதத": 3631,
      "##ாமலை": 3632,
      "சட": 3633,
      "##ிககும": 3634,
      "செயலபடடு": 3635,
      "ஆனம": 3636,
      "விசாரிதது": 3637,
      "விஷயம": 3638,
      "##ிராம": 3639,
      "நாராய": 3640,
      "##ியோக": 3641,
      "##ினாரகள": 3642,
      "பொளளாசசி": 3643,
      "காரை": 3644,
      "சநதிதத": 3645,
      "ஏரி": 3646,
      "##ிருபபது": 3647,
      "விசாரணையில": 3648,
      "இததகைய": 3649,
      "##திரு": 3650,
      "வாயில": 3651,
      "செபட": 3652,
      "பெஙகளூரு": 3653,
      "அபர": 3654,
      "##ாடடம": 3655,
      "எடட": 3656,
      "##தய": 3657,
      "மடக": 3658,
      "உதார": 3659,
      "வேலூர": 3660,
      "அவத": 3661,
      "##வாகக": 3662,
      "அதிகாலை": 3663,
      "##ாதது": 3664,
      "##பபேர": 3665,
      "பலதத": 3666,
      "பாராடடு": 3667,
      "படுதத": 3668,
      "அகில": 3669,
      "##வேலி": 3670,
      "##ையாளர": 3671,
      "##விநத": 3672,
      "லி": 3673,
      "நெடுஞசாலை": 3674,
      "முறறு": 3675,
      "பிரம": 3676,
      "##ததிறகாக": 3677,
      "தமிழரகள": 3678,
      "ககள": 3679,
      "தலைவராக": 3680,
      "மொபைல": 3681,
      "பலன": 3682,
      "சுறற": 3683,
      "மடடு": 3684,
      "விழுநது": 3685,
      "சமுதாய": 3686,
      "வெளியில": 3687,
      "##ையெலலாம": 3688,
      "நணபர": 3689,
      "ஆராயசசி": 3690,
      "##வினை": 3691,
      "##நிலைப": 3692,
      "ஹை": 3693,
      "தறபோதைய": 3694,
      "ஆரவம": 3695,
      "##நல": 3696,
      "##வாசி": 3697,
      "முடிநது": 3698,
      "மிலலியன": 3699,
      "மதியம": 3700,
      "##பபோர": 3701,
      "ஒருநாள": 3702,
      "புதுட": 3703,
      "##பபடுவது": 3704,
      "லாப": 3705,
      "##தாகக": 3706,
      "##ிருநதால": 3707,
      "பேராசிரியர": 3708,
      "உதவ": 3709,
      "##ரிதது": 3710,
      "நெல": 3711,
      "அருண": 3712,
      "இலலாததால": 3713,
      "நலலது": 3714,
      "சிதமபரம": 3715,
      "முத": 3716,
      "சநதேகம": 3717,
      "உணமையில": 3718,
      "குறைநது": 3719,
      "அழைபபு": 3720,
      "ஆளுநர": 3721,
      "பநத": 3722,
      "##டடுகள": 3723,
      "##பபதில": 3724,
      "##ாதா": 3725,
      "சிபி": 3726,
      "முடிநதது": 3727,
      "யில": 3728,
      "எனபதே": 3729,
      "விடடார": 3730,
      "##ுமபடி": 3731,
      "##ையைச": 3732,
      "மாதததில": 3733,
      "ஆவது": 3734,
      "##ூட": 3735,
      "பள": 3736,
      "சாபபிட": 3737,
      "இடைய": 3738,
      "##ினேன": 3739,
      "##காரம": 3740,
      "ஆரமபிதத": 3741,
      "மனோ": 3742,
      "மோகன": 3743,
      "தினகரன": 3744,
      "கேமர": 3745,
      "பொனன": 3746,
      "##பேடடை": 3747,
      "பொறுதத": 3748,
      "கடுமையான": 3749,
      "முழுகக": 3750,
      "ஈழ": 3751,
      "காயசசல": 3752,
      "லே": 3753,
      "##ிடமும": 3754,
      "விபர": 3755,
      "தறகால": 3756,
      "இருககிறாரகள": 3757,
      "பளளிகளில": 3758,
      "சுரேஷ": 3759,
      "##வாழ": 3760,
      "பகுதிகள": 3761,
      "உளளதாக": 3762,
      "##ததள": 3763,
      "தயாராக": 3764,
      "எதிரககடசி": 3765,
      "உறவினரகள": 3766,
      "##டடுககு": 3767,
      "முறறிலும": 3768,
      "மாய": 3769,
      "ஏறபடுததி": 3770,
      "சனா": 3771,
      "பலி": 3772,
      "வேலைவாய": 3773,
      "குழுவினர": 3774,
      "வைததிருநத": 3775,
      "##ிறகும": 3776,
      "எனனுடைய": 3777,
      "தொலைகக": 3778,
      "சாதாரண": 3779,
      "கதிர": 3780,
      "ஆணையம": 3781,
      "##தாகும": 3782,
      "ஆனநத": 3783,
      "பிளாஸ": 3784,
      "திருமபி": 3785,
      "வருகை": 3786,
      "ஏற": 3787,
      "அஙகிருநது": 3788,
      "பருவ": 3789,
      "##ததாலும": 3790,
      "நிசசயம": 3791,
      "லை": 3792,
      "##பது": 3793,
      "##ூலம": 3794,
      "##ணடல": 3795,
      "##விலல": 3796,
      "அவவ": 3797,
      "நிரு": 3798,
      "சிவா": 3799,
      "வருவது": 3800,
      "##யும": 3801,
      "நேரஙகளில": 3802,
      "##முதது": 3803,
      "ஆகவே": 3804,
      "##ாகம": 3805,
      "மரணம": 3806,
      "டிவி": 3807,
      "ஏதாவது": 3808,
      "ஏதோ": 3809,
      "குல": 3810,
      "கமிஷனர": 3811,
      "அணம": 3812,
      "விருபப": 3813,
      "கொல": 3814,
      "நமமை": 3815,
      "டாஸ": 3816,
      "##ககளில": 3817,
      "குடியரசு": 3818,
      "வேகமாக": 3819,
      "மயில": 3820,
      "அசசு": 3821,
      "ஓடி": 3822,
      "பணடி": 3823,
      "சிதத": 3824,
      "##வுளளது": 3825,
      "பெணகளுககு": 3826,
      "வடடிறகு": 3827,
      "எடுககபபடும": 3828,
      "##நலல": 3829,
      "போடு": 3830,
      "##மல": 3831,
      "##யிற": 3832,
      "திடடஙகள": 3833,
      "முககியததுவம": 3834,
      "பயிறசிய": 3835,
      "புனித": 3836,
      "##ையு": 3837,
      "அலுவலரகள": 3838,
      "நிறைவு": 3839,
      "அவனை": 3840,
      "தனியாக": 3841,
      "வழஙகுவ": 3842,
      "தானே": 3843,
      "சசிகலா": 3844,
      "##பபிரி": 3845,
      "விளமபர": 3846,
      "வருடம": 3847,
      "கேபடன": 3848,
      "வெளிநாடடு": 3849,
      "தேஙக": 3850,
      "கோயிலில": 3851,
      "அதிகரிகக": 3852,
      "உலகின": 3853,
      "##பூர": 3854,
      "விஞ": 3855,
      "சரவண": 3856,
      "##ியூ": 3857,
      "அபது": 3858,
      "##வுகளை": 3859,
      "தலைநகர": 3860,
      "ஒதுககடு": 3861,
      "ரேஷன": 3862,
      "படபபிடி": 3863,
      "செபடமபர": 3864,
      "முறப": 3865,
      "எழுநத": 3866,
      "##பூ": 3867,
      "செயலபட": 3868,
      "டன": 3869,
      "படஙகளில": 3870,
      "தெரிநத": 3871,
      "தெரியவநதது": 3872,
      "நடசததிர": 3873,
      "வழிக": 3874,
      "தாஙகள": 3875,
      "##கொணடிரு": 3876,
      "போலி": 3877,
      "##வரகளில": 3878,
      "கடலூர": 3879,
      "##ியுளளன": 3880,
      "##முடைய": 3881,
      "தூககி": 3882,
      "போதிய": 3883,
      "உளளூர": 3884,
      "போத": 3885,
      "போராட": 3886,
      "கிடைததது": 3887,
      "உறபததிய": 3888,
      "ஆடி": 3889,
      "அகடோபர": 3890,
      "படஜ": 3891,
      "விடுமுறை": 3892,
      "மனதில": 3893,
      "##ஙகால": 3894,
      "மேலாணமை": 3895,
      "வாககள": 3896,
      "திருவளளூர": 3897,
      "##ிகா": 3898,
      "##தோறும": 3899,
      "பிடிதத": 3900,
      "##ஙகளால": 3901,
      "##ேனும": 3902,
      "தவிரகக": 3903,
      "ஆசிய": 3904,
      "சூரிய": 3905,
      "ஒடட": 3906,
      "விடுதத": 3907,
      "கணவன": 3908,
      "##ெர": 3909,
      "செநதில": 3910,
      "##போதும": 3911,
      "நள": 3912,
      "இணையதள": 3913,
      "##பஸ": 3914,
      "ஒனறும": 3915,
      "குஜர": 3916,
      "வரலாறு": 3917,
      "நாமககல": 3918,
      "ஸடேஷன": 3919,
      "நரேநதிர": 3920,
      "சஙகர": 3921,
      "ஒததுழை": 3922,
      "குறிததும": 3923,
      "சாதி": 3924,
      "##கறி": 3925,
      "##ாளைய": 3926,
      "இயநதிர": 3927,
      "##ககுடி": 3928,
      "நிரணய": 3929,
      "சிறும": 3930,
      "கொரோனா": 3931,
      "எனறனர": 3932,
      "அமைநத": 3933,
      "முறைகே": 3934,
      "படகு": 3935,
      "சபா": 3936,
      "வருவதாக": 3937,
      "தாள": 3938,
      "##காநத": 3939,
      "திறகக": 3940,
      "கடடிட": 3941,
      "வளை": 3942,
      "அதிரடி": 3943,
      "இயககம": 3944,
      "##ாவளி": 3945,
      "மாணவிகள": 3946,
      "சொநதமான": 3947,
      "சாகுபடி": 3948,
      "##ாரக": 3949,
      "மனைவிய": 3950,
      "யோசி": 3951,
      "##குள": 3952,
      "இயககததில": 3953,
      "##சப": 3954,
      "கொடுககும": 3955,
      "லக": 3956,
      "பிளஸ": 3957,
      "முதிய": 3958,
      "வரலாறறு": 3959,
      "சநதை": 3960,
      "நெலலை": 3961,
      "துவககி": 3962,
      "வெளியிடடுளள": 3963,
      "கமயூனி": 3964,
      "##ககணி": 3965,
      "தோழ": 3966,
      "நகக": 3967,
      "குடியிருபபு": 3968,
      "மதிபபில": 3969,
      "வடுகள": 3970,
      "ஏழ": 3971,
      "அபபகுதி": 3972,
      "கற": 3973,
      "இருநதும": 3974,
      "விசாரிதத": 3975,
      "காவலது": 3976,
      "திரா": 3977,
      "##ாசில": 3978,
      "சைககிள": 3979,
      "ஆகியவறறை": 3980,
      "ஆடடம": 3981,
      "தில": 3982,
      "அதிரசசி": 3983,
      "தரமபு": 3984,
      "##ியால": 3985,
      "சாக": 3986,
      "பதவிய": 3987,
      "##வறற": 3988,
      "##பபளள": 3989,
      "பெறறார": 3990,
      "அனுபவ": 3991,
      "##நதரம": 3992,
      "கலவிய": 3993,
      "முதலடு": 3994,
      "சேம": 3995,
      "##பபடுகினறனர": 3996,
      "##மது": 3997,
      "##வரகளும": 3998,
      "மநதிர": 3999,
      "அபிவிரு": 4000,
      "பொன": 4001,
      "வாச": 4002,
      "செயலபாடு": 4003,
      "##ுார": 4004,
      "வேடபாளரகள": 4005,
      "இதுதொடர": 4006,
      "அறிமுகம": 4007,
      "குறைவாக": 4008,
      "ஆணை": 4009,
      "செயதுளளார": 4010,
      "##தூர": 4011,
      "ஆடசியில": 4012,
      "முநத": 4013,
      "காணாமல": 4014,
      "மினசாரம": 4015,
      "எமஎல": 4016,
      "##மபரிய": 4017,
      "கணடுபிடிகக": 4018,
      "##விள": 4019,
      "வழககறிஞர": 4020,
      "ஆரபபாடடம": 4021,
      "டு": 4022,
      "ராமநாதபுரம": 4023,
      "உயரநதிமனற": 4024,
      "சரம": 4025,
      "##சேன": 4026,
      "கலநத": 4027,
      "பஙக": 4028,
      "##றுபபு": 4029,
      "அமைபபின": 4030,
      "பிழ": 4031,
      "வழககை": 4032,
      "##ணைபபு": 4033,
      "##னபது": 4034,
      "நிலைமை": 4035,
      "அடைநது": 4036,
      "எசசரிககை": 4037,
      "##ியாவில": 4038,
      "##ொழ": 4039,
      "வெளளை": 4040,
      "இதுபோனற": 4041,
      "இமம": 4042,
      "லடசதது": 4043,
      "விண": 4044,
      "அமெரிககாவில": 4045,
      "பழனிசாமி": 4046,
      "இநந": 4047,
      "பிளளை": 4048,
      "நலக": 4049,
      "##ககளின": 4050,
      "##எம": 4051,
      "##பபாரகள": 4052,
      "விவகாரம": 4053,
      "கருவி": 4054,
      "##ிககொணடு": 4055,
      "முனனில": 4056,
      "##வனம": 4057,
      "##பபடாத": 4058,
      "எனத": 4059,
      "வநதுளளது": 4060,
      "நலன": 4061,
      "##ஙகளுககும": 4062,
      "லிடட": 4063,
      "பிரகா": 4064,
      "சொனனார": 4065,
      "ரில": 4066,
      "##ூறு": 4067,
      "காறறு": 4068,
      "கிரு": 4069,
      "பாரவை": 4070,
      "எனறே": 4071,
      "உடலை": 4072,
      "##சரி": 4073,
      "எமஎலஏ": 4074,
      "புதன": 4075,
      "வைககும": 4076,
      "மால": 4077,
      "தேரநதெடுகக": 4078,
      "##வரையும": 4079,
      "பஞசாய": 4080,
      "பெயரை": 4081,
      "குறிபபிடடுளளார": 4082,
      "முடிதது": 4083,
      "மூனறாவது": 4084,
      "கதா": 4085,
      "எழ": 4086,
      "கொடுபப": 4087,
      "பூம": 4088,
      "##ிருககலாம": 4089,
      "இடததை": 4090,
      "##வனை": 4091,
      "போனறவை": 4092,
      "ஐய": 4093,
      "ஏறபடுகிறது": 4094,
      "பரபரபபு": 4095,
      "தோலவி": 4096,
      "##காய": 4097,
      "நனகு": 4098,
      "காயகறி": 4099,
      "பிரிடட": 4100,
      "##ாதான": 4101,
      "மகார": 4102,
      "##டடையில": 4103,
      "காலையில": 4104,
      "தளளி": 4105,
      "##ெணட": 4106,
      "##ிககிற": 4107,
      "ஆகி": 4108,
      "படடம": 4109,
      "மோசடி": 4110,
      "##புரததில": 4111,
      "யானை": 4112,
      "தடுதது": 4113,
      "##ஸர": 4114,
      "##ாவடி": 4115,
      "சமையல": 4116,
      "குறறவ": 4117,
      "நக": 4118,
      "பொறியியல": 4119,
      "திடடததில": 4120,
      "##ாகிய": 4121,
      "பாரமபரிய": 4122,
      "மாதஙகளுககு": 4123,
      "சநதிபபு": 4124,
      "இறைவன": 4125,
      "##ககுளள": 4126,
      "##ோகன": 4127,
      "டெலலியில": 4128,
      "இளைய": 4129,
      "நிபு": 4130,
      "##ுன": 4131,
      "பளளிகள": 4132,
      "##டபடட": 4133,
      "இறுதியில": 4134,
      "##மொழி": 4135,
      "##ாளா": 4136,
      "##விடடனர": 4137,
      "வடடின": 4138,
      "##னனா": 4139,
      "வாகனம": 4140,
      "அமச": 4141,
      "திருசச": 4142,
      "வியாபாரிகள": 4143,
      "##ஸில": 4144,
      "தொடஙகியது": 4145,
      "##ரகளில": 4146,
      "புகு": 4147,
      "கொடி": 4148,
      "ராசி": 4149,
      "மஞசள": 4150,
      "சதுர": 4151,
      "##ாற": 4152,
      "பொழுது": 4153,
      "எனபத": 4154,
      "##ிருககிறாரகள": 4155,
      "கணடிதது": 4156,
      "தனிதத": 4157,
      "##பபதறகான": 4158,
      "##தைப": 4159,
      "வேணடியது": 4160,
      "பொதுச": 4161,
      "##டையில": 4162,
      "தலைமைய": 4163,
      "காத": 4164,
      "##டியா": 4165,
      "##வுககும": 4166,
      "நிறைநத": 4167,
      "விககெ": 4168,
      "தாலுகா": 4169,
      "போகும": 4170,
      "உடலில": 4171,
      "உயரதத": 4172,
      "அணமையில": 4173,
      "அதுவும": 4174,
      "இழநது": 4175,
      "##ததினை": 4176,
      "பினபு": 4177,
      "##ககுக": 4178,
      "ஜபபான": 4179,
      "##வழி": 4180,
      "மோதிய": 4181,
      "இகக": 4182,
      "##ாடடை": 4183,
      "திருநெல": 4184,
      "எடு": 4185,
      "##லலிகக": 4186,
      "அழகு": 4187,
      "##மாரட": 4188,
      "இருககினற": 4189,
      "வரவேறறார": 4190,
      "ஏறபடு": 4191,
      "தமிழநாடடில": 4192,
      "வாடகை": 4193,
      "பெருமபாலும": 4194,
      "##நிலைய": 4195,
      "சநதோஷ": 4196,
      "தடடு": 4197,
      "பிரிதத": 4198,
      "உசசநதிமனற": 4199,
      "எடபபாடி": 4200,
      "தாணடி": 4201,
      "மலல": 4202,
      "ஒபபநதம": 4203,
      "செயயலாம": 4204,
      "கிருஷணகிரி": 4205,
      "வெயில": 4206,
      "##ததாள": 4207,
      "##சசா": 4208,
      "இவருககு": 4209,
      "வியாழ": 4210,
      "முடிகக": 4211,
      "சமம": 4212,
      "லெ": 4213,
      "சாகக": 4214,
      "லார": 4215,
      "பகல": 4216,
      "##சிஙக": 4217,
      "விஞஞான": 4218,
      "அபபுற": 4219,
      "##பபடாமல": 4220,
      "கணகாணிபபு": 4221,
      "##கிர": 4222,
      "நியாய": 4223,
      "##பபகுதி": 4224,
      "அமைபபுகள": 4225,
      "வழிபாடு": 4226,
      "சிம": 4227,
      "பிளாஸடிக": 4228,
      "வடக": 4229,
      "சுடடு": 4230,
      "கொடும": 4231,
      "விரைநது": 4232,
      "##பபேடடை": 4233,
      "ஆகஸட": 4234,
      "கொணடிருககும": 4235,
      "##டிதது": 4236,
      "விறக": 4237,
      "வாரியம": 4238,
      "பேரூராடசி": 4239,
      "காவலதுறை": 4240,
      "விருதுநகர": 4241,
      "கௌ": 4242,
      "விமானம": 4243,
      "பூர": 4244,
      "##றிநது": 4245,
      "##ாவூர": 4246,
      "விவசாயிகளுககு": 4247,
      "##ககுழுவ": 4248,
      "##ததேரதல": 4249,
      "காடசிய": 4250,
      "##குளம": 4251,
      "தரமானம": 4252,
      "சிவகஙகை": 4253,
      "##ையைத": 4254,
      "தேவையில": 4255,
      "##ெனவே": 4256,
      "நெரி": 4257,
      "சலு": 4258,
      "கணம": 4259,
      "##சபா": 4260,
      "தெரியாமல": 4261,
      "ரு": 4262,
      "கோப": 4263,
      "கடடுமான": 4264,
      "நிரநதர": 4265,
      "வைததுக": 4266,
      "அவவாறு": 4267,
      "இருநதன": 4268,
      "##சசநதிரன": 4269,
      "வடடை": 4270,
      "தொடஙகிய": 4271,
      "தளளு": 4272,
      "துவஙகியது": 4273,
      "##ஆர": 4274,
      "நடவடிககைகளை": 4275,
      "##ியாகும": 4276,
      "சிவன": 4277,
      "ஒபபுதல": 4278,
      "நரை": 4279,
      "எடுககும": 4280,
      "எழுபப": 4281,
      "மூனறாம": 4282,
      "தொழிலாளர": 4283,
      "வெளளி": 4284,
      "குழநதைகளுககு": 4285,
      "சேரகக": 4286,
      "##செ": 4287,
      "##ுககுப": 4288,
      "அதிகரிககும": 4289,
      "##சேகர": 4290,
      "மலேசிய": 4291,
      "ஏறறி": 4292,
      "மள": 4293,
      "##பாட": 4294,
      "சூழலில": 4295,
      "##பபிறகு": 4296,
      "சககர": 4297,
      "வாஙகிய": 4298,
      "மேலாக": 4299,
      "முடிவெ": 4300,
      "##டியின": 4301,
      "உடகார": 4302,
      "விடய": 4303,
      "##நதோ": 4304,
      "##ருகன": 4305,
      "தேன": 4306,
      "வருகினற": 4307,
      "##சிங": 4308,
      "##வேணடிய": 4309,
      "தமிழகததின": 4310,
      "அடஙகிய": 4311,
      "பராமரிபபு": 4312,
      "தாசில": 4313,
      "##ையார": 4314,
      "வேட": 4315,
      "சுறறுசசூ": 4316,
      "ஆரவ": 4317,
      "அறிவிததுளளது": 4318,
      "##ொனறு": 4319,
      "##ிரவு": 4320,
      "##ததுறையினர": 4321,
      "வருகிறாரகள": 4322,
      "##ககோயில": 4323,
      "##ததுார": 4324,
      "சேவ": 4325,
      "கொடட": 4326,
      "கொழுமபு": 4327,
      "விஸ": 4328,
      "பதிலாக": 4329,
      "மூழ": 4330,
      "##பரவரி": 4331,
      "ஜம": 4332,
      "தறகாலிக": 4333,
      "தனமை": 4334,
      "சவால": 4335,
      "மகிழசசி": 4336,
      "அளிககும": 4337,
      "ஏறகெனவே": 4338,
      "மணடப": 4339,
      "##ாஷட": 4340,
      "திருவணண": 4341,
      "பதம": 4342,
      "இதனையடுதது": 4343,
      "##பேசி": 4344,
      "விவகாரததில": 4345,
      "சுடடிகக": 4346,
      "ஸமாரட": 4347,
      "மேமபாடடு": 4348,
      "பணியை": 4349,
      "##புக": 4350,
      "அதறகாக": 4351,
      "தமபி": 4352,
      "##கோள": 4353,
      "வலு": 4354,
      "போலவே": 4355,
      "பரிமா": 4356,
      "இறஙக": 4357,
      "##மாகப": 4358,
      "கேடப": 4359,
      "ஏறபடுததும": 4360,
      "தரமபுரி": 4361,
      "துரை": 4362,
      "தகு": 4363,
      "குளி": 4364,
      "இடது": 4365,
      "சோழ": 4366,
      "##தப": 4367,
      "மிகப": 4368,
      "மெலல": 4369,
      "ஆணையர": 4370,
      "அதிரு": 4371,
      "##பவர": 4372,
      "காமராஜ": 4373,
      "##ுககுள": 4374,
      "உடுமலை": 4375,
      "ஆரமபிதது": 4376,
      "காலஙகளில": 4377,
      "வெளளிககிழமை": 4378,
      "காலி": 4379,
      "சரககரை": 4380,
      "காரிய": 4381,
      "எனபபடும": 4382,
      "##வகை": 4383,
      "##ணிகள": 4384,
      "எவவித": 4385,
      "நடைபெறுகிறது": 4386,
      "அளிதது": 4387,
      "வெளிநாடு": 4388,
      "துறையினர": 4389,
      "##கிருஷணன": 4390,
      "மேலே": 4391,
      "தெலுஙகு": 4392,
      "ஞாயிறறு": 4393,
      "திறநத": 4394,
      "இலை": 4395,
      "புலிகள": 4396,
      "##ததாக": 4397,
      "கதாபா": 4398,
      "உளளதால": 4399,
      "மருததுவக": 4400,
      "இபபோ": 4401,
      "##ாபாத": 4402,
      "வனமுறை": 4403,
      "##ூா": 4404,
      "செயதுளள": 4405,
      "கொணடுவர": 4406,
      "##யாண": 4407,
      "சனிககிழமை": 4408,
      "பொருளாளர": 4409,
      "இததிடட": 4410,
      "உறவு": 4411,
      "##மேல": 4412,
      "ஆலை": 4413,
      "மெட": 4414,
      "செயலபடு": 4415,
      "##ிககொளள": 4416,
      "வழஙகபபடுகிறது": 4417,
      "##ொல": 4418,
      "##விக": 4419,
      "முனனிலையில": 4420,
      "கையெழு": 4421,
      "பிளளைகள": 4422,
      "##விதது": 4423,
      "உதய": 4424,
      "விதமாக": 4425,
      "தேசியக": 4426,
      "கனி": 4427,
      "##ஙகுகள": 4428,
      "கோரட": 4429,
      "##ககுற": 4430,
      "நப": 4431,
      "மருததுவரகள": 4432,
      "இவவளவு": 4433,
      "இருநதனர": 4434,
      "வணண": 4435,
      "ஜெயலலித": 4436,
      "உஙகளை": 4437,
      "திரி": 4438,
      "##ுமை": 4439,
      "புதுடிலலி": 4440,
      "##ணியை": 4441,
      "உணமையான": 4442,
      "எனபதில": 4443,
      "##ியோகம": 4444,
      "##ததிறகான": 4445,
      "##னனி": 4446,
      "செலவில": 4447,
      "வைரஸ": 4448,
      "பணிபுரி": 4449,
      "எனபதும": 4450,
      "மருததுவர": 4451,
      "கடடுபபடுதத": 4452,
      "ஒததி": 4453,
      "சடடபபேர": 4454,
      "##ினான": 4455,
      "நிவாரண": 4456,
      "##காம": 4457,
      "உதவும": 4458,
      "அமெரிககாவின": 4459,
      "நிகழவு": 4460,
      "கடசியினர": 4461,
      "பொறுபபே": 4462,
      "வசிதது": 4463,
      "அஙகுளள": 4464,
      "மதும": 4465,
      "விவா": 4466,
      "பிரசன": 4467,
      "ஆடை": 4468,
      "தவறான": 4469,
      "##ததிடம": 4470,
      "புறககணி": 4471,
      "##ராம": 4472,
      "பாரதி": 4473,
      "##ககப": 4474,
      "சுபபிரமணிய": 4475,
      "வேணடி": 4476,
      "வெபப": 4477,
      "அதிகரிததுளளது": 4478,
      "அரிசி": 4479,
      "##கைய": 4480,
      "நனமை": 4481,
      "கைபபறற": 4482,
      "தடுபப": 4483,
      "இரடடை": 4484,
      "கடைகள": 4485,
      "தேரவில": 4486,
      "ஆதரவாக": 4487,
      "ஏறறும": 4488,
      "காநத": 4489,
      "தொழிறச": 4490,
      "##ககுரிய": 4491,
      "##வதே": 4492,
      "ஃப": 4493,
      "படிககும": 4494,
      "##லலா": 4495,
      "பழு": 4496,
      "தேரசசி": 4497,
      "எழுநது": 4498,
      "தெரியாது": 4499,
      "நினைதது": 4500,
      "படையினர": 4501,
      "தபப": 4502,
      "ஏனெனில": 4503,
      "பனனரசெல": 4504,
      "##நததை": 4505,
      "உளளட": 4506,
      "காரில": 4507,
      "##ுவில": 4508,
      "செயயபபடுகிறது": 4509,
      "பிரதிநி": 4510,
      "தொழிறசாலை": 4511,
      "பணட": 4512,
      "இடமபெறறு": 4513,
      "அவு": 4514,
      "புறறு": 4515,
      "அமைதி": 4516,
      "குதிர": 4517,
      "தரபப": 4518,
      "விமரசி": 4519,
      "துரு": 4520,
      "##வதன": 4521,
      "விலையில": 4522,
      "கொளளைய": 4523,
      "##றையாக": 4524,
      "##னரகள": 4525,
      "செலவம": 4526,
      "பாசன": 4527,
      "தயணைபபு": 4528,
      "தஙகளுககு": 4529,
      "டெஙகு": 4530,
      "கணடறிய": 4531,
      "பகிரநது": 4532,
      "தனு": 4533,
      "சமபளம": 4534,
      "ஊரில": 4535,
      "ஐரோபபிய": 4536,
      "ஊழியர": 4537,
      "##ஷடம": 4538,
      "##காசி": 4539,
      "##ததிருநதார": 4540,
      "##ாவுககு": 4541,
      "விவே": 4542,
      "##ிருககிற": 4543,
      "##ெடுதத": 4544,
      "வெடட": 4545,
      "முறைய": 4546,
      "ஏரிய": 4547,
      "##ுரிமை": 4548,
      "திருடடு": 4549,
      "##னே": 4550,
      "மேலாளர": 4551,
      "அணியில": 4552,
      "இதுதொடரபாக": 4553,
      "தாசிலதார": 4554,
      "ஒபபநத": 4555,
      "டூ": 4556,
      "அபபகுதியில": 4557,
      "யாத": 4558,
      "உததரவிட": 4559,
      "அதிகளவில": 4560,
      "வேர": 4561,
      "சுழ": 4562,
      "சோத": 4563,
      "தொடரில": 4564,
      "##பபடுததிய": 4565,
      "இதுதான": 4566,
      "##டே": 4567,
      "##ணிகக": 4568,
      "தெளிவாக": 4569,
      "இசைய": 4570,
      "##ககலல": 4571,
      "##வைதது": 4572,
      "பெரியார": 4573,
      "வரவேறபு": 4574,
      "##லடசுமி": 4575,
      "சதது": 4576,
      "சொலலும": 4577,
      "##பபிடட": 4578,
      "##மாணட": 4579,
      "மனிதரகள": 4580,
      "வாடிககையாளரகள": 4581,
      "ஒருவன": 4582,
      "துணைத": 4583,
      "ஆடசியர": 4584,
      "##லஸ": 4585,
      "##ிடையில": 4586,
      "##பபாட": 4587,
      "இடஙகள": 4588,
      "##ஞசிய": 4589,
      "திருநெலவேலி": 4590,
      "வைததனர": 4591,
      "##ணணு": 4592,
      "மாநிலஙகளில": 4593,
      "கடலில": 4594,
      "##ததுககாக": 4595,
      "புளளி": 4596,
      "ஆறும": 4597,
      "##சோ": 4598,
      "ஏதும": 4599,
      "செயயபபடடார": 4600,
      "##நாடடின": 4601,
      "வெடடி": 4602,
      "கேடடுக": 4603,
      "பருவம": 4604,
      "##ததபபடட": 4605,
      "##கிதம": 4606,
      "சாமப": 4607,
      "##லிஙகம": 4608,
      "ஆடு": 4609,
      "நடததும": 4610,
      "குடுமபததின": 4611,
      "இறநதார": 4612,
      "பஙகேறறு": 4613,
      "ஒருவரை": 4614,
      "பினனால": 4615,
      "அணிகள": 4616,
      "பேசும": 4617,
      "ஓவர": 4618,
      "குமபல": 4619,
      "உம": 4620,
      "##ஙகளைச": 4621,
      "காபபாறற": 4622,
      "மாணவரகளின": 4623,
      "காலப": 4624,
      "விககெட": 4625,
      "கூடுதலாக": 4626,
      "##ேரியில": 4627,
      "ரமேஷ": 4628,
      "##யான": 4629,
      "வருவதால": 4630,
      "கூடடமை": 4631,
      "வரைய": 4632,
      "வாயநத": 4633,
      "இதேபோல": 4634,
      "செயறக": 4635,
      "தபாவளி": 4636,
      "ஓட": 4637,
      "முனனேறற": 4638,
      "பெயது": 4639,
      "##பபோது": 4640,
      "கிராமஙகளில": 4641,
      "##பபவரகள": 4642,
      "இஙக": 4643,
      "போலசில": 4644,
      "சுவர": 4645,
      "வழிப": 4646,
      "காணபபடும": 4647,
      "மரஙகள": 4648,
      "விதிமுறை": 4649,
      "தஙகளின": 4650,
      "இனறும": 4651,
      "மித": 4652,
      "##ததிறன": 4653,
      "எனறான": 4654,
      "ஒருமுறை": 4655,
      "டவிடடர": 4656,
      "வாககாளரகள": 4657,
      "ஆத": 4658,
      "##காயம": 4659,
      "##வநது": 4660,
      "அதிகபடச": 4661,
      "அபிவிருததி": 4662,
      "##ிருககு": 4663,
      "வாழை": 4664,
      "யூனியன": 4665,
      "கநத": 4666,
      "##ஸக": 4667,
      "##ததடி": 4668,
      "##குடி": 4669,
      "##கொலை": 4670,
      "நுகர": 4671,
      "##பபிரிகக": 4672,
      "அணிககு": 4673,
      "##ேத": 4674,
      "தவிரமாக": 4675,
      "ரண": 4676,
      "பலியான": 4677,
      "##ானால": 4678,
      "ஹி": 4679,
      "பேசுவ": 4680,
      "விவசாயி": 4681,
      "டிரைவர": 4682,
      "##ககடை": 4683,
      "அழுதத": 4684,
      "முநதைய": 4685,
      "சேன": 4686,
      "##ததனம": 4687,
      "ஏறபாடுகளை": 4688,
      "முடிவில": 4689,
      "திகழ": 4690,
      "##ிடததில": 4691,
      "நிலையை": 4692,
      "பெருமை": 4693,
      "ஒனறாக": 4694,
      "##டடிகள": 4695,
      "##வானி": 4696,
      "##ாவிடடால": 4697,
      "மாணவியர": 4698,
      "##ொலி": 4699,
      "##டரோ": 4700,
      "கடடாய": 4701,
      "அவரகளிடம": 4702,
      "##நதும": 4703,
      "##ிகை": 4704,
      "##ககலை": 4705,
      "##ததேன": 4706,
      "##ஸத": 4707,
      "ஏறறுக": 4708,
      "##பபாளையம": 4709,
      "சாமி": 4710,
      "கோடை": 4711,
      "உரை": 4712,
      "வேலைவாயபபு": 4713,
      "##ததலைவர": 4714,
      "பறறியும": 4715,
      "பசசை": 4716,
      "வெளியாகி": 4717,
      "டவுன": 4718,
      "தொறறு": 4719,
      "##புறம": 4720,
      "##ெனன": 4721,
      "தயாரிபபு": 4722,
      "எனனிடம": 4723,
      "##பொருள": 4724,
      "இனறி": 4725,
      "##ையானது": 4726,
      "திருபபி": 4727,
      "நெய": 4728,
      "பணப": 4729,
      "இஸலாமிய": 4730,
      "அவவளவு": 4731,
      "குபப": 4732,
      "கொளளை": 4733,
      "##ணியின": 4734,
      "தயாரிதது": 4735,
      "மடடுமினறி": 4736,
      "நாச": 4737,
      "அமைய": 4738,
      "படிபபு": 4739,
      "உததரவிடடார": 4740,
      "வயதான": 4741,
      "மனிதன": 4742,
      "##ையிலிருநது": 4743,
      "##பேர": 4744,
      "##ாதனை": 4745,
      "இருமபு": 4746,
      "தெரியாத": 4747,
      "படுகாயம": 4748,
      "முடிவுககு": 4749,
      "##ேசு": 4750,
      "வரவிலலை": 4751,
      "தொகையை": 4752,
      "யோகா": 4753,
      "##நதிருநத": 4754,
      "சடடததின": 4755,
      "பாரததால": 4756,
      "##ுவின": 4757,
      "##ஸவரர": 4758,
      "##பபறை": 4759,
      "##ிககபபடட": 4760,
      "அறுவை": 4761,
      "கமயூனிஸட": 4762,
      "வசச": 4763,
      "கருது": 4764,
      "கூடடமைபபு": 4765,
      "காயமடைநத": 4766,
      "ஊரக": 4767,
      "வடுகளில": 4768,
      "வசிககும": 4769,
      "பது": 4770,
      "இதழ": 4771,
      "பறவை": 4772,
      "இனப": 4773,
      "##ுளளது": 4774,
      "மாரகக": 4775,
      "வத": 4776,
      "கோபி": 4777,
      "##ககுறிசசி": 4778,
      "தடட": 4779,
      "நேறற": 4780,
      "தரகக": 4781,
      "எணணம": 4782,
      "தகவலகளை": 4783,
      "லடசுமி": 4784,
      "புலன": 4785,
      "அதனபின": 4786,
      "நலம": 4787,
      "விறபன": 4788,
      "நாடக": 4789,
      "கலநதுகொணட": 4790,
      "மிள": 4791,
      "பாலி": 4792,
      "திரைபபடம": 4793,
      "எடை": 4794,
      "பெணணை": 4795,
      "துண": 4796,
      "ஆறறில": 4797,
      "பிட": 4798,
      "சேரநதவரகள": 4799,
      "உறுதிய": 4800,
      "##டையும": 4801,
      "கணககெ": 4802,
      "##கிழ": 4803,
      "அதிகாரம": 4804,
      "வெளியேற": 4805,
      "##தானே": 4806,
      "##சாய": 4807,
      "##ையாகக": 4808,
      "வாழககையில": 4809,
      "##தேசம": 4810,
      "##மஸ": 4811,
      "வருகிற": 4812,
      "அமையும": 4813,
      "பூஙகா": 4814,
      "##ஙகளைத": 4815,
      "##பபடடுளளார": 4816,
      "இரவில": 4817,
      "குறைகக": 4818,
      "மாறாக": 4819,
      "உயிரிழநத": 4820,
      "##தரா": 4821,
      "ஐநத": 4822,
      "அனுபவம": 4823,
      "ஏறி": 4824,
      "விக": 4825,
      "அமரநது": 4826,
      "மடபு": 4827,
      "##ககோவில": 4828,
      "ஜோதி": 4829,
      "ஆயவாளர": 4830,
      "இருககாது": 4831,
      "சலுகை": 4832,
      "எவவாறு": 4833,
      "அபிஷேகம": 4834,
      "##லாத": 4835,
      "##ொர": 4836,
      "##பபூரவ": 4837,
      "அசை": 4838,
      "செனறது": 4839,
      "ஆககிரமிபபு": 4840,
      "##ோஸ": 4841,
      "துறையின": 4842,
      "ஆசச": 4843,
      "மேமபடுதத": 4844,
      "யாக": 4845,
      "வணடி": 4846,
      "பனன": 4847,
      "ரூபாயககு": 4848,
      "நரம": 4849,
      "பரவல": 4850,
      "எச": 4851,
      "பிறபபி": 4852,
      "சாதன": 4853,
      "கழகம": 4854,
      "ஆனா": 4855,
      "தனிபபடட": 4856,
      "##ாவிர": 4857,
      "குறிபபிடடார": 4858,
      "தளளுபடி": 4859,
      "##முருகன": 4860,
      "திருவணணாமலை": 4861,
      "##ாசி": 4862,
      "தேரதலை": 4863,
      "சமபள": 4864,
      "படிபப": 4865,
      "மானிய": 4866,
      "தொலைககாடசி": 4867,
      "ஆலய": 4868,
      "##லததில": 4869,
      "வருகிறோம": 4870,
      "##ககாரரகள": 4871,
      "முடிவுகள": 4872,
      "##நதூர": 4873,
      "செலுதது": 4874,
      "##ளிதத": 4875,
      "அழைததுச": 4876,
      "மணம": 4877,
      "கோள": 4878,
      "உரையா": 4879,
      "யோக": 4880,
      "தெரிநதது": 4881,
      "கருததர": 4882,
      "கபபல": 4883,
      "தெயவ": 4884,
      "நை": 4885,
      "##டடஸ": 4886,
      "##கழ": 4887,
      "##ியிடம": 4888,
      "அமைககும": 4889,
      "நிறுவனததில": 4890,
      "பாடசாலை": 4891,
      "ரகசிய": 4892,
      "பஞசாயதது": 4893,
      "பஸகள": 4894,
      "சஙகததின": 4895,
      "அஞசலி": 4896,
      "சிகிசச": 4897,
      "தொடரசசியாக": 4898,
      "அசசுறு": 4899,
      "நாவல": 4900,
      "##வதறகும": 4901,
      "எழுநதுளளது": 4902,
      "ஈடுபடு": 4903,
      "##யிர": 4904,
      "ஆனலை": 4905,
      "செஙகல": 4906,
      "ஆரவல": 4907,
      "பரபரபபை": 4908,
      "சுதத": 4909,
      "##றியது": 4910,
      "புகாரின": 4911,
      "முயறசிய": 4912,
      "நோயாளிகள": 4913,
      "வாழநது": 4914,
      "அரசியலில": 4915,
      "நிழ": 4916,
      "கணணன": 4917,
      "உபபு": 4918,
      "##ையாகும": 4919,
      "முகமது": 4920,
      "##லாநது": 4921,
      "##சசாமி": 4922,
      "மறநது": 4923,
      "உணணாவிர": 4924,
      "பேரவை": 4925,
      "விவசாயம": 4926,
      "##ளளை": 4927,
      "அளிததார": 4928,
      "ஒடடும": 4929,
      "தபால": 4930,
      "##ிறகான": 4931,
      "கொஞச": 4932,
      "எலலோரும": 4933,
      "திஙகள": 4934,
      "ஸடார": 4935,
      "உணரவு": 4936,
      "##பபடுவதாக": 4937,
      "கேமரா": 4938,
      "ரதியாக": 4939,
      "##மாகவே": 4940,
      "மககளிடம": 4941,
      "##ிலலாமல": 4942,
      "நளள": 4943,
      "##ொதத": 4944,
      "தமிழத": 4945,
      "மாநாடு": 4946,
      "பணியாறறி": 4947,
      "சனிவா": 4948,
      "கூலி": 4949,
      "இடததிறகு": 4950,
      "துவஙகி": 4951,
      "பாலம": 4952,
      "##துரை": 4953,
      "பணியிட": 4954,
      "உபயோக": 4955,
      "##தோடு": 4956,
      "வலியுறுததிய": 4957,
      "எதிரவரும": 4958,
      "நிராக": 4959,
      "குடுமபததினர": 4960,
      "##ளியில": 4961,
      "உனன": 4962,
      "பதவியே": 4963,
      "கனம": 4964,
      "பிபரவரி": 4965,
      "அளவிறகு": 4966,
      "செயலபடும": 4967,
      "களமிற": 4968,
      "##கில": 4969,
      "சிறுமி": 4970,
      "##வுகிறது": 4971,
      "சிககி": 4972,
      "மதம": 4973,
      "நேரடி": 4974,
      "இவரகளுககு": 4975,
      "##ானிய": 4976,
      "##ினாலும": 4977,
      "##னியா": 4978,
      "மரியாதை": 4979,
      "பிரிய": 4980,
      "டாஸமாக": 4981,
      "இதைத": 4982,
      "கமபயூ": 4983,
      "கோடடை": 4984,
      "பரிதாப": 4985,
      "லிடடர": 4986,
      "நநத": 4987,
      "இறஙகி": 4988,
      "ஈடுபட": 4989,
      "ஏறபடுதது": 4990,
      "ஆதரி": 4991,
      "##ததோ": 4992,
      "##டடிங": 4993,
      "##வாட": 4994,
      "##ககூடட": 4995,
      "##ிககொணட": 4996,
      "கடமை": 4997,
      "பறறாககு": 4998,
      "##பபோல": 4999,
      "நிரபப": 5000,
      "மேறகொள": 5001,
      "உருவான": 5002,
      "காடசிகள": 5003,
      "சிபிஐ": 5004,
      "நோககம": 5005,
      "உரிமையாளரகள": 5006,
      "அவவபபோது": 5007,
      "சிரி": 5008,
      "ராக": 5009,
      "போடடியிட": 5010,
      "##கத": 5011,
      "##றறினார": 5012,
      "அமு": 5013,
      "ரஙக": 5014,
      "வழககுப": 5015,
      "சமயம": 5016,
      "மோசமான": 5017,
      "பாதை": 5018,
      "எடுபப": 5019,
      "ராவ": 5020,
      "காரடு": 5021,
      "நடிககும": 5022,
      "கிளமப": 5023,
      "##ணததில": 5024,
      "காடடும": 5025,
      "அமைககபபடட": 5026,
      "எதையும": 5027,
      "இவன": 5028,
      "எழுததாளர": 5029,
      "சுறறுசசூழல": 5030,
      "##ையிலும": 5031,
      "நேரு": 5032,
      "சாமபியன": 5033,
      "பெறறுக": 5034,
      "ஒழுஙகு": 5035,
      "கெடட": 5036,
      "##ககட": 5037,
      "##ிருநதன": 5038,
      "##ககத": 5039,
      "செலுததி": 5040,
      "சணட": 5041,
      "##ிருபபதாக": 5042,
      "களில": 5043,
      "கருபபு": 5044,
      "நாகர": 5045,
      "விமரசன": 5046,
      "முரண": 5047,
      "லோகசபா": 5048,
      "##ஸி": 5049,
      "பாரதிய": 5050,
      "எனனால": 5051,
      "##சுர": 5052,
      "ஸபெ": 5053,
      "##காசம": 5054,
      "உறுதியாக": 5055,
      "சிநதனை": 5056,
      "பாடலகள": 5057,
      "பதத": 5058,
      "உருவ": 5059,
      "கோரிககைகளை": 5060,
      "##ாசலம": 5061,
      "மலையாள": 5062,
      "நுடப": 5063,
      "இதய": 5064,
      "##வாஙக": 5065,
      "அவசிய": 5066,
      "திணை": 5067,
      "##ககளும": 5068,
      "ஆயிரககணககான": 5069,
      "##சுவ": 5070,
      "மாதஙகளாக": 5071,
      "##விககும": 5072,
      "விருநத": 5073,
      "##லே": 5074,
      "மோதி": 5075,
      "வழககுகள": 5076,
      "ஊடடி": 5077,
      "கொட": 5078,
      "##ையறற": 5079,
      "யெ": 5080,
      "கடடாயம": 5081,
      "வாழநத": 5082,
      "கொடுததார": 5083,
      "நடம": 5084,
      "கோபால": 5085,
      "##ுஙக": 5086,
      "தஙகிய": 5087,
      "மேறபடடோர": 5088,
      "கோரடடில": 5089,
      "அசசம": 5090,
      "கொணடுளளது": 5091,
      "##ூகம": 5092,
      "திடடமிடட": 5093,
      "அவளை": 5094,
      "நாண": 5095,
      "போனது": 5096,
      "ஞாயிறறுககிழமை": 5097,
      "இறககும": 5098,
      "அபாயம": 5099,
      "சானறு": 5100,
      "மேடட": 5101,
      "ராஜேநதிரன": 5102,
      "குடுமபம": 5103,
      "சணடை": 5104,
      "ராத": 5105,
      "முலலை": 5106,
      "வாயபபுகள": 5107,
      "கருமபு": 5108,
      "விஜயகாநத": 5109,
      "அஜித": 5110,
      "படுகக": 5111,
      "வாசக": 5112,
      "ஜலலிகக": 5113,
      "மாடு": 5114,
      "திடடஙகளை": 5115,
      "சாடட": 5116,
      "ஜாம": 5117,
      "ஆரமபி": 5118,
      "##நேரம": 5119,
      "படடாசு": 5120,
      "மாசு": 5121,
      "மறுதது": 5122,
      "இலககு": 5123,
      "அமைசசரவை": 5124,
      "##ரியும": 5125,
      "##கததின": 5126,
      "##ககூடும": 5127,
      "வகையான": 5128,
      "கூடும": 5129,
      "கருதி": 5130,
      "பிரதிநிதிகள": 5131,
      "கதாபாததிர": 5132,
      "பணணி": 5133,
      "##டிககொ": 5134,
      "கூறுமபோது": 5135,
      "ஜனதா": 5136,
      "இசையமை": 5137,
      "##சாம": 5138,
      "##வாடி": 5139,
      "மதுரையில": 5140,
      "##றிநத": 5141,
      "அலலாஹ": 5142,
      "விடடனர": 5143,
      "ஏத": 5144,
      "பலம": 5145,
      "தூதர": 5146,
      "##ததிருககிறார": 5147,
      "நடததபபடும": 5148,
      "உததரவிடடுளளது": 5149,
      "##மாள": 5150,
      "##சால": 5151,
      "மனுவை": 5152,
      "உயரநத": 5153,
      "அததிய": 5154,
      "கழிவுநர": 5155,
      "பேசியதாவது": 5156,
      "##ாவாக": 5157,
      "உததிய": 5158,
      "தெருவில": 5159,
      "முனனால": 5160,
      "##பபொருள": 5161,
      "வழஙகபபடட": 5162,
      "சராச": 5163,
      "ஆணடுககு": 5164,
      "கடின": 5165,
      "பனனரசெலவம": 5166,
      "##லாக": 5167,
      "சரசசை": 5168,
      "தரிசனம": 5169,
      "ஆசசரிய": 5170,
      "தலி": 5171,
      "தொடரபுடைய": 5172,
      "வேலைககு": 5173,
      "##பூரவ": 5174,
      "வகிததனர": 5175,
      "ஆவார": 5176,
      "சநதர": 5177,
      "##பபுர": 5178,
      "##ததிலேயே": 5179,
      "கோலி": 5180,
      "ஆதம": 5181,
      "##ணடா": 5182,
      "##சசின": 5183,
      "சிறுவன": 5184,
      "##ிகளும": 5185,
      "பௌ": 5186,
      "டசல": 5187,
      "##ததிறகுள": 5188,
      "கனவு": 5189,
      "அறிமுகபபடுதத": 5190,
      "##ககாடு": 5191,
      "தோறற": 5192,
      "எடுததுச": 5193,
      "##சசெயல": 5194,
      "##ககளுககு": 5195,
      "தேவி": 5196,
      "எதிரபாரககபபடுகிறது": 5197,
      "பரபப": 5198,
      "கனனியாகும": 5199,
      "கிளி": 5200,
      "மறுப": 5201,
      "இடைததேரதல": 5202,
      "##டில": 5203,
      "##வாரி": 5204,
      "வெளியேறற": 5205,
      "வியாழககிழமை": 5206,
      "##ஷி": 5207,
      "பொதுபபணி": 5208,
      "##னபு": 5209,
      "##முடியும": 5210,
      "கூறபபடடுளளது": 5211,
      "அனைததையும": 5212,
      "கொனற": 5213,
      "##ககிர": 5214,
      "##ததொகை": 5215,
      "அறப": 5216,
      "##சேகரன": 5217,
      "##ழிவு": 5218,
      "நமபு": 5219,
      "நாடுகளின": 5220,
      "##ாவதி": 5221,
      "பழஙகு": 5222,
      "##மபாககம": 5223,
      "சபாநாயகர": 5224,
      "போதை": 5225,
      "திருவார": 5226,
      "இவரை": 5227,
      "இனஜின": 5228,
      "சிறபபான": 5229,
      "இளவர": 5230,
      "##நட": 5231,
      "மெடரிக": 5232,
      "குழுவின": 5233,
      "கொசு": 5234,
      "##பபையும": 5235,
      "ஒடடுமொதத": 5236,
      "வளள": 5237,
      "உயரம": 5238,
      "வேளாணமை": 5239,
      "எஙகே": 5240,
      "##பபதிலலை": 5241,
      "##கிறரகள": 5242,
      "தாககிய": 5243,
      "உரிமைகள": 5244,
      "மஹிநத": 5245,
      "மைதானததில": 5246,
      "இவறறை": 5247,
      "வாககாளர": 5248,
      "வககல": 5249,
      "விடை": 5250,
      "விணணபபி": 5251,
      "##றல": 5252,
      "வாகனததில": 5253,
      "அரஜ": 5254,
      "இலஙகையின": 5255,
      "வழஙகு": 5256,
      "இஙகுளள": 5257,
      "வரிசையில": 5258,
      "ரஜினிக": 5259,
      "வடிவமை": 5260,
      "ஐகோர": 5261,
      "வெளியாகியுளளது": 5262,
      "ஊருககு": 5263,
      "##ததவர": 5264,
      "கடததல": 5265,
      "பாதுகாகக": 5266,
      "கடடிய": 5267,
      "##யமாக": 5268,
      "பிரகாஷ": 5269,
      "##மபாளையம": 5270,
      "சொலலிய": 5271,
      "மாதஙகளில": 5272,
      "பிரபாக": 5273,
      "சரவணன": 5274,
      "ரவு": 5275,
      "நெருககடி": 5276,
      "பதவியை": 5277,
      "பெறறுளளது": 5278,
      "திடடமிட": 5279,
      "தொலைவில": 5280,
      "##ததெ": 5281,
      "கவனிகக": 5282,
      "கூறும": 5283,
      "டாகடரகள": 5284,
      "வேணடுகோள": 5285,
      "பதிநது": 5286,
      "அறிவிககபபடடுளளது": 5287,
      "கணேசன": 5288,
      "##யிறசி": 5289,
      "செயயபபட": 5290,
      "செலகினறனர": 5291,
      "##ோரி": 5292,
      "இததனை": 5293,
      "##ககாய": 5294,
      "##முடி": 5295,
      "தலைவா": 5296,
      "##ாதன": 5297,
      "அழுததம": 5298,
      "ஒழிபபு": 5299,
      "குழும": 5300,
      "சினிமாவில": 5301,
      "எளிய": 5302,
      "கலயாண": 5303,
      "##ஷேக": 5304,
      "##மதி": 5305,
      "##ககததில": 5306,
      "தொடரும": 5307,
      "கோபபை": 5308,
      "எனனவெ": 5309,
      "##சசெல": 5310,
      "உருவாககு": 5311,
      "அததனை": 5312,
      "##ரவ": 5313,
      "வாழககையை": 5314,
      "##ககவிலலை": 5315,
      "வலைதள": 5316,
      "பிரானஸ": 5317,
      "இருபபதை": 5318,
      "அங": 5319,
      "கலைஞர": 5320,
      "புததகம": 5321,
      "தயாரிபபாளர": 5322,
      "பஞசாப": 5323,
      "கணகாடசி": 5324,
      "கொணடிருநதார": 5325,
      "குழபப": 5326,
      "வரம": 5327,
      "பிரிதது": 5328,
      "தலையில": 5329,
      "##சசுவ": 5330,
      "அநதத": 5331,
      "விணணபபிகக": 5332,
      "சுடடிககாடட": 5333,
      "##தததால": 5334,
      "##ேஸவரி": 5335,
      "மாளிக": 5336,
      "சமயததில": 5337,
      "##ககினறது": 5338,
      "நித": 5339,
      "##ககாமல": 5340,
      "ஆதரவாளரகள": 5341,
      "விடுததுளளனர": 5342,
      "உறசாக": 5343,
      "தனுஷ": 5344,
      "உழ": 5345,
      "பசச": 5346,
      "இநதி": 5347,
      "சநதையில": 5348,
      "மிஸ": 5349,
      "நிறக": 5350,
      "##தததிறகு": 5351,
      "##ததடட": 5352,
      "##ககததை": 5353,
      "##யோ": 5354,
      "இபபகுதியில": 5355,
      "வஙகிய": 5356,
      "காலமாக": 5357,
      "அமித": 5358,
      "குஜராத": 5359,
      "அகர": 5360,
      "பிரப": 5361,
      "ஓயவூ": 5362,
      "தியே": 5363,
      "மறைநத": 5364,
      "தேஙகாய": 5365,
      "புதனகிழமை": 5366,
      "கலநதுர": 5367,
      "கடசியில": 5368,
      "மனனர": 5369,
      "சததம": 5370,
      "சுல": 5371,
      "அபராதம": 5372,
      "கிறிஸத": 5373,
      "சததிய": 5374,
      "வழககுபபதிவு": 5375,
      "பிரசசின": 5376,
      "படபபிடிபபு": 5377,
      "மாநிலஙகள": 5378,
      "அவனுககு": 5379,
      "வெலல": 5380,
      "பிரசாரம": 5381,
      "வசூ": 5382,
      "வைகோ": 5383,
      "கடடடம": 5384,
      "திணைககள": 5385,
      "##ேப": 5386,
      "தணணரை": 5387,
      "பென": 5388,
      "கொளமுதல": 5389,
      "தாயார": 5390,
      "படுகொலை": 5391,
      "தாஙகினார": 5392,
      "சாககடை": 5393,
      "கடடுபபாடடு": 5394,
      "வானிலை": 5395,
      "அறககடட": 5396,
      "அபதுல": 5397,
      "பசு": 5398,
      "##வரகளாக": 5399,
      "கிணறு": 5400,
      "தஙகி": 5401,
      "கூறினர": 5402,
      "விருபபம": 5403,
      "உரிமையாளர": 5404,
      "அவறறின": 5405,
      "புதுககோடடை": 5406,
      "##டான": 5407,
      "##வலம": 5408,
      "##பபதும": 5409,
      "##பபுகளை": 5410,
      "கடததி": 5411,
      "##குல": 5412,
      "வேணடுமென": 5413,
      "வலுவ": 5414,
      "##நதுளளன": 5415,
      "இதுவே": 5416,
      "##டடியை": 5417,
      "கருததில": 5418,
      "எனபதறகாக": 5419,
      "சேகர": 5420,
      "இதனிடையே": 5421,
      "புரடசி": 5422,
      "துறைமுக": 5423,
      "பனி": 5424,
      "##முறையில": 5425,
      "இயஙகி": 5426,
      "குடிம": 5427,
      "##பபய": 5428,
      "ஏறபடடுளள": 5429,
      "பூரததி": 5430,
      "வடடி": 5431,
      "ராஜின": 5432,
      "ஆற": 5433,
      "ஊககு": 5434,
      "செயயபபடடனர": 5435,
      "வெனறு": 5436,
      "ஒறறும": 5437,
      "மில": 5438,
      "துணடு": 5439,
      "முனனெடுகக": 5440,
      "சரககு": 5441,
      "கடடுபபாடு": 5442,
      "##பபாககம": 5443,
      "கமலஹ": 5444,
      "வெண": 5445,
      "##ேடு": 5446,
      "##ிரியை": 5447,
      "குறிய": 5448,
      "மகாராஷட": 5449,
      "வடம": 5450,
      "##சசேரி": 5451,
      "சிறுநர": 5452,
      "முகாமில": 5453,
      "##ராஜா": 5454,
      "##லாமல": 5455,
      "பிரபு": 5456,
      "##ளிககும": 5457,
      "தஞசாவூர": 5458,
      "ஜனாதிப": 5459,
      "நடததபபடட": 5460,
      "அறையில": 5461,
      "தவிரவாதிகள": 5462,
      "திராவிட": 5463,
      "வணணம": 5464,
      "செயதியாளரகளிடம": 5465,
      "தளபதி": 5466,
      "##களுககான": 5467,
      "##ாமை": 5468,
      "பிரிவின": 5469,
      "சிவச": 5470,
      "விடுதலைப": 5471,
      "நூறறாணடு": 5472,
      "வெளியு": 5473,
      "##தியுடன": 5474,
      "பெரிதும": 5475,
      "புலி": 5476,
      "##ககின": 5477,
      "பாததிர": 5478,
      "மறறவரகள": 5479,
      "நிறகும": 5480,
      "தாககி": 5481,
      "இருநததால": 5482,
      "எனபதையும": 5483,
      "ஊதிய": 5484,
      "நடததபபடடது": 5485,
      "உனனை": 5486,
      "செயவதறகு": 5487,
      "ரஜினிகாநத": 5488,
      "##ியாவின": 5489,
      "##ருமான": 5490,
      "நமபி": 5491,
      "##பபாண": 5492,
      "தொணடரகள": 5493,
      "கிடடததடட": 5494,
      "பிடிககும": 5495,
      "##ியூர": 5496,
      "வாரி": 5497,
      "உலகக": 5498,
      "புஷ": 5499,
      "முடிகிறது": 5500,
      "##ஙகளே": 5501,
      "மறியல": 5502,
      "நாராயண": 5503,
      "பதிவாக": 5504,
      "கடறகர": 5505,
      "விகரம": 5506,
      "##ததுககுள": 5507,
      "பகுதியைச": 5508,
      "புறறுநோய": 5509,
      "தரை": 5510,
      "##ாலம": 5511,
      "புளளிகள": 5512,
      "##ிககல": 5513,
      "நோடடு": 5514,
      "பூமி": 5515,
      "முனபே": 5516,
      "அதைத": 5517,
      "வழஙகபபடடுளளது": 5518,
      "உளதுறை": 5519,
      "கரி": 5520,
      "வருமானம": 5521,
      "இழநத": 5522,
      "ரஷய": 5523,
      "ஷா": 5524,
      "##ோதி": 5525,
      "##பெயர": 5526,
      "பததிரிகை": 5527,
      "##ணாம": 5528,
      "##ணடம": 5529,
      "அஙகிருநத": 5530,
      "எநதவித": 5531,
      "மிரடடல": 5532,
      "போதுமான": 5533,
      "ஏனைய": 5534,
      "தலைபபில": 5535,
      "சாததிய": 5536,
      "தெரியவநதுளளது": 5537,
      "எலலாவ": 5538,
      "குழநதைகளை": 5539,
      "இளஙகோ": 5540,
      "உஙக": 5541,
      "தேட": 5542,
      "காவலதுறையினர": 5543,
      "##டுககு": 5544,
      "அணிநது": 5545,
      "உளநாடடு": 5546,
      "##பபுடன": 5547,
      "கடலுார": 5548,
      "##றிவு": 5549,
      "சரத": 5550,
      "பதவியில": 5551,
      "##என": 5552,
      "கழிதது": 5553,
      "ராஜபகஷ": 5554,
      "##முறைய": 5555,
      "போதே": 5556,
      "##நததும": 5557,
      "விநியோக": 5558,
      "##வரா": 5559,
      "முடிவை": 5560,
      "வியாபார": 5561,
      "மடடககள": 5562,
      "பேஸ": 5563,
      "அரசி": 5564,
      "சோம": 5565,
      "தரபபினர": 5566,
      "கவரனர": 5567,
      "அஙககார": 5568,
      "சுததம": 5569,
      "நோடடஸ": 5570,
      "வரவேறப": 5571,
      "மேலநிலைப": 5572,
      "##ிருககினறன": 5573,
      "பலாத": 5574,
      "வெளிபபடுதத": 5575,
      "லாபம": 5576,
      "கோவையில": 5577,
      "கணடன": 5578,
      "##தறகான": 5579,
      "##ராக": 5580,
      "மழைநர": 5581,
      "##வருகிறது": 5582,
      "தணி": 5583,
      "கஷட": 5584,
      "##ததுககான": 5585,
      "பாரததுக": 5586,
      "காணபபடுகிறது": 5587,
      "அவருடன": 5588,
      "காடடில": 5589,
      "முனபாக": 5590,
      "##பபடடிருநதது": 5591,
      "நூறறு": 5592,
      "எனபதுதான": 5593,
      "விழுநத": 5594,
      "இவறறில": 5595,
      "##ணஙகள": 5596,
      "முககியம": 5597,
      "பெரமப": 5598,
      "ஹரி": 5599,
      "படச": 5600,
      "முனனெ": 5601,
      "பொறுததவரை": 5602,
      "##ுடு": 5603,
      "இநதிரா": 5604,
      "##பபிரிவு": 5605,
      "ஹர": 5606,
      "தனிதது": 5607,
      "நடைபெறவு": 5608,
      "வாலிபர": 5609,
      "கேடடார": 5610,
      "சஞச": 5611,
      "##ிகஸ": 5612,
      "வறும": 5613,
      "தேவையிலலை": 5614,
      "பெணகளின": 5615,
      "##ிடடனர": 5616,
      "ஒர": 5617,
      "டோ": 5618,
      "##வகு": 5619,
      "எளிதாக": 5620,
      "##ேயன": 5621,
      "செயறகை": 5622,
      "பிழை": 5623,
      "டிலலி": 5624,
      "##சககர": 5625,
      "ராஜஸதான": 5626,
      "சமபவஙகள": 5627,
      "சிறிசேன": 5628,
      "கிருஷணன": 5629,
      "##ஹா": 5630,
      "உததரவிடடது": 5631,
      "##டிவி": 5632,
      "இலலைய": 5633,
      "அதிலும": 5634,
      "##வாறான": 5635,
      "அறிவிககபபடட": 5636,
      "பினபறற": 5637,
      "##சசம": 5638,
      "கொழு": 5639,
      "அமலபடுதத": 5640,
      "வளரநது": 5641,
      "ரஹ": 5642,
      "நடிபபில": 5643,
      "தொலைபேசி": 5644,
      "விடுவி": 5645,
      "போராடடததை": 5646,
      "##ுககே": 5647,
      "ஒளிபர": 5648,
      "குறைவான": 5649,
      "மனுவில": 5650,
      "கேரளா": 5651,
      "##நலலூர": 5652,
      "##ாரும": 5653,
      "சிறுவ": 5654,
      "சரசச": 5655,
      "பணிககு": 5656,
      "வதம": 5657,
      "கணடனம": 5658,
      "யாழபபாண": 5659,
      "##சுககு": 5660,
      "சேத": 5661,
      "திறமை": 5662,
      "கிராமம": 5663,
      "கொணடிருககிறது": 5664,
      "அமைசசகம": 5665,
      "காஙகிர": 5666,
      "ஜெரம": 5667,
      "காறற": 5668,
      "டொ": 5669,
      "காலகடட": 5670,
      "மறுநாள": 5671,
      "அரசை": 5672,
      "ஒனறியம": 5673,
      "சாவ": 5674,
      "உருவாககி": 5675,
      "கமிஷன": 5676,
      "தூய": 5677,
      "செயகிறது": 5678,
      "கொளவது": 5679,
      "வெறறியை": 5680,
      "நிரவாகி": 5681,
      "வஙகிகள": 5682,
      "குறறமச": 5683,
      "##ஙகுவ": 5684,
      "செமம": 5685,
      "உடைதது": 5686,
      "ஒனபது": 5687,
      "கடதத": 5688,
      "வழஙகபபட": 5689,
      "சரவ": 5690,
      "பொறியாளர": 5691,
      "வெளிபபட": 5692,
      "திண": 5693,
      "##சகர": 5694,
      "##ுர": 5695,
      "யானைகள": 5696,
      "##ெடடில": 5697,
      "தோனறு": 5698,
      "##ிககொணடிரு": 5699,
      "போராடி": 5700,
      "வளரசச": 5701,
      "பராமரி": 5702,
      "பகுதியாக": 5703,
      "அனறைய": 5704,
      "ஏறறுமதி": 5705,
      "அனைவரையும": 5706,
      "விருதத": 5707,
      "மாநாடடில": 5708,
      "ராமேஸவர": 5709,
      "ஆவ": 5710,
      "வேளை": 5711,
      "பயனபடுததும": 5712,
      "அளிததனர": 5713,
      "சரமைகக": 5714,
      "பெணகளை": 5715,
      "விலக": 5716,
      "மககளும": 5717,
      "ஒருஙகிணைபபாளர": 5718,
      "ரிசர": 5719,
      "குறையும": 5720,
      "அதைப": 5721,
      "கோவிநத": 5722,
      "சூரியன": 5723,
      "அணணன": 5724,
      "ராதாக": 5725,
      "நககம": 5726,
      "பொலிசார": 5727,
      "ஹோடட": 5728,
      "##ெடி": 5729,
      "கோபம": 5730,
      "தெரிவிககினறன": 5731,
      "முயறசியில": 5732,
      "குறைவு": 5733,
      "திறபபு": 5734,
      "வதியில": 5735,
      "##வியின": 5736,
      "புகைபபடம": 5737,
      "குணம": 5738,
      "கைவிட": 5739,
      "##ககடடு": 5740,
      "##ோதா": 5741,
      "அலஙகார": 5742,
      "மூடி": 5743,
      "இதர": 5744,
      "##ததுச": 5745,
      "நரில": 5746,
      "##கோணம": 5747,
      "புதுசசேரியில": 5748,
      "சமூகம": 5749,
      "அநதநத": 5750,
      "செவவாயககிழமை": 5751,
      "##பாள": 5752,
      "எசசரி": 5753,
      "##மையாக": 5754,
      "குறைநதபடச": 5755,
      "உனககு": 5756,
      "யுதத": 5757,
      "##ாதரகள": 5758,
      "ரதியில": 5759,
      "நகரம": 5760,
      "ராஜினாமா": 5761,
      "சினனம": 5762,
      "உதவியாளர": 5763,
      "சபரி": 5764,
      "கூறியது": 5765,
      "##பபேன": 5766,
      "##ானை": 5767,
      "குறைநதது": 5768,
      "கடசித": 5769,
      "காடடிய": 5770,
      "கலநதுரையாட": 5771,
      "செயறகு": 5772,
      "குமபாபி": 5773,
      "##பகல": 5774,
      "முடியுமா": 5775,
      "பிரசசார": 5776,
      "கிடைககவிலலை": 5777,
      "ஹே": 5778,
      "நிலைககு": 5779,
      "##ருள": 5780,
      "நாடடை": 5781,
      "##ிலலாத": 5782,
      "நால": 5783,
      "##சசெயலாளர": 5784,
      "##ராய": 5785,
      "தவிரதது": 5786,
      "பூஙக": 5787,
      "##வஙக": 5788,
      "திருவிழ": 5789,
      "சூழநிலை": 5790,
      "ரணில": 5791,
      "மேடடூர": 5792,
      "விடுகக": 5793,
      "மாதஙகள": 5794,
      "மையததில": 5795,
      "##ினா": 5796,
      "பளளிககு": 5797,
      "மம": 5798,
      "வரதத": 5799,
      "உருவாககிய": 5800,
      "தகராறு": 5801,
      "ஆணடுதோறும": 5802,
      "##சிற": 5803,
      "வெளிவநத": 5804,
      "நிகழசசிகள": 5805,
      "டிக": 5806,
      "படஙகளை": 5807,
      "மாரியமமன": 5808,
      "##ஜித": 5809,
      "கமபயூடடர": 5810,
      "கறற": 5811,
      "வாககுறு": 5812,
      "பாதையில": 5813,
      "##ததுககுப": 5814,
      "##பறறி": 5815,
      "நிப": 5816,
      "##ானி": 5817,
      "##ாலய": 5818,
      "##முறையாக": 5819,
      "நியமனம": 5820,
      "ஓடடிகள": 5821,
      "வசிய": 5822,
      "வெறறிய": 5823,
      "##வாககம": 5824,
      "வெளியானது": 5825,
      "கோய": 5826,
      "நெரிசல": 5827,
      "##செயது": 5828,
      "##ினோம": 5829,
      "##னைப": 5830,
      "ஏதேனும": 5831,
      "இயஙகும": 5832,
      "சேரககை": 5833,
      "##ரிட": 5834,
      "குழநதையை": 5835,
      "மாணவரகளை": 5836,
      "##ெகஸ": 5837,
      "காலபநது": 5838,
      "புதை": 5839,
      "ஸல": 5840,
      "##வைப": 5841,
      "துற": 5842,
      "காலனி": 5843,
      "தாககுதலில": 5844,
      "##வைச": 5845,
      "கணணர": 5846,
      "காணப": 5847,
      "அடிய": 5848,
      "பெணணின": 5849,
      "மனுககள": 5850,
      "பாணடியன": 5851,
      "மெக": 5852,
      "கனனியாகுமரி": 5853,
      "கடைகளில": 5854,
      "கொடூர": 5855,
      "வருகினறது": 5856,
      "செலவா": 5857,
      "##கிறாள": 5858,
      "எப": 5859,
      "##விடடன": 5860,
      "புலனாயவு": 5861,
      "பெறறனர": 5862,
      "தளம": 5863,
      "##பபளளியில": 5864,
      "இராஜ": 5865,
      "பாரத": 5866,
      "குடியே": 5867,
      "ஹெல": 5868,
      "கணணாடி": 5869,
      "தஞசை": 5870,
      "யாருககும": 5871,
      "##ிறகாக": 5872,
      "ஏறறுககொளள": 5873,
      "கலலுார": 5874,
      "தாமத": 5875,
      "சேது": 5876,
      "செயலபடட": 5877,
      "அலி": 5878,
      "சாபபிடு": 5879,
      "##னாக": 5880,
      "விதததில": 5881,
      "வாயககால": 5882,
      "ஏக": 5883,
      "படுதது": 5884,
      "பகுதிககு": 5885,
      "நாயகன": 5886,
      "##சேட": 5887,
      "##ிருபபத": 5888,
      "எனபன": 5889,
      "விடுதி": 5890,
      "பிறநதநாள": 5891,
      "##மபா": 5892,
      "மாணவன": 5893,
      "அளள": 5894,
      "வெவ": 5895,
      "உணரநது": 5896,
      "எத": 5897,
      "##ஷடி": 5898,
      "அவறறில": 5899,
      "பேசினர": 5900,
      "மனனார": 5901,
      "##றறையும": 5902,
      "##லும": 5903,
      "ஸடாணட": 5904,
      "##யாணம": 5905,
      "வலது": 5906,
      "இடையிலான": 5907,
      "உதவியுடன": 5908,
      "கவல": 5909,
      "உததியோக": 5910,
      "ஓம": 5911,
      "ஜோடி": 5912,
      "உறவினர": 5913,
      "ஈரான": 5914,
      "எஙகளை": 5915,
      "##மையும": 5916,
      "முதலவராக": 5917,
      "நுழைவு": 5918,
      "கொடியே": 5919,
      "வெறு": 5920,
      "வரலாறறில": 5921,
      "வெளியுறவு": 5922,
      "ஜமமு": 5923,
      "ஹோம": 5924,
      "எளிதில": 5925,
      "##ககாரர": 5926,
      "தொலலை": 5927,
      "##ிலலியில": 5928,
      "செயறபாடு": 5929,
      "இருசககர": 5930,
      "அகம": 5931,
      "நூறு": 5932,
      "##சாக": 5933,
      "இநநிகழ": 5934,
      "நடபு": 5935,
      "பயனாளிகள": 5936,
      "##நதான": 5937,
      "##வரன": 5938,
      "முடடை": 5939,
      "ஆபதது": 5940,
      "வெறறிகர": 5941,
      "இநதியாவுககு": 5942,
      "சொலவது": 5943,
      "##ருடைய": 5944,
      "சாரபாக": 5945,
      "அறபுத": 5946,
      "அதிரசசிய": 5947,
      "தூரம": 5948,
      "கடறகரை": 5949,
      "##கதை": 5950,
      "காணி": 5951,
      "சாலையோர": 5952,
      "இடததுககு": 5953,
      "பாரககலாம": 5954,
      "##ையோடு": 5955,
      "போடடியிடு": 5956,
      "பேசுகையில": 5957,
      "உளளவரகள": 5958,
      "##ோவில": 5959,
      "பணியாறறிய": 5960,
      "விளையா": 5961,
      "கடடுபபாடடில": 5962,
      "மரகக": 5963,
      "##விரோத": 5964,
      "படஜெட": 5965,
      "கூடடணியில": 5966,
      "##சசாலை": 5967,
      "##மபுல": 5968,
      "பாடம": 5969,
      "பரவி": 5970,
      "அயய": 5971,
      "கோட": 5972,
      "##ககிட": 5973,
      "அரிய": 5974,
      "நிபுண": 5975,
      "##ாசம": 5976,
      "##ழிகக": 5977,
      "முதலாவது": 5978,
      "ரிஷ": 5979,
      "விழி": 5980,
      "கவிழ": 5981,
      "##றறுககு": 5982,
      "கவுனசிலர": 5983,
      "நமமுடைய": 5984,
      "பாடடில": 5985,
      "கருததை": 5986,
      "##படு": 5987,
      "##னமூலம": 5988,
      "##றசி": 5989,
      "தெரிவிததுளள": 5990,
      "அவனது": 5991,
      "பழநி": 5992,
      "புததா": 5993,
      "ஆடடததில": 5994,
      "யெகோ": 5995,
      "குழுககள": 5996,
      "##ஸது": 5997,
      "காசு": 5998,
      "தேமு": 5999,
      "அழிகக": 6000,
      "பெருக": 6001,
      "##பிஎஸ": 6002,
      "அறிவிததார": 6003,
      "##சிஸட": 6004,
      "தடு": 6005,
      "##பலி": 6006,
      "##ககுமபோது": 6007,
      "பராமரிகக": 6008,
      "##திகளின": 6009,
      "முறைகேடு": 6010,
      "ராதாகிருஷணன": 6011,
      "பேரி": 6012,
      "தேமுதிக": 6013,
      "வலம": 6014,
      "மேன": 6015,
      "செயயவிலலை": 6016,
      "வாழவில": 6017,
      "பிரிநது": 6018,
      "கரநாடகா": 6019,
      "நிலததடி": 6020,
      "ராமதாஸ": 6021,
      "##றகே": 6022,
      "பலமுறை": 6023,
      "##களிலிருநது": 6024,
      "நலகிரி": 6025,
      "##னறம": 6026,
      "வரதது": 6027,
      "விஷால": 6028,
      "##கஙகள": 6029,
      "##பபாய": 6030,
      "சமாள": 6031,
      "##துவாக": 6032,
      "பிரான": 6033,
      "##ாநதிய": 6034,
      "##நாதர": 6035,
      "வினர": 6036,
      "##ததியது": 6037,
      "கப": 6038,
      "பவுன": 6039,
      "வாத": 6040,
      "செம": 6041,
      "களததில": 6042,
      "திருமபிய": 6043,
      "திசை": 6044,
      "தொகுதிகளில": 6045,
      "ஆகியோரை": 6046,
      "சனன": 6047,
      "சடல": 6048,
      "##வாகள": 6049,
      "மாறறுததிறன": 6050,
      "கோரிககையை": 6051,
      "இலடச": 6052,
      "ஆரமபிகக": 6053,
      "தளததில": 6054,
      "##சியாக": 6055,
      "நோககில": 6056,
      "கூறுகிறார": 6057,
      "ஏறபடுததியது": 6058,
      "பிரதேசததில": 6059,
      "சரண": 6060,
      "சொற": 6061,
      "மசோதா": 6062,
      "##லைப": 6063,
      "அரசுப": 6064,
      "நிறுவனஙகளின": 6065,
      "பணடிகை": 6066,
      "##மாகத": 6067,
      "##ாவு": 6068,
      "விரோத": 6069,
      "விசேட": 6070,
      "விறபனைககு": 6071,
      "குறைய": 6072,
      "கடையில": 6073,
      "மழையால": 6074,
      "##ரல": 6075,
      "நடபபு": 6076,
      "விவரம": 6077,
      "கருணாநி": 6078,
      "##நரை": 6079,
      "தவிரம": 6080,
      "மொழியில": 6081,
      "##டகள": 6082,
      "##முனை": 6083,
      "விஷண": 6084,
      "தெரியுமா": 6085,
      "##சிஸ": 6086,
      "விரிவு": 6087,
      "##பபடடதாக": 6088,
      "ஆனமிக": 6089,
      "##சகதி": 6090,
      "##பாபு": 6091,
      "வடகிழ": 6092,
      "மேடடு": 6093,
      "முதலிடம": 6094,
      "நிறுவனர": 6095,
      "திருவாரூர": 6096,
      "##பபடடிருநத": 6097,
      "சகல": 6098,
      "கமலஹாசன": 6099,
      "காரணஙகள": 6100,
      "மைததிரி": 6101,
      "பதவிககு": 6102,
      "##குணடு": 6103,
      "ஜார": 6104,
      "ஒபபநதத": 6105,
      "வெளியிடடுளளது": 6106,
      "சிறுததை": 6107,
      "உரையாட": 6108,
      "##றேன": 6109,
      "நிரம": 6110,
      "சனிவாசன": 6111,
      "வயதுககு": 6112,
      "பருவமழை": 6113,
      "முடிதத": 6114,
      "##வெல": 6115,
      "##ிருககிறேன": 6116,
      "இராம": 6117,
      "அறிககையை": 6118,
      "கேரளாவில": 6119,
      "தொடடி": 6120,
      "தெனம": 6121,
      "##தைக": 6122,
      "அநந": 6123,
      "டிககெட": 6124,
      "செஙக": 6125,
      "அவரகளுடைய": 6126,
      "நடட": 6127,
      "##ிசை": 6128,
      "நாளித": 6129,
      "அதிகாரிகளுககு": 6130,
      "##களே": 6131,
      "பேரணி": 6132,
      "##னல": 6133,
      "ஜெனர": 6134,
      "பிரதிநிதி": 6135,
      "##ாயிரம": 6136,
      "குடுமபததில": 6137,
      "கறுபபு": 6138,
      "ஆததிரம": 6139,
      "##சியை": 6140,
      "வாயபபுளளது": 6141,
      "##சிட": 6142,
      "அரும": 6143,
      "##ணணெய": 6144,
      "##ுளளனர": 6145,
      "இழபபு": 6146,
      "அரததம": 6147,
      "##ியைச": 6148,
      "ரிசரவ": 6149,
      "சசன": 6150,
      "##ளிபபு": 6151,
      "அநதச": 6152,
      "இரா": 6153,
      "பவானி": 6154,
      "அறிகக": 6155,
      "எதிரகொளள": 6156,
      "ஏறபடுததிய": 6157,
      "##விளககு": 6158,
      "##ாயின": 6159,
      "பாருஙகள": 6160,
      "கடசியை": 6161,
      "மும": 6162,
      "கையாள": 6163,
      "வேறுபாடு": 6164,
      "##ளா": 6165,
      "அனுபபிய": 6166,
      "தொழிறசஙக": 6167,
      "கருண": 6168,
      "அனுமதிய": 6169,
      "இலவசமாக": 6170,
      "துடுபப": 6171,
      "வசூலிகக": 6172,
      "செயறகுழு": 6173,
      "தெரிவு": 6174,
      "குறிபபிடு": 6175,
      "செலபோன": 6176,
      "உததரவை": 6177,
      "திருசசெ": 6178,
      "புறபபடடு": 6179,
      "முறறுகைய": 6180,
      "ஆஃப": 6181,
      "ஆஸதிரேலிய": 6182,
      "##பபடுவதால": 6183,
      "முழுமையான": 6184,
      "##டசியின": 6185,
      "விதய": 6186,
      "கவிஞர": 6187,
      "தநது": 6188,
      "##தலல": 6189,
      "காரைககு": 6190,
      "நிரமப": 6191,
      "##ஞசா": 6192,
      "ஒடடி": 6193,
      "இனனமும": 6194,
      "##ஸதிர": 6195,
      "##பேஸ": 6196,
      "ஜெக": 6197,
      "##டடுப": 6198,
      "இருவருககும": 6199,
      "சுவி": 6200,
      "##ிநதிய": 6201,
      "##ஹார": 6202,
      "தகவலை": 6203,
      "##ஸை": 6204,
      "மணிக": 6205,
      "பாலாஜி": 6206,
      "நாவ": 6207,
      "எனபதறகு": 6208,
      "சாபபிடட": 6209,
      "சிரிய": 6210,
      "விலகி": 6211,
      "மிகச": 6212,
      "பரிசல": 6213,
      "##ாணம": 6214,
      "##சூ": 6215,
      "வஙகியில": 6216,
      "ஒததிவை": 6217,
      "போதிலும": 6218,
      "##ககமாக": 6219,
      "வரையிலான": 6220,
      "துடி": 6221,
      "இநதியன": 6222,
      "அளிககபபடடது": 6223,
      "##ககொணடார": 6224,
      "பாடு": 6225,
      "பைக": 6226,
      "வாலபா": 6227,
      "##நதனை": 6228,
      "தவறி": 6229,
      "அழக": 6230,
      "ஈடுபடடுளளனர": 6231,
      "##ததையே": 6232,
      "வாடஸ": 6233,
      "##மொழ": 6234,
      "சிகிசசைககாக": 6235,
      "தஙகளை": 6236,
      "##ககன": 6237,
      "மடடககளபபு": 6238,
      "சேகரி": 6239,
      "இபபகுதி": 6240,
      "கணமாய": 6241,
      "##நததில": 6242,
      "##ொழு": 6243,
      "வநதன": 6244,
      "##ளிததார": 6245,
      "குறைபாடு": 6246,
      "பாணட": 6247,
      "##காண": 6248,
      "##ககோள": 6249,
      "ஆபர": 6250,
      "##லையில": 6251,
      "தியான": 6252,
      "பஜ": 6253,
      "##ஷணம": 6254,
      "##பபடம": 6255,
      "இதனபடி": 6256,
      "நாளாக": 6257,
      "வாககுகள": 6258,
      "வலலு": 6259,
      "ரெணடு": 6260,
      "காபப": 6261,
      "செலவது": 6262,
      "நிஜ": 6263,
      "தினசரி": 6264,
      "நடிகரகள": 6265,
      "##போனறு": 6266,
      "மாடடாரகள": 6267,
      "அறககடடளை": 6268,
      "##ுகம": 6269,
      "தோலவிய": 6270,
      "அனுபபு": 6271,
      "ஆடசிககு": 6272,
      "அககறை": 6273,
      "விததியாசமான": 6274,
      "##ளளோம": 6275,
      "வடடாரததில": 6276,
      "##ணணன": 6277,
      "சடடததை": 6278,
      "எனறாள": 6279,
      "இயககிய": 6280,
      "சமாதான": 6281,
      "சிககிய": 6282,
      "யின": 6283,
      "மனாடசி": 6284,
      "படததிறகு": 6285,
      "இலலையா": 6286,
      "மாபெரும": 6287,
      "மாறறிய": 6288,
      "அணியை": 6289,
      "வசன": 6290,
      "விசுவ": 6291,
      "பதின": 6292,
      "பூஜைகள": 6293,
      "ஆபபிரிகக": 6294,
      "பிரமம": 6295,
      "திரையு": 6296,
      "வேகததில": 6297,
      "மாநிலததின": 6298,
      "விஷயஙகள": 6299,
      "தைரிய": 6300,
      "ஓசூர": 6301,
      "இடஙகளை": 6302,
      "திருபபதி": 6303,
      "ஆயுள": 6304,
      "##கோபால": 6305,
      "தெரிவிககபபடடது": 6306,
      "அவுட": 6307,
      "ஜவ": 6308,
      "##ஙகின": 6309,
      "கொழுமப": 6310,
      "##பபுல": 6311,
      "##தராபாத": 6312,
      "சஙகத": 6313,
      "##ஙகுளம": 6314,
      "##ுககுத": 6315,
      "கொடை": 6316,
      "விலலை": 6317,
      "கொளகிறேன": 6318,
      "இதறகிடையே": 6319,
      "செயயவும": 6320,
      "மஙகள": 6321,
      "சடடவிரோத": 6322,
      "நடததினார": 6323,
      "##ிடடார": 6324,
      "வாழவ": 6325,
      "அடிதத": 6326,
      "செயகினறனர": 6327,
      "கிடைககிறது": 6328,
      "அரசியலவாதிகள": 6329,
      "வருடஙகளுககு": 6330,
      "ஜெயர": 6331,
      "கடலோர": 6332,
      "##ியரகள": 6333,
      "##ததுறையில": 6334,
      "திணடி": 6335,
      "##ாலா": 6336,
      "பிரிகக": 6337,
      "நிரூப": 6338,
      "பிறபபு": 6339,
      "ஊரவல": 6340,
      "உளவு": 6341,
      "அறிவுரை": 6342,
      "மனனிபபு": 6343,
      "பழககம": 6344,
      "##ாளையததில": 6345,
      "வாழகக": 6346,
      "##மமன": 6347,
      "ஆபததான": 6348,
      "செனடர": 6349,
      "அபபுறம": 6350,
      "##ழகன": 6351,
      "மேலநிலைபபளளி": 6352,
      "##வாகும": 6353,
      "மதிய": 6354,
      "தாவர": 6355,
      "பவுணட": 6356,
      "குதி": 6357,
      "செலவராஜ": 6358,
      "கததிய": 6359,
      "ஆறறல": 6360,
      "##ெஙகும": 6361,
      "##ாடும": 6362,
      "##வைக": 6363,
      "உயரநது": 6364,
      "##வுக": 6365,
      "எநதவொரு": 6366,
      "கொணடிருநதது": 6367,
      "ரெடடி": 6368,
      "கிராமபபுற": 6369,
      "மறும": 6370,
      "##ககக": 6371,
      "வெவவேறு": 6372,
      "பாபு": 6373,
      "##னியில": 6374,
      "விசாரிககினறனர": 6375,
      "ஆனலைன": 6376,
      "##பபாடடை": 6377,
      "##ககபபடடுளளது": 6378,
      "போனறவறறை": 6379,
      "டெல": 6380,
      "##மோ": 6381,
      "சொறப": 6382,
      "அனனை": 6383,
      "ஆறுதல": 6384,
      "தினமலர": 6385,
      "காரைககால": 6386,
      "ஒததுழைபபு": 6387,
      "சூரயா": 6388,
      "வரவ": 6389,
      "காது": 6390,
      "போடடோ": 6391,
      "அகல": 6392,
      "##மையில": 6393,
      "##ிககான": 6394,
      "இரும": 6395,
      "வாரததில": 6396,
      "##படுதது": 6397,
      "##டிககை": 6398,
      "உளு": 6399,
      "மேறபார": 6400,
      "அரசும": 6401,
      "வெளளம": 6402,
      "ஏலம": 6403,
      "##கின": 6404,
      "##வையாக": 6405,
      "பிராநதிய": 6406,
      "ஊடகஙகள": 6407,
      "##வேர": 6408,
      "கொளளுஙகள": 6409,
      "சுதநதிரம": 6410,
      "##சாரி": 6411,
      "நேரி": 6412,
      "மணடபததில": 6413,
      "வாஙகுவ": 6414,
      "##ிருநதே": 6415,
      "திருததணி": 6416,
      "கணடிபபாக": 6417,
      "அறுவடை": 6418,
      "ஒனறி": 6419,
      "நிலததை": 6420,
      "தரபபை": 6421,
      "வாகனஙகளை": 6422,
      "உதத": 6423,
      "பாலசு": 6424,
      "##பபடடால": 6425,
      "விஸவ": 6426,
      "##வய": 6427,
      "அரசுகள": 6428,
      "##ததிருககிறது": 6429,
      "மிரு": 6430,
      "நெலல": 6431,
      "##ிலலா": 6432,
      "##ாகத": 6433,
      "சிறில": 6434,
      "##ாஜா": 6435,
      "ரூபா": 6436,
      "நிமம": 6437,
      "பிரேம": 6438,
      "இறககுமதி": 6439,
      "சிலி": 6440,
      "விககெடடு": 6441,
      "காஸ": 6442,
      "துள": 6443,
      "அமரநத": 6444,
      "அமரவு": 6445,
      "பணிபு": 6446,
      "பழி": 6447,
      "காலியாக": 6448,
      "கூர": 6449,
      "பொதுசசெயலாளர": 6450,
      "கூறுகினறனர": 6451,
      "சுவாம": 6452,
      "##ிறற": 6453,
      "வநதுளளார": 6454,
      "சூடு": 6455,
      "##ககபபடடன": 6456,
      "ராமசாமி": 6457,
      "##ததுறையின": 6458,
      "சரமை": 6459,
      "ஏனெனறால": 6460,
      "தயாரிககும": 6461,
      "##படியே": 6462,
      "##ோடி": 6463,
      "தாமதம": 6464,
      "துடுபபாடட": 6465,
      "ஆடசியை": 6466,
      "இருபபதாகவும": 6467,
      "புகுநது": 6468,
      "இயலபு": 6469,
      "##ையினால": 6470,
      "பொதுத": 6471,
      "நாயுடு": 6472,
      "##பகான": 6473,
      "சுரஙக": 6474,
      "அணட": 6475,
      "வேளையில": 6476,
      "பாரவையாளரகள": 6477,
      "காக": 6478,
      "##ிககாக": 6479,
      "நாடகம": 6480,
      "விடடால": 6481,
      "எதிரே": 6482,
      "இயேசு": 6483,
      "##றாஙக": 6484,
      "எஙகு": 6485,
      "கிடநத": 6486,
      "நயன": 6487,
      "##தததின": 6488,
      "கடசிககு": 6489,
      "நரி": 6490,
      "##ஙகானா": 6491,
      "திருபபு": 6492,
      "சணமுகம": 6493,
      "வழஙகபபடடு": 6494,
      "ஒனறுககு": 6495,
      "கருததுககள": 6496,
      "இனம": 6497,
      "##வெளியில": 6498,
      "உருவாகி": 6499,
      "இதேவேளை": 6500,
      "உயிரிழநதார": 6501,
      "ஜெயலலிதாவின": 6502,
      "##நரகள": 6503,
      "எனகிறாரகள": 6504,
      "கோடப": 6505,
      "கடடுர": 6506,
      "சசி": 6507,
      "சோக": 6508,
      "உபகர": 6509,
      "டாலர": 6510,
      "வராஙக": 6511,
      "தெனப": 6512,
      "##ாவே": 6513,
      "பாமபு": 6514,
      "விசை": 6515,
      "பிரார": 6516,
      "பெருமபான": 6517,
      "குளம": 6518,
      "பேரின": 6519,
      "##விடடதாக": 6520,
      "விருமபும": 6521,
      "பாமக": 6522,
      "உருவாகும": 6523,
      "கலாசசார": 6524,
      "குடடி": 6525,
      "வவுன": 6526,
      "##னைக": 6527,
      "ஆஸப": 6528,
      "மேறகணட": 6529,
      "##ோா": 6530,
      "போனால": 6531,
      "டிஜ": 6532,
      "ஆரமபததில": 6533,
      "அமைககபபடடுளளது": 6534,
      "##ததனமை": 6535,
      "##சசிகள": 6536,
      "##தேதி": 6537,
      "ரிலஸ": 6538,
      "ஜலலிககடடு": 6539,
      "முதத": 6540,
      "ஆனது": 6541,
      "கச": 6542,
      "ஹார": 6543,
      "##னார": 6544,
      "##ரித": 6545,
      "மனபிடி": 6546,
      "##ிடடல": 6547,
      "நூலக": 6548,
      "##கமப": 6549,
      "##ூம": 6550,
      "ஒருவருககு": 6551,
      "வழிதத": 6552,
      "நிருபரகள": 6553,
      "##சும": 6554,
      "##பபழ": 6555,
      "முறையான": 6556,
      "##ணடில": 6557,
      "##வாசல": 6558,
      "##ளிதது": 6559,
      "##தானம": 6560,
      "மாவடடததின": 6561,
      "அஙகக": 6562,
      "பேராசிரிய": 6563,
      "குடிதது": 6564,
      "மதிபபுளள": 6565,
      "##வாசிகள": 6566,
      "விகன": 6567,
      "விருததாசலம": 6568,
      "சாபபிடடு": 6569,
      "மணடபம": 6570,
      "##சாலையில": 6571,
      "உயிரின": 6572,
      "சமை": 6573,
      "பலியாக": 6574,
      "கடறபடை": 6575,
      "சகோதரி": 6576,
      "வேகம": 6577,
      "கோபப": 6578,
      "செயயாமல": 6579,
      "இவரகளின": 6580,
      "இலஙகைககு": 6581,
      "வேன": 6582,
      "சிதை": 6583,
      "கூடடமைபபின": 6584,
      "நாணய": 6585,
      "நிலையஙகள": 6586,
      "கனமழை": 6587,
      "##ுவர": 6588,
      "##திறகு": 6589,
      "மாடடு": 6590,
      "ஆஸதிரேலியா": 6591,
      "அபபடிய": 6592,
      "மெடரோ": 6593,
      "பூரவ": 6594,
      "எகஸப": 6595,
      "##டடரி": 6596,
      "கொனறு": 6597,
      "##ஞசல": 6598,
      "ஆணடின": 6599,
      "இஸரே": 6600,
      "தலைமுறை": 6601,
      "##ானாலும": 6602,
      "சநதிபபில": 6603,
      "குறறவாளி": 6604,
      "##ததிருககும": 6605,
      "செக": 6606,
      "எலுமபு": 6607,
      "சுபரமணிய": 6608,
      "##பபதாகவும": 6609,
      "விமரசனம": 6610,
      "சுப": 6611,
      "அடர": 6612,
      "சிலைகள": 6613,
      "##மின": 6614,
      "##ததாரகள": 6615,
      "அமைபபை": 6616,
      "இடமா": 6617,
      "நியமன": 6618,
      "ஏறபாடுகள": 6619,
      "##ையூர": 6620,
      "விஷயததில": 6621,
      "அஞசல": 6622,
      "ஐபி": 6623,
      "ஞாப": 6624,
      "##ரியா": 6625,
      "துனப": 6626,
      "கொலக": 6627,
      "கேளவிககு": 6628,
      "##ககபபடடார": 6629,
      "திரையர": 6630,
      "##ிருநதும": 6631,
      "விதமான": 6632,
      "##றச": 6633,
      "லணடன": 6634,
      "##னிய": 6635,
      "##வட": 6636,
      "தொகுபபு": 6637,
      "அவி": 6638,
      "கூகுள": 6639,
      "##மானார": 6640,
      "கடடததில": 6641,
      "பசுமை": 6642,
      "மாலையில": 6643,
      "தலைமறை": 6644,
      "இவரகளில": 6645,
      "கதைகள": 6646,
      "நுழ": 6647,
      "ராணி": 6648,
      "நடுதத": 6649,
      "விசாரணையை": 6650,
      "ஏமாறற": 6651,
      "சணமுக": 6652,
      "##சமயம": 6653,
      "##பபாணம": 6654,
      "செலகிறது": 6655,
      "அனறாட": 6656,
      "குதிரை": 6657,
      "கணினி": 6658,
      "கழிபபறை": 6659,
      "##யிலை": 6660,
      "வழககமாக": 6661,
      "வாயபபை": 6662,
      "##ததமிழ": 6663,
      "முறையை": 6664,
      "நுகரவோர": 6665,
      "##பபாள": 6666,
      "வழஙகினர": 6667,
      "##ககுழ": 6668,
      "ரூபாயை": 6669,
      "தொகுதிகள": 6670,
      "சடடததில": 6671,
      "வருமபோது": 6672,
      "உதவு": 6673,
      "வெளியாகும": 6674,
      "பழகக": 6675,
      "வேதனை": 6676,
      "##தரன": 6677,
      "தொழு": 6678,
      "பிறபகல": 6679,
      "நிலததில": 6680,
      "பரவிய": 6681,
      "ஜா": 6682,
      "மாததிரம": 6683,
      "கதத": 6684,
      "ஊரவலம": 6685,
      "எதிரபாரபபு": 6686,
      "மாடடேன": 6687,
      "யாழபபாணம": 6688,
      "சோர": 6689,
      "##ஸப": 6690,
      "##திப": 6691,
      "##ேயான": 6692,
      "அததகைய": 6693,
      "முடட": 6694,
      "அரவிநத": 6695,
      "##விடடேன": 6696,
      "நிலுவ": 6697,
      "கடடபபடட": 6698,
      "நடனம": 6699,
      "தடைய": 6700,
      "##நதோறும": 6701,
      "இககோயில": 6702,
      "பணிகளில": 6703,
      "பணியாளர": 6704,
      "புததகஙகள": 6705,
      "மாறறஙகள": 6706,
      "சிறுபான": 6707,
      "##ேஸவரன": 6708,
      "பெஙகளூர": 6709,
      "##ததவரகள": 6710,
      "தேஙகி": 6711,
      "##ஙகிக": 6712,
      "இளமபெ": 6713,
      "நிலையஙகளில": 6714,
      "அழகிய": 6715,
      "##வரர": 6716,
      "சதவ": 6717,
      "இருபபு": 6718,
      "இரதத": 6719,
      "ராஜபகச": 6720,
      "##வதோடு": 6721,
      "ஒடடு": 6722,
      "##ாபுரம": 6723,
      "##ாடா": 6724,
      "##ிககிறது": 6725,
      "இடைககால": 6726,
      "##சசதது": 6727,
      "பொதுமககளுககு": 6728,
      "##ரிங": 6729,
      "இணைநத": 6730,
      "கேடகும": 6731,
      "##குதியை": 6732,
      "மூளை": 6733,
      "விலஙகு": 6734,
      "வாகனஙகளில": 6735,
      "பெயத": 6736,
      "பிரசாத": 6737,
      "கொலலபபடட": 6738,
      "பாப": 6739,
      "##முறையை": 6740,
      "##ுதவி": 6741,
      "குடியரசுத": 6742,
      "வணட": 6743,
      "##வரையில": 6744,
      "##பபறறி": 6745,
      "நெஞச": 6746,
      "##டுமா": 6747,
      "மாறிய": 6748,
      "கோயமப": 6749,
      "அதத": 6750,
      "வநதாலும": 6751,
      "உதாரணமாக": 6752,
      "##ணணி": 6753,
      "பாச": 6754,
      "அழைகக": 6755,
      "எஙகும": 6756,
      "கவனிதது": 6757,
      "வளாகம": 6758,
      "ஒலிமப": 6759,
      "##பபொ": 6760,
      "செடி": 6761,
      "மேடை": 6762,
      "பயம": 6763,
      "ரோநது": 6764,
      "வினா": 6765,
      "பரபபு": 6766,
      "ரயிலில": 6767,
      "##லைக": 6768,
      "##கரோ": 6769,
      "யாராவது": 6770,
      "பயஙகரவாத": 6771,
      "பாகு": 6772,
      "தமிழழ": 6773,
      "எலலையில": 6774,
      "இருவரையும": 6775,
      "கலாசார": 6776,
      "கய": 6777,
      "##திகார": 6778,
      "இருககிறேன": 6779,
      "அவரும": 6780,
      "அதுவே": 6781,
      "நிகழவுகள": 6782,
      "விவசாயிகளின": 6783,
      "சததியம": 6784,
      "##ியைப": 6785,
      "பெல": 6786,
      "தபார": 6787,
      "முடிவ": 6788,
      "எடுககபபடட": 6789,
      "குழநதைகளின": 6790,
      "##ிரத": 6791,
      "வலைததள": 6792,
      "##ாதத": 6793,
      "##வகையில": 6794,
      "##பாணடிய": 6795,
      "தலைமைச": 6796,
      "வருவதாகவும": 6797,
      "சொலலிக": 6798,
      "அழகான": 6799,
      "ஆஙகா": 6800,
      "##நொ": 6801,
      "பதிவே": 6802,
      "சடடசப": 6803,
      "பணணை": 6804,
      "வனததுறை": 6805,
      "சநதரபப": 6806,
      "ஒல": 6807,
      "முகததில": 6808,
      "எனனைப": 6809,
      "பணியாறற": 6810,
      "குறறவாளிகள": 6811,
      "லஞசம": 6812,
      "குறுகிய": 6813,
      "##ஜரி": 6814,
      "அவகாசம": 6815,
      "நெறி": 6816,
      "##மமாள": 6817,
      "உணரநத": 6818,
      "இடததிலேயே": 6819,
      "##லிஙக": 6820,
      "##ாருககும": 6821,
      "மடஙகு": 6822,
      "காகக": 6823,
      "துபபுர": 6824,
      "கிரிகக": 6825,
      "ஒழி": 6826,
      "##ூடட": 6827,
      "செயயபபடடுளள": 6828,
      "##ேயும": 6829,
      "நிறுததம": 6830,
      "முமபையில": 6831,
      "##வையை": 6832,
      "விலைககு": 6833,
      "##ஸவரன": 6834,
      "சொர": 6835,
      "அரியல": 6836,
      "தோனி": 6837,
      "டிரமப": 6838,
      "சூழநிலையில": 6839,
      "தொடட": 6840,
      "கிராமததை": 6841,
      "நிறுவனஙகளில": 6842,
      "முயறசிகள": 6843,
      "##ததுககுளள": 6844,
      "விததியாசததில": 6845,
      "உதிர": 6846,
      "போகிறது": 6847,
      "சோனியா": 6848,
      "உணவுப": 6849,
      "உணடாகும": 6850,
      "பயஙகரவாதிகள": 6851,
      "ஆவணஙகள": 6852,
      "##ியையும": 6853,
      "##குரு": 6854,
      "##ரிககபபடட": 6855,
      "ஊறறி": 6856,
      "திஙகளகிழமை": 6857,
      "ஒருவேளை": 6858,
      "சரஸ": 6859,
      "அதுதான": 6860,
      "சபையின": 6861,
      "மொழிபெயர": 6862,
      "ஆமபுல": 6863,
      "மதிகக": 6864,
      "##வையின": 6865,
      "கொடுமை": 6866,
      "கணபதி": 6867,
      "தொடஙகும": 6868,
      "இணைதது": 6869,
      "மாடல": 6870,
      "விடாமல": 6871,
      "விருமபுவ": 6872,
      "வஙகியின": 6873,
      "அதும": 6874,
      "ஆணடும": 6875,
      "மெனப": 6876,
      "எகஸபிரஸ": 6877,
      "வழிமுறை": 6878,
      "அநநாடடு": 6879,
      "விவாதிகக": 6880,
      "எனககும": 6881,
      "மேயர": 6882,
      "வரவழை": 6883,
      "அடிமை": 6884,
      "நாயக": 6885,
      "அபபோ": 6886,
      "கருபப": 6887,
      "வநதபோது": 6888,
      "சாலையை": 6889,
      "வேலையை": 6890,
      "##சசிற": 6891,
      "##போதே": 6892,
      "புகாரகள": 6893,
      "மாரகசிஸட": 6894,
      "ஊடகவியல": 6895,
      "பிரசசினைகள": 6896,
      "பெறலாம": 6897,
      "##ககிங": 6898,
      "போலசாருககு": 6899,
      "##ாமணி": 6900,
      "##நததாகவும": 6901,
      "##கிருஷண": 6902,
      "##ரஸ": 6903,
      "அடைநதனர": 6904,
      "குறறமசாடட": 6905,
      "மூசசு": 6906,
      "##தஙகள": 6907,
      "சிஙகபபூர": 6908,
      "கருததுககளை": 6909,
      "பிரியா": 6910,
      "குடியுரிமை": 6911,
      "சரமா": 6912,
      "பலாதகாரம": 6913,
      "வாஙகும": 6914,
      "வேலையில": 6915,
      "##சமாக": 6916,
      "மூடடை": 6917,
      "##சசாவடி": 6918,
      "நடராஜன": 6919,
      "அணையில": 6920,
      "பறககும": 6921,
      "ஏல": 6922,
      "வநதுளள": 6923,
      "உறை": 6924,
      "குறிபபு": 6925,
      "செனனைககு": 6926,
      "ஆககிரமி": 6927,
      "மரககனறு": 6928,
      "##ருககான": 6929,
      "வசூலி": 6930,
      "ஒய": 6931,
      "ஜாக": 6932,
      "பறறாககுறை": 6933,
      "ஆபகான": 6934,
      "நாளுககு": 6935,
      "முரளி": 6936,
      "ஆறறு": 6937,
      "வினியோகம": 6938,
      "விணவெளி": 6939,
      "புரோ": 6940,
      "அரணம": 6941,
      "மேறபடி": 6942,
      "மனறம": 6943,
      "நடைப": 6944,
      "வயிறறு": 6945,
      "கிடைததுளளது": 6946,
      "தடுககும": 6947,
      "முகவரி": 6948,
      "தாககம": 6949,
      "வடிவில": 6950,
      "அடுததடுதது": 6951,
      "##ககாலததில": 6952,
      "பிரிததானிய": 6953,
      "அறிவிததது": 6954,
      "ராமேஸவரம": 6955,
      "ராஜேஷ": 6956,
      "சொலலு": 6957,
      "##ாவைச": 6958,
      "பயனபாடு": 6959,
      "##ககுறை": 6960,
      "நகரின": 6961,
      "##நாயகம": 6962,
      "கேளவிகள": 6963,
      "முதியோர": 6964,
      "##ானார": 6965,
      "அதோடு": 6966,
      "தலைவரும": 6967,
      "இஙகிலாநத": 6968,
      "செயலாளரகள": 6969,
      "செஙகலபடடு": 6970,
      "மைததிரிபால": 6971,
      "மறகக": 6972,
      "பஞ": 6973,
      "##பபினை": 6974,
      "வினியோக": 6975,
      "##லைட": 6976,
      "சாடசி": 6977,
      "அரசிடம": 6978,
      "பெயரகள": 6979,
      "மிளகாய": 6980,
      "குதது": 6981,
      "தானிய": 6982,
      "விலையை": 6983,
      "இரணடும": 6984,
      "மையஙகள": 6985,
      "வாழவு": 6986,
      "துபபுரவு": 6987,
      "இருககிறோம": 6988,
      "கதையை": 6989,
      "முனனேறறம": 6990,
      "மறியலில": 6991,
      "இததால": 6992,
      "##களுககுப": 6993,
      "எநதப": 6994,
      "சிறுவரகள": 6995,
      "வரவு": 6996,
      "ஆயவாளரகள": 6997,
      "பகவான": 6998,
      "வாழவாதார": 6999,
      "சாப": 7000,
      "##ாவி": 7001,
      "தெனனை": 7002,
      "##ோககு": 7003,
      "மாட": 7004,
      "பகுதிகளை": 7005,
      "அதிரசசியை": 7006,
      "பெறறோரகள": 7007,
      "##பபாடடு": 7008,
      "புரு": 7009,
      "வருதத": 7010,
      "##ததொடரநது": 7011,
      "தகுநத": 7012,
      "பதிய": 7013,
      "சிததிர": 7014,
      "மககளவைத": 7015,
      "சாததியம": 7016,
      "பரிதாபமாக": 7017,
      "அஙககாரம": 7018,
      "##கடசி": 7019,
      "##ிருநதாலும": 7020,
      "கடடமைபபு": 7021,
      "##முடியாது": 7022,
      "பிரபாகரன": 7023,
      "கேடடால": 7024,
      "பலகலைககழகததில": 7025,
      "நிமிடம": 7026,
      "தவு": 7027,
      "கொளளவும": 7028,
      "படசததில": 7029,
      "வெறறிகரமாக": 7030,
      "அரஙகில": 7031,
      "மரப": 7032,
      "பாதிககும": 7033,
      "மொழிகளில": 7034,
      "##ேயர": 7035,
      "இருள": 7036,
      "##கினறார": 7037,
      "பகதரகளுககு": 7038,
      "நலததிடட": 7039,
      "தனிததன": 7040,
      "நயனதார": 7041,
      "சிவபபு": 7042,
      "போடடியிடும": 7043,
      "##நெ": 7044,
      "விழாவை": 7045,
      "சதி": 7046,
      "கிரக": 7047,
      "விவரஙகளை": 7048,
      "காட": 7049,
      "கோவிலுககு": 7050,
      "விவரஙகள": 7051,
      "ஓவரில": 7052,
      "தொடரநத": 7053,
      "ஆயு": 7054,
      "வேடபாளராக": 7055,
      "வருடஙகள": 7056,
      "இதனபோது": 7057,
      "நடன": 7058,
      "பாரிய": 7059,
      "ராஜவ": 7060,
      "டிஜிடடல": 7061,
      "##ிககு": 7062,
      "ஸக": 7063,
      "கூடி": 7064,
      "##ாதர": 7065,
      "##ககொணடே": 7066,
      "யாதவ": 7067,
      "கசச": 7068,
      "படததுககு": 7069,
      "நாகை": 7070,
      "காயல": 7071,
      "தடவை": 7072,
      "வெறி": 7073,
      "எபபடிய": 7074,
      "காமராஜர": 7075,
      "சதத": 7076,
      "புவன": 7077,
      "கோடியே": 7078,
      "வழஙகபபடடன": 7079,
      "தவறாக": 7080,
      "##நபர": 7081,
      "##ிறார": 7082,
      "##ததவு": 7083,
      "தொணடு": 7084,
      "எழுநதது": 7085,
      "நரமடடம": 7086,
      "குடிகக": 7087,
      "விளையாடு": 7088,
      "களளககுறிசசி": 7089,
      "கடு": 7090,
      "சுவார": 7091,
      "விஷணு": 7092,
      "தொல": 7093,
      "முதலாம": 7094,
      "தளர": 7095,
      "நிகர": 7096,
      "நளளிரவு": 7097,
      "சொலலலாம": 7098,
      "உலா": 7099,
      "கடடமாக": 7100,
      "##பபிள": 7101,
      "இழுதது": 7102,
      "பிலலியன": 7103,
      "##வெடடு": 7104,
      "எடுககவிலலை": 7105,
      "லோ": 7106,
      "இனிமேல": 7107,
      "அதிகாரிகளிடம": 7108,
      "மெர": 7109,
      "வருகிறேன": 7110,
      "பொறும": 7111,
      "உடறப": 7112,
      "சமரபபிகக": 7113,
      "அதிருப": 7114,
      "ஒப": 7115,
      "வடிகால": 7116,
      "வேதன": 7117,
      "வியாபாரம": 7118,
      "நெடுஞசாலையில": 7119,
      "##ஹர": 7120,
      "பிரெ": 7121,
      "இனனிங": 7122,
      "லாரிகள": 7123,
      "##யே": 7124,
      "காடு": 7125,
      "##முன": 7126,
      "அவுஸ": 7127,
      "##ததிருநதது": 7128,
      "இடஙகளிலும": 7129,
      "டிராக": 7130,
      "சனாவின": 7131,
      "நிவாரணம": 7132,
      "##ேஜ": 7133,
      "துயர": 7134,
      "அமபேத": 7135,
      "தெளிவு": 7136,
      "தேய": 7137,
      "கேடடபோது": 7138,
      "ஆததூர": 7139,
      "முனி": 7140,
      "நிலவும": 7141,
      "போனறவ": 7142,
      "கிளிநொ": 7143,
      "##வொனற": 7144,
      "பாடட": 7145,
      "நிகழவில": 7146,
      "சௌ": 7147,
      "அமைதியாக": 7148,
      "ஓயவூதிய": 7149,
      "திணடிவனம": 7150,
      "##சிஐ": 7151,
      "இருபபாரகள": 7152,
      "மணிகணடன": 7153,
      "##தொரு": 7154,
      "போகக": 7155,
      "சுததிக": 7156,
      "##தைத": 7157,
      "நாளைககு": 7158,
      "சாநதி": 7159,
      "வகைகள": 7160,
      "ஓடடி": 7161,
      "##வததை": 7162,
      "வகிதத": 7163,
      "மணணில": 7164,
      "அரசச": 7165,
      "நலலா": 7166,
      "படைபபு": 7167,
      "வாரதத": 7168,
      "ஆரவலரகள": 7169,
      "##திற": 7170,
      "##னட": 7171,
      "##ததியில": 7172,
      "##மேடு": 7173,
      "நியூசில": 7174,
      "நிறுதது": 7175,
      "பிரேத": 7176,
      "##ாணி": 7177,
      "மகிழசச": 7178,
      "##வசம": 7179,
      "இசசமப": 7180,
      "லஞச": 7181,
      "##பபொரு": 7182,
      "##தததுககு": 7183,
      "துவஙகிய": 7184,
      "ஊடாக": 7185,
      "ஜாதி": 7186,
      "குதத": 7187,
      "தோள": 7188,
      "காணலாம": 7189,
      "வெடடு": 7190,
      "படும": 7191,
      "நெகிழ": 7192,
      "ஓடிய": 7193,
      "ரகு": 7194,
      "சுன": 7195,
      "நடவடிககையும": 7196,
      "பினனணி": 7197,
      "##வேலு": 7198,
      "தமிழநாடடின": 7199,
      "கரபபி": 7200,
      "##வருடன": 7201,
      "நேறறைய": 7202,
      "அவஙக": 7203,
      "##விடடாலும": 7204,
      "பிகபாஸ": 7205,
      "ஆடிய": 7206,
      "சந": 7207,
      "லேச": 7208,
      "ஒருபோதும": 7209,
      "நகரஙகளில": 7210,
      "தஙகளுடைய": 7211,
      "வைககபபடடது": 7212,
      "வேணடியுளளது": 7213,
      "##ருகக": 7214,
      "##டைநதார": 7215,
      "காபபு": 7216,
      "நானக": 7217,
      "கொடுததனர": 7218,
      "சனாவில": 7219,
      "அலஙகாரம": 7220,
      "##ேயுளள": 7221,
      "பகுதிகளுககு": 7222,
      "##ளவுககு": 7223,
      "நிறைவேறறு": 7224,
      "##நார": 7225,
      "பனறி": 7226,
      "##தியினர": 7227,
      "உயிரிழநது": 7228,
      "சுறறியுளள": 7229,
      "ஆஙகாஙகே": 7230,
      "நககி": 7231,
      "செயவத": 7232,
      "இதைப": 7233,
      "நெருஙகிய": 7234,
      "##ாகள": 7235,
      "இநதிர": 7236,
      "##ஙகுடி": 7237,
      "##பபவர": 7238,
      "அவரகளில": 7239,
      "மருநத": 7240,
      "குறைதது": 7241,
      "##வாரம": 7242,
      "##ததிட": 7243,
      "முககியமாக": 7244,
      "காரைககுடி": 7245,
      "எய": 7246,
      "பகார": 7247,
      "பிரசசாரம": 7248,
      "நிமிடஙகள": 7249,
      "டுவிடடர": 7250,
      "இவவாறான": 7251,
      "வளரநத": 7252,
      "செப": 7253,
      "பெருநத": 7254,
      "இணையதளததில": 7255,
      "##ததறி": 7256,
      "##னனுார": 7257,
      "ஆறுமுகம": 7258,
      "ஜெயககுமார": 7259,
      "விளையாடி": 7260,
      "ஐகோரட": 7261,
      "காலகடடததில": 7262,
      "இதுபறறி": 7263,
      "இலலா": 7264,
      "விணணபபஙகள": 7265,
      "மினவார": 7266,
      "ஸம": 7267,
      "இதோ": 7268,
      "கிரே": 7269,
      "அசோ": 7270,
      "தொலல": 7271,
      "வெடிகுணடு": 7272,
      "##தளம": 7273,
      "வுககு": 7274,
      "##ாடடின": 7275,
      "வைககபபடடுளளது": 7276,
      "அவறற": 7277,
      "பைககில": 7278,
      "உளளோம": 7279,
      "அதிருபதி": 7280,
      "##ககமும": 7281,
      "சொலகிறார": 7282,
      "இணையததில": 7283,
      "கொணடுளள": 7284,
      "உருவாககும": 7285,
      "தொழிலாளி": 7286,
      "பலகலைககழகம": 7287,
      "முனவர": 7288,
      "##ககபபடடனர": 7289,
      "அசசுறுததல": 7290,
      "புனன": 7291,
      "##ியைக": 7292,
      "போடடியிடட": 7293,
      "புததி": 7294,
      "அதைக": 7295,
      "அபார": 7296,
      "அரதத": 7297,
      "செயயபபடடன": 7298,
      "##ததுளளன": 7299,
      "வாயிலாக": 7300,
      "வசசு": 7301,
      "கடடளை": 7302,
      "##சய": 7303,
      "கலவர": 7304,
      "எழுமப": 7305,
      "குழநதையின": 7306,
      "உலகள": 7307,
      "##ாமப": 7308,
      "வறடசி": 7309,
      "கொடடி": 7310,
      "பாதிககபபடடு": 7311,
      "விமானததில": 7312,
      "சகோதரர": 7313,
      "காததிருநத": 7314,
      "##வாஸ": 7315,
      "கணகள": 7316,
      "வசதிகளை": 7317,
      "##மமை": 7318,
      "செயகிறார": 7319,
      "உடனப": 7320,
      "##ொருவர": 7321,
      "காசி": 7322,
      "மேய": 7323,
      "மதிபபிலான": 7324,
      "பவன": 7325,
      "##விற": 7326,
      "பாடிய": 7327,
      "இதனைத": 7328,
      "இப": 7329,
      "##ெடடி": 7330,
      "##விடுகிறது": 7331,
      "##ெஸ": 7332,
      "இயஙக": 7333,
      "செனறபோது": 7334,
      "நடுததர": 7335,
      "வெளியிடு": 7336,
      "உதவிகள": 7337,
      "##பபோன": 7338,
      "அதிகபடசமாக": 7339,
      "##ாளரை": 7340,
      "தடடுபபாடு": 7341,
      "காடடிலும": 7342,
      "நாகரகோவில": 7343,
      "இபபடததின": 7344,
      "##ாடடிறகு": 7345,
      "காணும": 7346,
      "சொனனால": 7347,
      "வரவேறக": 7348,
      "##விதமான": 7349,
      "அதுமடடும": 7350,
      "வாஙகு": 7351,
      "கலயாணம": 7352,
      "பிரசனைகள": 7353,
      "##விகள": 7354,
      "##டுககி": 7355,
      "குழபபம": 7356,
      "நினைககிறேன": 7357,
      "மனைவியை": 7358,
      "பரவலாக": 7359,
      "தததுவ": 7360,
      "##ரகளா": 7361,
      "எததன": 7362,
      "வழியே": 7363,
      "கடசிகளின": 7364,
      "சிறுகதை": 7365,
      "விரைவாக": 7366,
      "கலநதுகொணடு": 7367,
      "எணணிககையில": 7368,
      "செயயப": 7369,
      "பரத": 7370,
      "##ூசி": 7371,
      "நிறுவனஙகளுககு": 7372,
      "விடுவிகக": 7373,
      "அவா": 7374,
      "பாடடு": 7375,
      "இருநதபோது": 7376,
      "முதறக": 7377,
      "##ககோரி": 7378,
      "வழஙகல": 7379,
      "உருவாககபபடட": 7380,
      "வனததுறையினர": 7381,
      "##ெனறும": 7382,
      "##றாக": 7383,
      "##ஷர": 7384,
      "சுஙக": 7385,
      "பாதுகாபபாக": 7386,
      "அரசாஙகததின": 7387,
      "ஒருஙகிணைநத": 7388,
      "சேமிபபு": 7389,
      "##ூபி": 7390,
      "##ியுளளதாக": 7391,
      "##ாதேவி": 7392,
      "சிவில": 7393,
      "பௌதத": 7394,
      "வெளிபபடையாக": 7395,
      "ஊதியம": 7396,
      "எலக": 7397,
      "##ஙகளா": 7398,
      "ஆணடி": 7399,
      "எவரும": 7400,
      "பஙகேறப": 7401,
      "ஊடு": 7402,
      "பாடி": 7403,
      "பணியாறறும": 7404,
      "##வுளளதாக": 7405,
      "கமிடடி": 7406,
      "கோயிலுககு": 7407,
      "##திகளை": 7408,
      "##புல": 7409,
      "தெரிவிககினறனர": 7410,
      "##னமையான": 7411,
      "போடடியின": 7412,
      "இளமபெண": 7413,
      "ஸரல": 7414,
      "செலுததிய": 7415,
      "மூத": 7416,
      "மடடுமதான": 7417,
      "தயாரிதத": 7418,
      "சொனனது": 7419,
      "வழககமான": 7420,
      "சோதனையில": 7421,
      "இடு": 7422,
      "கடறபடைய": 7423,
      "பொதுவான": 7424,
      "தமிழரகளின": 7425,
      "கிங": 7426,
      "##ைகளும": 7427,
      "##தேவி": 7428,
      "ஸப": 7429,
      "சரதிரு": 7430,
      "வைததுளள": 7431,
      "தோனறும": 7432,
      "உஙகளின": 7433,
      "இளஙகோவன": 7434,
      "நிபநதனை": 7435,
      "##விடலாம": 7436,
      "##ானு": 7437,
      "இருநதே": 7438,
      "பிறபபிகக": 7439,
      "##கமான": 7440,
      "மாதா": 7441,
      "இநதியரகள": 7442,
      "சமபா": 7443,
      "##ரியில": 7444,
      "##மாநில": 7445,
      "எனககுத": 7446,
      "##லாப": 7447,
      "##ையாய": 7448,
      "இயநதிரம": 7449,
      "சமாஜ": 7450,
      "எலலாமே": 7451,
      "ஃபர": 7452,
      "##ெண": 7453,
      "அறிவிதது": 7454,
      "##டைநதுளளனர": 7455,
      "சிலருககு": 7456,
      "கருதத": 7457,
      "அமைசசராக": 7458,
      "சிறுவர": 7459,
      "##ாவடட": 7460,
      "செயதல": 7461,
      "##தாரி": 7462,
      "டெனன": 7463,
      "அனபும": 7464,
      "விவாதம": 7465,
      "அமைசசு": 7466,
      "##ஸின": 7467,
      "ஸவ": 7468,
      "காரணததால": 7469,
      "சகக": 7470,
      "நகரை": 7471,
      "கனட": 7472,
      "வடகிழககு": 7473,
      "மறைமுக": 7474,
      "புனர": 7475,
      "கிம": 7476,
      "செனறுளளார": 7477,
      "##ினபோது": 7478,
      "அதனாலதான": 7479,
      "அபிஷேக": 7480,
      "##ேறகு": 7481,
      "##சபை": 7482,
      "தணணரில": 7483,
      "பிரபலமான": 7484,
      "டய": 7485,
      "புணண": 7486,
      "புறநகர": 7487,
      "முதலடட": 7488,
      "கூறியுளளது": 7489,
      "ராணுவம": 7490,
      "ரததம": 7491,
      "##டததில": 7492,
      "செவில": 7493,
      "கூடு": 7494,
      "எடுததுகக": 7495,
      "மௌ": 7496,
      "அமைககபபடடு": 7497,
      "ஆலோசகர": 7498,
      "செஞசி": 7499,
      "விதிதது": 7500,
      "##ரிரு": 7501,
      "வராமல": 7502,
      "வருததம": 7503,
      "பெறறுளள": 7504,
      "தரிசி": 7505,
      "அமைநதது": 7506,
      "முயல": 7507,
      "ஆலோசி": 7508,
      "மரஙகளை": 7509,
      "வாககும": 7510,
      "சதவி": 7511,
      "அறநிலைய": 7512,
      "கருதபபடுகிறது": 7513,
      "நடததபபடடு": 7514,
      "பயனபடுததிய": 7515,
      "விரிவான": 7516,
      "விராட": 7517,
      "உயரநதுளளது": 7518,
      "அறிவிததுளளார": 7519,
      "இழபபடு": 7520,
      "முதலிய": 7521,
      "வைததது": 7522,
      "டாப": 7523,
      "##ாங": 7524,
      "##விடடாரகள": 7525,
      "மனுதார": 7526,
      "ஆபாச": 7527,
      "மேறகொணடனர": 7528,
      "திரையுலக": 7529,
      "##வாச": 7530,
      "தடடி": 7531,
      "துரநா": 7532,
      "தியேடடர": 7533,
      "ஸகூ": 7534,
      "##ாககும": 7535,
      "போரில": 7536,
      "பலகலைக": 7537,
      "##னையும": 7538,
      "செயததாக": 7539,
      "வைததுளளனர": 7540,
      "ரஞசி": 7541,
      "எழுததாளரகள": 7542,
      "பசி": 7543,
      "அசோக": 7544,
      "படிபபடியாக": 7545,
      "மறுபடியும": 7546,
      "மையஙகளில": 7547,
      "பணிபுரியும": 7548,
      "ஐஸவர": 7549,
      "##நலம": 7550,
      "இதனமூலம": 7551,
      "நிலவர": 7552,
      "புகழபெறற": 7553,
      "சரஸவதி": 7554,
      "##ாககிய": 7555,
      "சமபாதி": 7556,
      "மாரககெட": 7557,
      "ஜெனரல": 7558,
      "விவாத": 7559,
      "நாளான": 7560,
      "##மாகச": 7561,
      "ரயிலகள": 7562,
      "நடநதன": 7563,
      "அரேப": 7564,
      "##பபடலாம": 7565,
      "துரித": 7566,
      "அதுபோல": 7567,
      "##ககுபபம": 7568,
      "இவரகளை": 7569,
      "##கததை": 7570,
      "தரமானஙகள": 7571,
      "##ிருபபதாவது": 7572,
      "##ரதது": 7573,
      "##ஜை": 7574,
      "துார": 7575,
      "##தராஜ": 7576,
      "வகையிலும": 7577,
      "அணியும": 7578,
      "இருககினறது": 7579,
      "##மாய": 7580,
      "##ுவதறகு": 7581,
      "சேரமன": 7582,
      "இவவழ": 7583,
      "##டைநதனர": 7584,
      "நபி": 7585,
      "வசநத": 7586,
      "எஙகளது": 7587,
      "அறிவுறுதத": 7588,
      "சேவைகள": 7589,
      "புழு": 7590,
      "அவளுககு": 7591,
      "செயதிருநதனர": 7592,
      "ஆயவில": 7593,
      "கலவிததுறை": 7594,
      "##ையிட": 7595,
      "ஆசிரியை": 7596,
      "கமபென": 7597,
      "மனனன": 7598,
      "கலநதுகொணடனர": 7599,
      "கனடா": 7600,
      "இனறைககு": 7601,
      "##டஙகு": 7602,
      "##ாருஙகள": 7603,
      "விழும": 7604,
      "##நதல": 7605,
      "மேலதிக": 7606,
      "தலித": 7607,
      "கசி": 7608,
      "காரகள": 7609,
      "விடுகிறது": 7610,
      "சாலைகள": 7611,
      "வாககெ": 7612,
      "ஈடுபடுதத": 7613,
      "வெனறது": 7614,
      "##றறது": 7615,
      "ஆகியோரின": 7616,
      "##றையும": 7617,
      "##மபூர": 7618,
      "இபபொழுது": 7619,
      "தோறக": 7620,
      "மதிபபடு": 7621,
      "கமபம": 7622,
      "தோறறு": 7623,
      "எஸட": 7624,
      "கறபனை": 7625,
      "ஃபேஸ": 7626,
      "##ோடடம": 7627,
      "##மபோல": 7628,
      "கிராமததைச": 7629,
      "பெயய": 7630,
      "ரோஹ": 7631,
      "கணகாணிபபாளர": 7632,
      "##பபநது": 7633,
      "போற": 7634,
      "திருததம": 7635,
      "விறறு": 7636,
      "வாலபாறை": 7637,
      "##ாயிர": 7638,
      "##டசை": 7639,
      "முனபதி": 7640,
      "பஙகளிபபு": 7641,
      "மரும": 7642,
      "##ணததை": 7643,
      "திருடி": 7644,
      "தேவைபபடும": 7645,
      "பகுதிகளிலும": 7646,
      "ஆடடமிழ": 7647,
      "உயரததி": 7648,
      "##ஷய": 7649,
      "திருககோவில": 7650,
      "துறைகளில": 7651,
      "தொழிலநுடபம": 7652,
      "மடடுமலலாமல": 7653,
      "சபரிமலை": 7654,
      "##திககு": 7655,
      "##ாதவரகள": 7656,
      "சேரும": 7657,
      "யோசனை": 7658,
      "செயயபபடடுளளனர": 7659,
      "சதஷ": 7660,
      "மரியாத": 7661,
      "சேவையை": 7662,
      "ஒறறை": 7663,
      "கஙக": 7664,
      "கோழி": 7665,
      "பாணடி": 7666,
      "சிறப": 7667,
      "நோயகள": 7668,
      "சிரமம": 7669,
      "##வளை": 7670,
      "செயயபபடு": 7671,
      "சநதிரசேகர": 7672,
      "இமமுறை": 7673,
      "##ககுளம": 7674,
      "புள": 7675,
      "தலைபபு": 7676,
      "கைதிகள": 7677,
      "உறுபபு": 7678,
      "கிடைதது": 7679,
      "அளிததுளளார": 7680,
      "பெரமபலூர": 7681,
      "##மணி": 7682,
      "மாரககெ": 7683,
      "மனமோகன": 7684,
      "விடிய": 7685,
      "பிராம": 7686,
      "அறிகுறி": 7687,
      "அவரகளும": 7688,
      "இபபிர": 7689,
      "##னுார": 7690,
      "பாலை": 7691,
      "சுநதரம": 7692,
      "தொழிலதி": 7693,
      "ஜோடியாக": 7694,
      "தொக": 7695,
      "தோறும": 7696,
      "மரபு": 7697,
      "விருமபவிலலை": 7698,
      "ஜாத": 7699,
      "தேவன": 7700,
      "கடடமை": 7701,
      "ராஜய": 7702,
      "கூறியுளளனர": 7703,
      "##பபிளளை": 7704,
      "தாமரை": 7705,
      "ஆமபுலனஸ": 7706,
      "##ருநது": 7707,
      "ஒனறரை": 7708,
      "கஜ": 7709,
      "ஆகியோருககு": 7710,
      "##நடுகக": 7711,
      "நேபாள": 7712,
      "கழிவுகள": 7713,
      "வடடாரஙகள": 7714,
      "நடடி": 7715,
      "விகிதம": 7716,
      "##டைநதது": 7717,
      "பாககிய": 7718,
      "##படுததபபடட": 7719,
      "##ிததார": 7720,
      "இபபடததில": 7721,
      "ஸரர": 7722,
      "மோடியின": 7723,
      "மறுபபு": 7724,
      "பொறி": 7725,
      "கலைஞ": 7726,
      "திருட": 7727,
      "தரதத": 7728,
      "விஷயஙகளை": 7729,
      "வெளியிடடார": 7730,
      "இதறகிடையில": 7731,
      "##ஜரிவால": 7732,
      "எதிரபாராத": 7733,
      "##வாழவு": 7734,
      "நிபுணரகள": 7735,
      "##ையாவது": 7736,
      "அரஙகே": 7737,
      "##சசே": 7738,
      "திஙக": 7739,
      "நாடுகளுககு": 7740,
      "இபபடம": 7741,
      "கததி": 7742,
      "நிலவுகிறது": 7743,
      "விலககு": 7744,
      "கூறுகிறது": 7745,
      "சமபவததில": 7746,
      "##ிருபபதால": 7747,
      "##ாதிரி": 7748,
      "##நாயககனப": 7749,
      "##டிங": 7750,
      "##மபை": 7751,
      "அலலவா": 7752,
      "முறைபபடி": 7753,
      "வினோத": 7754,
      "பழனிசசாமி": 7755,
      "ரெய": 7756,
      "அவல": 7757,
      "வருடஙகளாக": 7758,
      "வரததகம": 7759,
      "செயவதாக": 7760,
      "செயயபபடடுளளன": 7761,
      "டெக": 7762,
      "##முடன": 7763,
      "##படும": 7764,
      "விதம": 7765,
      "சதவிக": 7766,
      "விரைவு": 7767,
      "பததாம": 7768,
      "டெனனிஸ": 7769,
      "##ுதல": 7770,
      "அடைகக": 7771,
      "செயயபபடடுளளார": 7772,
      "சறற": 7773,
      "சிமபு": 7774,
      "பாதுகாபபான": 7775,
      "உதவிததொகை": 7776,
      "படடியலை": 7777,
      "நோககிய": 7778,
      "பருபபு": 7779,
      "##நிறுவன": 7780,
      "செயவதறகாக": 7781,
      "அதிகாரபபூரவ": 7782,
      "தூகக": 7783,
      "அனுபவி": 7784,
      "கோரிககைகள": 7785,
      "முளை": 7786,
      "காணபபடடது": 7787,
      "தவிரவாத": 7788,
      "லூ": 7789,
      "பாறை": 7790,
      "##ாசா": 7791,
      "ஜிஎஸ": 7792,
      "பொருளாதாரம": 7793,
      "##வரததி": 7794,
      "##சசொ": 7795,
      "நடுவர": 7796,
      "பினனணியில": 7797,
      "முஸலிமகள": 7798,
      "செட": 7799,
      "குறைநதுளளது": 7800,
      "##மானம": 7801,
      "ஐபிஎல": 7802,
      "சடடு": 7803,
      "துனபு": 7804,
      "நிறம": 7805,
      "வளரதது": 7806,
      "அமைககபபடடது": 7807,
      "உசசநதிமனறம": 7808,
      "ஒனறிணை": 7809,
      "ரை": 7810,
      "##ேடடை": 7811,
      "தேவத": 7812,
      "சமபத": 7813,
      "நூலகள": 7814,
      "##ளையில": 7815,
      "கூடடி": 7816,
      "பெறறுளளனர": 7817,
      "##போரட": 7818,
      "ஓடு": 7819,
      "பெடடி": 7820,
      "மாவடடச": 7821,
      "சடடமனறத": 7822,
      "பாரததேன": 7823,
      "ஆநதிரா": 7824,
      "சமாளிகக": 7825,
      "பிரக": 7826,
      "எஸடேட": 7827,
      "##ககிடடு": 7828,
      "##ததொழில": 7829,
      "சநதிரன": 7830,
      "##ஙகொ": 7831,
      "##லிங": 7832,
      "படடது": 7833,
      "##ககதை": 7834,
      "##ஙகன": 7835,
      "நரசி": 7836,
      "மோதியது": 7837,
      "கோஷ": 7838,
      "##ககொணடிருநத": 7839,
      "நாராயணன": 7840,
      "விளமபரம": 7841,
      "##காலததில": 7842,
      "மூரததி": 7843,
      "வம": 7844,
      "பேய": 7845,
      "ஒருவரின": 7846,
      "உணரசசி": 7847,
      "கரபப": 7848,
      "வெஙகாயம": 7849,
      "அணுக": 7850,
      "சிதமபர": 7851,
      "பாரபபோம": 7852,
      "விறற": 7853,
      "அழகாக": 7854,
      "வாஙகிக": 7855,
      "மாகாணததில": 7856,
      "ஆஜராக": 7857,
      "ஆபகானிஸதான": 7858,
      "இடஙகளுககு": 7859,
      "முருகேசன": 7860,
      "ஒடி": 7861,
      "தபாராதனை": 7862,
      "##சஙகர": 7863,
      "##ினாள": 7864,
      "இருப": 7865,
      "அமைபபாளர": 7866,
      "தினேஷ": 7867,
      "அகறறி": 7868,
      "நாடாளுமனறததில": 7869,
      "அவிநா": 7870,
      "நிலநடுகக": 7871,
      "மறைதது": 7872,
      "நிசசயமாக": 7873,
      "வராஙகனை": 7874,
      "இநதியாவை": 7875,
      "கிருஷணா": 7876,
      "வருவதறகு": 7877,
      "அளவை": 7878,
      "உளளிடடவை": 7879,
      "வாள": 7880,
      "##பவன": 7881,
      "கலைஞரகள": 7882,
      "சடடபபேரவை": 7883,
      "##மாடட": 7884,
      "##லவி": 7885,
      "வேணடுமானாலும": 7886,
      "விருநதினர": 7887,
      "தூயமை": 7888,
      "##வறை": 7889,
      "தெரிவிககும": 7890,
      "இணட": 7891,
      "##சசில": 7892,
      "##ாவதாக": 7893,
      "ஆஙகிலததில": 7894,
      "துபாய": 7895,
      "விடயம": 7896,
      "சடடசபையில": 7897,
      "அடியில": 7898,
      "வளரபபு": 7899,
      "குடிசை": 7900,
      "கலவித": 7901,
      "நஷட": 7902,
      "பளளிகக": 7903,
      "யாரோ": 7904,
      "கிருஷணம": 7905,
      "##ககிறான": 7906,
      "மூவர": 7907,
      "நடிககிறார": 7908,
      "##படுததி": 7909,
      "##பொ": 7910,
      "வெளியேறி": 7911,
      "அளிககிறது": 7912,
      "##மில": 7913,
      "வலியுறுதத": 7914,
      "பினவரும": 7915,
      "பெருமபானமை": 7916,
      "##ியாய": 7917,
      "தொடககம": 7918,
      "சதவிகிதம": 7919,
      "##பபறற": 7920,
      "அறிவிதத": 7921,
      "உயிரிழநதனர": 7922,
      "மநத": 7923,
      "வளரும": 7924,
      "காணபி": 7925,
      "வரிசை": 7926,
      "குழுவில": 7927,
      "ஆதாரம": 7928,
      "சுகாதாரம": 7929,
      "ரதியான": 7930,
      "##நிலையை": 7931,
      "சாடசிய": 7932,
      "எனபவரை": 7933,
      "எலலாரும": 7934,
      "##ககாரன": 7935,
      "விரிவாகக": 7936,
      "சமரபபி": 7937,
      "தலைவன": 7938,
      "உயிரு": 7939,
      "##னினறி": 7940,
      "உளளடககிய": 7941,
      "வழஙகியது": 7942,
      "மகிநத": 7943,
      "மதிபபடட": 7944,
      "ஆளாக": 7945,
      "##நதுளளதாக": 7946,
      "வவுனியா": 7947,
      "நிலுவையில": 7948,
      "சஸபெ": 7949,
      "##ுடனும": 7950,
      "இனிய": 7951,
      "சசசின": 7952,
      "குழநதைககு": 7953,
      "அறிவிககபபடடது": 7954,
      "வருஷ": 7955,
      "தமிழப": 7956,
      "முகவர": 7957,
      "##தாசன": 7958,
      "குணட": 7959,
      "மாறும": 7960,
      "நிரூபி": 7961,
      "மானியம": 7962,
      "##வடி": 7963,
      "புளிய": 7964,
      "இருநதேன": 7965,
      "கொணடாடு": 7966,
      "கரம": 7967,
      "இக": 7968,
      "ஜய": 7969,
      "##பள": 7970,
      "போராடடஙகள": 7971,
      "விஷம": 7972,
      "சொனனேன": 7973,
      "தோனறிய": 7974,
      "கொடைககான": 7975,
      "தூககு": 7976,
      "முனம": 7977,
      "நிரணயிகக": 7978,
      "##ெனப": 7979,
      "##ூரை": 7980,
      "பெறறுளளார": 7981,
      "விவேகான": 7982,
      "நணபன": 7983,
      "டிலலியில": 7984,
      "##சமான": 7985,
      "##வாயு": 7986,
      "பாதாள": 7987,
      "நாளிதழ": 7988,
      "##பவரகளுககு": 7989,
      "##ுல": 7990,
      "நடிததுளளார": 7991,
      "ஒனறியததில": 7992,
      "வழிகாடட": 7993,
      "விருநது": 7994,
      "உறுதிபபடுதத": 7995,
      "##ககரி": 7996,
      "விழுநதது": 7997,
      "##சான": 7998,
      "##கிறதா": 7999,
      "வெளிவ": 8000,
      "கொடுததது": 8001,
      "ஓரிரு": 8002,
      "உரிமம": 8003,
      "தொடடு": 8004,
      "மேறகொளளும": 8005,
      "விவாக": 8006,
      "கலாம": 8007,
      "##ிககொள": 8008,
      "மாதிரியான": 8009,
      "##ககரு": 8010,
      "முறிய": 8011,
      "ஜெயம": 8012,
      "முதறகடட": 8013,
      "தேயிலை": 8014,
      "மொததமாக": 8015,
      "இவரின": 8016,
      "கைபபறறி": 8017,
      "மாடி": 8018,
      "இநதியப": 8019,
      "ஆகியவறறின": 8020,
      "ரசாய": 8021,
      "##ையாகவும": 8022,
      "தரபபின": 8023,
      "தோனறியது": 8024,
      "##னறால": 8025,
      "எதிரகாலததில": 8026,
      "##ாவசிய": 8027,
      "##வாயில": 8028,
      "வாரததைகள": 8029,
      "துனபுறு": 8030,
      "சதம": 8031,
      "வைகை": 8032,
      "விடுததுளளார": 8033,
      "கூறியிருபபதாவது": 8034,
      "##ததிருகக": 8035,
      "சுமமா": 8036,
      "பயநது": 8037,
      "வநதிருநத": 8038,
      "போடடியை": 8039,
      "##ததினபோது": 8040,
      "விநியோகம": 8041,
      "செயதியை": 8042,
      "சிநதன": 8043,
      "வாசு": 8044,
      "திரள": 8045,
      "கமபெ": 8046,
      "அகதிகள": 8047,
      "அவளது": 8048,
      "ஆகியவறற": 8049,
      "போஸ": 8050,
      "##ாவால": 8051,
      "##ாடடுககு": 8052,
      "பணபு": 8053,
      "பொதுபபணிததுறை": 8054,
      "கையை": 8055,
      "ஆணடுககான": 8056,
      "ஆரபபாடடததில": 8057,
      "##ரஜி": 8058,
      "##ாவிய": 8059,
      "பதிவிடடு": 8060,
      "ரத": 8061,
      "##றா": 8062,
      "##ாவைப": 8063,
      "இலககியம": 8064,
      "ஊகக": 8065,
      "அரசால": 8066,
      "துவககம": 8067,
      "அமைககபபடும": 8068,
      "ஹால": 8069,
      "புட": 8070,
      "##ரியாக": 8071,
      "##ியிலிருநது": 8072,
      "##ாளரகளுககு": 8073,
      "கடைசியில": 8074,
      "விளைவாக": 8075,
      "பையன": 8076,
      "மககளவை": 8077,
      "சிவகாசி": 8078,
      "கிளப": 8079,
      "ஆகியவறறில": 8080,
      "##வானது": 8081,
      "உறசவம": 8082,
      "வலைதளஙகளில": 8083,
      "இருககினறனர": 8084,
      "தூஙக": 8085,
      "பெரிதாக": 8086,
      "##ககூடடம": 8087,
      "##சுவாமி": 8088,
      "##பறற": 8089,
      "மகாத": 8090,
      "வைரல": 8091,
      "ரவ": 8092,
      "ஹோ": 8093,
      "தோனறுகிறது": 8094,
      "நானகாவது": 8095,
      "##ரகளாக": 8096,
      "திருபதி": 8097,
      "செலுததும": 8098,
      "வாசன": 8099,
      "இலலததில": 8100,
      "பயிறசியாளர": 8101,
      "##றறியது": 8102,
      "வடிவம": 8103,
      "##ககாத": 8104,
      "பாலு": 8105,
      "இனடர": 8106,
      "தூரததில": 8107,
      "##ககூடடததில": 8108,
      "ஊடுரு": 8109,
      "நேரகாண": 8110,
      "##ெனஸ": 8111,
      "வழககறிஞரகள": 8112,
      "##ககிடட": 8113,
      "##வுணட": 8114,
      "கொணடாடட": 8115,
      "நிறுவனமான": 8116,
      "தரமானிகக": 8117,
      "ஷூ": 8118,
      "##கதி": 8119,
      "பிறகும": 8120,
      "எடுததுககொளள": 8121,
      "உறுபபினராக": 8122,
      "சிவாஜி": 8123,
      "##ஙகுனறம": 8124,
      "கருணை": 8125,
      "நாளும": 8126,
      "சுபபிரமணியன": 8127,
      "ராகக": 8128,
      "செயின": 8129,
      "##வதுடன": 8130,
      "சதய": 8131,
      "வினை": 8132,
      "##ஸஸ": 8133,
      "காச": 8134,
      "நிலஙகள": 8135,
      "பிரிவினர": 8136,
      "யாருககு": 8137,
      "சுயே": 8138,
      "இடிநது": 8139,
      "ஆபபிள": 8140,
      "##சியா": 8141,
      "காரததி": 8142,
      "##ததாழ": 8143,
      "கறறுக": 8144,
      "எவர": 8145,
      "ஐமப": 8146,
      "எனறுதான": 8147,
      "வினாடி": 8148,
      "எததனையோ": 8149,
      "கறி": 8150,
      "கொடிய": 8151,
      "பிசசை": 8152,
      "வாழநாள": 8153,
      "அனபழகன": 8154,
      "எலலாவறறையும": 8155,
      "டார": 8156,
      "##லகளை": 8157,
      "எனறெலலாம": 8158,
      "திருவன": 8159,
      "வழிகாடடு": 8160,
      "தககாளி": 8161,
      "கோளாறு": 8162,
      "##ிண": 8163,
      "சிததர": 8164,
      "##பபடுகினற": 8165,
      "வரிச": 8166,
      "##பிக": 8167,
      "வயிறற": 8168,
      "இருபபவரகள": 8169,
      "கடசிகளும": 8170,
      "மாடடோம": 8171,
      "அமபேதகர": 8172,
      "செநதிலகுமார": 8173,
      "##ாஷ": 8174,
      "##பரை": 8175,
      "காபபடு": 8176,
      "பாலிவுட": 8177,
      "வநதேன": 8178,
      "நியூய": 8179,
      "பசும": 8180,
      "பருததி": 8181,
      "##சசிக": 8182,
      "##டைபபு": 8183,
      "பழமையான": 8184,
      "இறபபு": 8185,
      "முறைகள": 8186,
      "பேஸபுக": 8187,
      "##மேன": 8188,
      "இதுவும": 8189,
      "சிநது": 8190,
      "வழஙகுவது": 8191,
      "மினி": 8192,
      "##ததேரவு": 8193,
      "சிறிலஙகா": 8194,
      "தமிழிசை": 8195,
      "பகதி": 8196,
      "மிரடட": 8197,
      "நிபுணர": 8198,
      "பிரமுக": 8199,
      "சமூகததின": 8200,
      "வெளியிடபபடடது": 8201,
      "லணட": 8202,
      "இலககை": 8203,
      "பொருடடு": 8204,
      "நினைவில": 8205,
      "சிகர": 8206,
      "களுககு": 8207,
      "தொடஙகினார": 8208,
      "எரிநது": 8209,
      "உயரநிலை": 8210,
      "மெகா": 8211,
      "மாரி": 8212,
      "போடும": 8213,
      "##ாவையும": 8214,
      "##கொடும": 8215,
      "##கோடடை": 8216,
      "விரிவாக": 8217,
      "##சுநதரம": 8218,
      "பேரையும": 8219,
      "நடுவில": 8220,
      "புரிநதுகொளள": 8221,
      "ஓடடம": 8222,
      "திருசசியில": 8223,
      "விடடன": 8224,
      "##பபதறகும": 8225,
      "கிடககும": 8226,
      "அவுஸதிரேல": 8227,
      "செனறால": 8228,
      "விடடதாக": 8229,
      "அழைககபபடும": 8230,
      "வடடம": 8231,
      "கிலோம": 8232,
      "##றகா": 8233,
      "நடததியது": 8234,
      "திருவனநத": 8235,
      "கணேஷ": 8236,
      "தேரதலுககு": 8237,
      "தினஙகளுககு": 8238,
      "குடுமபஙகள": 8239,
      "##ேனா": 8240,
      "அரியலூர": 8241,
      "##சேர": 8242,
      "வரலாம": 8243,
      "கொணடால": 8244,
      "பளளியின": 8245,
      "வநததும": 8246,
      "விசேஷ": 8247,
      "ஓடும": 8248,
      "##ணவு": 8249,
      "நியாயம": 8250,
      "மககளிடையே": 8251,
      "ஊழியரகளுககு": 8252,
      "உரம": 8253,
      "##நதிரா": 8254,
      "அணுகும": 8255,
      "கமபெனி": 8256,
      "ஏவுக": 8257,
      "இயககி": 8258,
      "கடைசியாக": 8259,
      "பனனாடடு": 8260,
      "##ததூ": 8261,
      "##பபடடதால": 8262,
      "நானே": 8263,
      "நிகழநத": 8264,
      "ஹிட": 8265,
      "நடநதுளளது": 8266,
      "ஸடெர": 8267,
      "தனிபபடை": 8268,
      "##வலி": 8269,
      "சிட": 8270,
      "##லகளில": 8271,
      "##யிஸ": 8272,
      "##ிகாப": 8273,
      "தெனனிநதிய": 8274,
      "அமில": 8275,
      "கிணடல": 8276,
      "##ிததுக": 8277,
      "ஓவரகளில": 8278,
      "வாஷ": 8279,
      "வைததிருககும": 8280,
      "கஞசா": 8281,
      "தடுதத": 8282,
      "அரஙக": 8283,
      "கிராமஙகள": 8284,
      "லடசும": 8285,
      "ஆகியோரும": 8286,
      "கையக": 8287,
      "வேடடை": 8288,
      "##ைகளின": 8289,
      "நடததுவது": 8290,
      "பாவம": 8291,
      "சாதகமாக": 8292,
      "மாறறுததிறனாளிகள": 8293,
      "தஙகும": 8294,
      "தழுவ": 8295,
      "மேக": 8296,
      "மேடையில": 8297,
      "##ோரின": 8298,
      "சாநத": 8299,
      "##டடியே": 8300,
      "மாதததிறகு": 8301,
      "நடுநிலை": 8302,
      "வெறறிபெ": 8303,
      "பொறுபபில": 8304,
      "ஓரளவு": 8305,
      "மூழகி": 8306,
      "##களுககாக": 8307,
      "பிப": 8308,
      "வளரசசியை": 8309,
      "விசாரணைகளை": 8310,
      "அதிரடியாக": 8311,
      "மநதிரி": 8312,
      "##லார": 8313,
      "உலகப": 8314,
      "##ாடசியின": 8315,
      "முனபதிவு": 8316,
      "நிறப": 8317,
      "நடவடிககையை": 8318,
      "##தததுடன": 8319,
      "##ியபபன": 8320,
      "##டடோ": 8321,
      "இலகக": 8322,
      "விளஙக": 8323,
      "மனிதர": 8324,
      "##வதைத": 8325,
      "வெளியிடடுளளார": 8326,
      "ஜனன": 8327,
      "அபபோதைய": 8328,
      "உடறக": 8329,
      "சிவககுமார": 8330,
      "தாக": 8331,
      "இடைவெளி": 8332,
      "ஊடட": 8333,
      "ஏகக": 8334,
      "பலனினறி": 8335,
      "கிழமை": 8336,
      "ஓராணடு": 8337,
      "கொணடிருநதனர": 8338,
      "காமெடி": 8339,
      "சடடை": 8340,
      "வாடகைககு": 8341,
      "எதை": 8342,
      "மோக": 8343,
      "காஷமரில": 8344,
      "##வாண": 8345,
      "##பபடுகிறார": 8346,
      "##ாசை": 8347,
      "நிரமலா": 8348,
      "உததரவிடடுளளார": 8349,
      "உடகாரநது": 8350,
      "##வியும": 8351,
      "தேதிககுள": 8352,
      "##ரசன": 8353,
      "சுவை": 8354,
      "தடுமா": 8355,
      "பளளிக": 8356,
      "விஞஞானிகள": 8357,
      "வனகொடும": 8358,
      "எரிய": 8359,
      "திருமபப": 8360,
      "சவுதி": 8361,
      "பெடட": 8362,
      "##களுககுள": 8363,
      "நுால": 8364,
      "உரிமையை": 8365,
      "கொழுமபில": 8366,
      "எணணை": 8367,
      "தறகாலிகமாக": 8368,
      "எமபி": 8369,
      "டம": 8370,
      "##பபதன": 8371,
      "##வுளளார": 8372,
      "இதைக": 8373,
      "##ிருநதேன": 8374,
      "அவரே": 8375,
      "அருகேயுளள": 8376,
      "பவர": 8377,
      "##லோ": 8378,
      "பரவ": 8379,
      "வகிதது": 8380,
      "கிறிஸது": 8381,
      "எகி": 8382,
      "##ாயன": 8383,
      "எநதக": 8384,
      "விககிரம": 8385,
      "வெஙகடேசன": 8386,
      "ஒலிமபிக": 8387,
      "##துளை": 8388,
      "வேலு": 8389,
      "##வேநதர": 8390,
      "குரூப": 8391,
      "சபளை": 8392,
      "வெல": 8393,
      "காபபடடு": 8394,
      "பயனபெ": 8395,
      "காவலர": 8396,
      "முறையும": 8397,
      "இருநதவர": 8398,
      "கூடடததை": 8399,
      "பிரதமராக": 8400,
      "பெருமபானம": 8401,
      "இஸரேல": 8402,
      "பழுது": 8403,
      "பொதுககுழு": 8404,
      "##மபிகக": 8405,
      "புண": 8406,
      "தேடு": 8407,
      "நிலவிய": 8408,
      "தனனார": 8409,
      "அளிககபபடும": 8410,
      "விழிபபுணர": 8411,
      "கவுனசிலரகள": 8412,
      "சிவபெரும": 8413,
      "##யை": 8414,
      "##ாவார": 8415,
      "நடததின": 8416,
      "தெரிவிததுக": 8417,
      "அரபு": 8418,
      "கோபுர": 8419,
      "மேறகொளளபபடடு": 8420,
      "நிகழசசியை": 8421,
      "திஙகடக": 8422,
      "தினதத": 8423,
      "பாதிபபை": 8424,
      "தணிககை": 8425,
      "ஒதுககி": 8426,
      "வஙகிகளில": 8427,
      "யூத": 8428,
      "##ாராம": 8429,
      "மனதை": 8430,
      "##ளியல": 8431,
      "சராசரி": 8432,
      "முஹ": 8433,
      "முரு": 8434,
      "செயகிறாரகள": 8435,
      "உஙகளது": 8436,
      "சோநத": 8437,
      "ரஷயா": 8438,
      "##ககுமாறு": 8439,
      "குறிபபிடபபடடுளளது": 8440,
      "இயலாது": 8441,
      "ஹிநது": 8442,
      "நியூசிலாநது": 8443,
      "மூவரும": 8444,
      "பிரிடடிஷ": 8445,
      "அததும": 8446,
      "போஸட": 8447,
      "அறிவிபபை": 8448,
      "பநதுவ": 8449,
      "##ஞசன": 8450,
      "ஏராளமானோர": 8451,
      "உயரநதிமனறம": 8452,
      "மினவாரிய": 8453,
      "##வலல": 8454,
      "உறவுகள": 8455,
      "நகைகள": 8456,
      "##நிறுதத": 8457,
      "மகாராஷடிர": 8458,
      "போவதாக": 8459,
      "##கராஜ": 8460,
      "சிலல": 8461,
      "ஆசிரியரகளுககு": 8462,
      "கொடுததால": 8463,
      "சரும": 8464,
      "##மாற": 8465,
      "கூறியிருநதார": 8466,
      "சரிபார": 8467,
      "கலலுாரியில": 8468,
      "##ரில": 8469,
      "##பபடவுளளது": 8470,
      "##விருககும": 8471,
      "சரு": 8472,
      "##டிதத": 8473,
      "##வுககுப": 8474,
      "பைபிள": 8475,
      "தடுபபூசி": 8476,
      "மாணவிகளுககு": 8477,
      "அதனைத": 8478,
      "புத": 8479,
      "பாலா": 8480,
      "உததரவின": 8481,
      "##ததினம": 8482,
      "மேலமுறைய": 8483,
      "வசதியாக": 8484,
      "துறைககு": 8485,
      "கணடறிநது": 8486,
      "எலலோருககும": 8487,
      "தினததை": 8488,
      "ஊராடசியில": 8489,
      "விபரம": 8490,
      "அவிநாசி": 8491,
      "##ௌ": 8492,
      "##ககிழ": 8493,
      "##சசரிகக": 8494,
      "அரபபணி": 8495,
      "அவரைப": 8496,
      "மினனணு": 8497,
      "அடைநதுளளனர": 8498,
      "அரசியலுககு": 8499,
      "நிகழசசிககு": 8500,
      "பேருநதுகள": 8501,
      "##பாணடியன": 8502,
      "சடடப": 8503,
      "அதறகுள": 8504,
      "உடைநது": 8505,
      "ஜாமன": 8506,
      "சதவதமாக": 8507,
      "முகாமை": 8508,
      "எதறகாக": 8509,
      "##தவி": 8510,
      "##ோருககு": 8511,
      "நெச": 8512,
      "முஸலம": 8513,
      "எடடி": 8514,
      "சஙகில": 8515,
      "சதா": 8516,
      "செயலா": 8517,
      "மகேஷ": 8518,
      "இணைகக": 8519,
      "மென": 8520,
      "##ிபபை": 8521,
      "துலல": 8522,
      "##போய": 8523,
      "சாஸதிர": 8524,
      "சபையில": 8525,
      "மமதா": 8526,
      "##விலககு": 8527,
      "காதது": 8528,
      "##ியுஙகள": 8529,
      "நேறறும": 8530,
      "கணடுகொளள": 8531,
      "மிரடடி": 8532,
      "நூறறாணட": 8533,
      "தருவதாக": 8534,
      "ஆவணஙகளை": 8535,
      "##முடியாத": 8536,
      "வாரிசு": 8537,
      "கவித": 8538,
      "சமூகததில": 8539,
      "எமஎலஏககள": 8540,
      "##ாககில": 8541,
      "தேதிகளில": 8542,
      "அதிலிருநது": 8543,
      "உஙகளுடைய": 8544,
      "கிடைககாமல": 8545,
      "திடரெனறு": 8546,
      "##ொழிவு": 8547,
      "##ரக": 8548,
      "##டடான": 8549,
      "கூறியுளள": 8550,
      "மதுபான": 8551,
      "ஒறற": 8552,
      "வேடட": 8553,
      "##வரகளிடம": 8554,
      "வாதி": 8555,
      "சடடபபடி": 8556,
      "இயககததின": 8557,
      "கிணறறில": 8558,
      "##ககச": 8559,
      "##ினறு": 8560,
      "##ஙகளுககான": 8561,
      "##ினறது": 8562,
      "கூறபபடடது": 8563,
      "தோறறம": 8564,
      "பணரு": 8565,
      "இவவி": 8566,
      "வெளளததில": 8567,
      "குறுககே": 8568,
      "மாறுதல": 8569,
      "பிரதேசம": 8570,
      "படடதாரி": 8571,
      "புதுபபிகக": 8572,
      "நிலையததிறகு": 8573,
      "நகல": 8574,
      "##ிரியில": 8575,
      "பலகை": 8576,
      "போலஸாா": 8577,
      "செயலபடுகிறது": 8578,
      "உமா": 8579,
      "அலுவலகததை": 8580,
      "##ததிடடம": 8581,
      "நிரூபிகக": 8582,
      "ஊட": 8583,
      "##லால": 8584,
      "வரத": 8585,
      "செயதுகொணட": 8586,
      "அவரால": 8587,
      "பாதுகாபபுப": 8588,
      "பொறுதது": 8589,
      "எரிபொருள": 8590,
      "வெகுவாக": 8591,
      "கணககெடு": 8592,
      "நிலவி": 8593,
      "பளளிகளுககு": 8594,
      "இருககுமபோது": 8595,
      "பொருளகள": 8596,
      "##ாரா": 8597,
      "தயாராகி": 8598,
      "குமபாபிஷேகம": 8599,
      "##ததிறகுப": 8600,
      "##விடாமல": 8601,
      "எதிரபாரதத": 8602,
      "ஆவல": 8603,
      "இருபது": 8604,
      "வரகக": 8605,
      "இயறப": 8606,
      "கொணடேன": 8607,
      "வளம": 8608,
      "##ததானே": 8609,
      "தேசம": 8610,
      "ராஜன": 8611,
      "வழிபடட": 8612,
      "##காலமாக": 8613,
      "குஷ": 8614,
      "டிடிவி": 8615,
      "விழாவ": 8616,
      "காரணஙகளால": 8617,
      "பிணை": 8618,
      "அதறகுப": 8619,
      "வகுபபில": 8620,
      "புலிகளின": 8621,
      "சுடடுக": 8622,
      "நசசல": 8623,
      "##சசுவை": 8624,
      "ஆடகள": 8625,
      "தடையை": 8626,
      "நுழைய": 8627,
      "நடராஜ": 8628,
      "##வென": 8629,
      "மேறகொளளபபடட": 8630,
      "மறைநது": 8631,
      "வேதிய": 8632,
      "ஹரோயின": 8633,
      "அரவ": 8634,
      "பிரமாணட": 8635,
      "கொணடுளளார": 8636,
      "அழகிரி": 8637,
      "பககதது": 8638,
      "எடுததது": 8639,
      "நயனதாரா": 8640,
      "உணவை": 8641,
      "இடையேயான": 8642,
      "புததாணடு": 8643,
      "ஜாரஜ": 8644,
      "##பபிடம": 8645,
      "திருடிய": 8646,
      "திருமலை": 8647,
      "விஜயகுமார": 8648,
      "மகிழசசிய": 8649,
      "ஆததிரமடைநத": 8650,
      "##னையின": 8651,
      "முறற": 8652,
      "அனைவர": 8653,
      "##நாராய": 8654,
      "##ரைப": 8655,
      "நிராகரி": 8656,
      "##டடன": 8657,
      "ரூப": 8658,
      "முனனுரிமை": 8659,
      "##பபெரும": 8660,
      "வருமாறு": 8661,
      "##நாயகன": 8662,
      "பொதுமககளின": 8663,
      "கழகததின": 8664,
      "தோடடககலை": 8665,
      "பாடடி": 8666,
      "##ளியை": 8667,
      "நேரமும": 8668,
      "பேசசாளர": 8669,
      "மருநதுகள": 8670,
      "செயலபாடுகள": 8671,
      "நாஙக": 8672,
      "பிறநது": 8673,
      "உடலுககு": 8674,
      "ஆனை": 8675,
      "மாஸடர": 8676,
      "##ாளம": 8677,
      "தொநதர": 8678,
      "வேணடுமானால": 8679,
      "##ொனறை": 8680,
      "உடறபயிறசி": 8681,
      "கிளிநொசசி": 8682,
      "##விலலி": 8683,
      "##தவிர": 8684,
      "##பபிலலை": 8685,
      "பயனபடுததிக": 8686,
      "கடிதததில": 8687,
      "நுழைநது": 8688,
      "##கூர": 8689,
      "பேரிடர": 8690,
      "##ெடடு": 8691,
      "போஸடர": 8692,
      "இவள": 8693,
      "வெளியேறும": 8694,
      "சஙகரா": 8695,
      "ஆதமி": 8696,
      "கொணடதாக": 8697,
      "நிரணயம": 8698,
      "##ஷின": 8699,
      "##ாளருககு": 8700,
      "குறறவியல": 8701,
      "மெயின": 8702,
      "தால": 8703,
      "ஞாயிறு": 8704,
      "##ாறும": 8705,
      "##பபோய": 8706,
      "படைதத": 8707,
      "மதமுளள": 8708,
      "##னோ": 8709,
      "நடிபபு": 8710,
      "##டின": 8711,
      "இநதாணடு": 8712,
      "தொழிலில": 8713,
      "வெபபம": 8714,
      "நடுவே": 8715,
      "உணணாவிரதம": 8716,
      "##படியாக": 8717,
      "நடவு": 8718,
      "வெளியடடு": 8719,
      "தொடரநதும": 8720,
      "அமலாகக": 8721,
      "குஜரா": 8722,
      "ராமசசநதிரன": 8723,
      "லலி": 8724,
      "பாசி": 8725,
      "குமபகோணம": 8726,
      "புவ": 8727,
      "காடடுகிறது": 8728,
      "ஒபபுக": 8729,
      "ஆதிககம": 8730,
      "##மபெயர": 8731,
      "மோசமாக": 8732,
      "பநதுகளில": 8733,
      "அவதான": 8734,
      "ஆகியன": 8735,
      "அபபோதுதான": 8736,
      "கூறுவது": 8737,
      "விளையாடிய": 8738,
      "##ெடு": 8739,
      "மனது": 8740,
      "அவரகளால": 8741,
      "அணிநத": 8742,
      "பிரமமாணட": 8743,
      "ராமர": 8744,
      "அரசியலமைபபு": 8745,
      "மேறகொளளபபடும": 8746,
      "##மமா": 8747,
      "வேடபு": 8748,
      "ஆறறின": 8749,
      "விசா": 8750,
      "பொற": 8751,
      "இதுபோல": 8752,
      "தோதல": 8753,
      "பிளளையார": 8754,
      "விககிர": 8755,
      "##பபடுகிறாரகள": 8756,
      "தாஙகி": 8757,
      "வழிநட": 8758,
      "பெயயும": 8759,
      "பாரதியார": 8760,
      "##பபூரில": 8761,
      "##வரதது": 8762,
      "உடலநிலை": 8763,
      "வலியுறுதது": 8764,
      "##ையினை": 8765,
      "தரையில": 8766,
      "அககா": 8767,
      "சேகரிகக": 8768,
      "ரஹமான": 8769,
      "##ததியை": 8770,
      "ரூபாயும": 8771,
      "நடைமுறைபபடுதத": 8772,
      "##ிககிறார": 8773,
      "உக": 8774,
      "நிக": 8775,
      "தனபால": 8776,
      "##ாடசியை": 8777,
      "சிநதிகக": 8778,
      "அடைதது": 8779,
      "##ஜிஸ": 8780,
      "துபபாககிச": 8781,
      "கடடணததை": 8782,
      "வருவத": 8783,
      "வாபஸ": 8784,
      "அவனுடைய": 8785,
      "குரலில": 8786,
      "குனன": 8787,
      "செயவதில": 8788,
      "சொலற": 8789,
      "கொலகததா": 8790,
      "ஷர": 8791,
      "தெரிவிததது": 8792,
      "##சசான": 8793,
      "##நேரததில": 8794,
      "##சலை": 8795,
      "இநதோன": 8796,
      "அநதோ": 8797,
      "உயிருககு": 8798,
      "##பபல": 8799,
      "இலடசம": 8800,
      "##கினறோம": 8801,
      "எழுபபிய": 8802,
      "பூசசி": 8803,
      "இருபபார": 8804,
      "வைததுளளார": 8805,
      "பொறுபபாளர": 8806,
      "நிருபர": 8807,
      "தாளாளர": 8808,
      "##வோடு": 8809,
      "##மபில": 8810,
      "மோர": 8811,
      "அடைநதார": 8812,
      "வேடபும": 8813,
      "உணமையை": 8814,
      "வாஷிங": 8815,
      "பொமமை": 8816,
      "குறிபபிடததகக": 8817,
      "இபபடிபபடட": 8818,
      "ஹெச": 8819,
      "பழுத": 8820,
      "மெனபொருள": 8821,
      "அதைச": 8822,
      "ரனகளை": 8823,
      "அதிகாரிகளை": 8824,
      "##ேஸவரர": 8825,
      "ஜிஎஸடி": 8826,
      "நிலவு": 8827,
      "எமஜி": 8828,
      "நினைதத": 8829,
      "##ககாலம": 8830,
      "புகைபபடஙகள": 8831,
      "அளிததுளள": 8832,
      "நடததபபடுகிறது": 8833,
      "செயலாளராக": 8834,
      "புலமபெயர": 8835,
      "முனனெசசரிகக": 8836,
      "ஏப": 8837,
      "##கிடட": 8838,
      "##டடிக": 8839,
      "##மாகாண": 8840,
      "பேசிக": 8841,
      "கேன": 8842,
      "மதிமுக": 8843,
      "கதவை": 8844,
      "செலுததினர": 8845,
      "வைததியசாலையில": 8846,
      "##நூல": 8847,
      "##ிருககிறோம": 8848,
      "##கினறேன": 8849,
      "அளிததது": 8850,
      "அளிததுளளது": 8851,
      "இடையூறு": 8852,
      "முததம": 8853,
      "தலைவி": 8854,
      "ஆராதனை": 8855,
      "எழுதும": 8856,
      "அதிகரிபபு": 8857,
      "நூறறாணடில": 8858,
      "வலுவான": 8859,
      "##ாகச": 8860,
      "##நதுறை": 8861,
      "சேலை": 8862,
      "புறமப": 8863,
      "சுகாதாரததுறை": 8864,
      "இவறற": 8865,
      "கோரிய": 8866,
      "அதனபிறகு": 8867,
      "ஏரியில": 8868,
      "ஸரலஙகா": 8869,
      "ஏடி": 8870,
      "##னூர": 8871,
      "பாடலை": 8872,
      "##யயா": 8873,
      "வருவதை": 8874,
      "பெறறவர": 8875,
      "பதிவுகள": 8876,
      "காணபபடுகினறன": 8877,
      "வெளிசச": 8878,
      "பணியாறறு": 8879,
      "##ூருககு": 8880,
      "முடிவடை": 8881,
      "பாஸகர": 8882,
      "காணவிலலை": 8883,
      "அஙகன": 8884,
      "வெளிநாடுகளில": 8885,
      "பனை": 8886,
      "எனில": 8887,
      "##சியின": 8888,
      "வெளியடு": 8889,
      "எதிரககடசிகள": 8890,
      "##சசெனற": 8891,
      "கொளளவிலலை": 8892,
      "##ிரியா": 8893,
      "அதிகாரிகளின": 8894,
      "விபததுககுளள": 8895,
      "தாககுதலை": 8896,
      "மசூ": 8897,
      "##ியைத": 8898,
      "அருஙக": 8899,
      "எரிவாயு": 8900,
      "நிதியுதவி": 8901,
      "நூறறுககணககான": 8902,
      "##ஹம": 8903,
      "உததிர": 8904,
      "திலலி": 8905,
      "கிரி": 8906,
      "இடமபெறறது": 8907,
      "ஒன": 8908,
      "மவு": 8909,
      "பெணகளும": 8910,
      "##வழியாக": 8911,
      "##டைகள": 8912,
      "உளளதாகவும": 8913,
      "தெரிவிததிருநதார": 8914,
      "முனனெடுதது": 8915,
      "உததரவிடட": 8916,
      "வரையிலும": 8917,
      "##பபடடினம": 8918,
      "டேவிட": 8919,
      "##ையாம": 8920,
      "அமைபபினர": 8921,
      "டரமப": 8922,
      "விலஙகுகள": 8923,
      "##காநதி": 8924,
      "நகைசசுவை": 8925,
      "திஙகடகிழமை": 8926,
      "விடலாம": 8927,
      "கணகாணிகக": 8928,
      "ஸடேஷனில": 8929,
      "அநநிய": 8930,
      "##நாம": 8931,
      "சிசி": 8932,
      "வைபபது": 8933,
      "பததிரிகையாளரகள": 8934,
      "##ிறை": 8935,
      "வேடிககை": 8936,
      "##ாவலர": 8937,
      "வேலைகள": 8938,
      "பெயதது": 8939,
      "கடனை": 8940,
      "விடடேன": 8941,
      "தனிநபர": 8942,
      "வனன": 8943,
      "##வடடார": 8944,
      "கருவிகள": 8945,
      "##தாச": 8946,
      "வடுகளை": 8947,
      "நமபிககையில": 8948,
      "ஐயபபன": 8949,
      "##பபாத": 8950,
      "பெணம": 8951,
      "வைககபபடடிருநத": 8952,
      "##ாவள": 8953,
      "தேரவுககு": 8954,
      "பதககம": 8955,
      "எனகினறனர": 8956,
      "வகுபபுகள": 8957,
      "சததுணவு": 8958,
      "மாடுகள": 8959,
      "வரவேணடும": 8960,
      "##கலவி": 8961,
      "இழை": 8962,
      "நேசி": 8963,
      "தாததா": 8964,
      "பிரிவுகள": 8965,
      "சாலைகளில": 8966,
      "விணணபபம": 8967,
      "அததியாவசிய": 8968,
      "##துகக": 8969,
      "கடடிடம": 8970,
      "இறுதியாக": 8971,
      "பறவைகள": 8972,
      "மூர": 8973,
      "சேல": 8974,
      "##பாணடி": 8975,
      "நாராயணசாமி": 8976,
      "பூசச": 8977,
      "செனறுளளனர": 8978,
      "கலலூரிகளில": 8979,
      "பெறுவது": 8980,
      "டாடா": 8981,
      "##யமாகக": 8982,
      "##வருகினறனர": 8983,
      "பூச": 8984,
      "கிறிஸதவ": 8985,
      "மேடடுபபாளையம": 8986,
      "கறக": 8987,
      "சுஷ": 8988,
      "புராண": 8989,
      "பணபாடடு": 8990,
      "ஹெலிகாப": 8991,
      "முகர": 8992,
      "வாசல": 8993,
      "செயயக": 8994,
      "##ததியுளளது": 8995,
      "கதவு": 8996,
      "வழககின": 8997,
      "##தியு": 8998,
      "பாராடடி": 8999,
      "அலடசிய": 9000,
      "பெறறுககொளள": 9001,
      "அணையின": 9002,
      "ஆராயநது": 9003,
      "பயில": 9004,
      "##ிததது": 9005,
      "பெருஙக": 9006,
      "செயயுஙகள": 9007,
      "ஏறபடடால": 9008,
      "ஸடெரலைட": 9009,
      "வநதவர": 9010,
      "##வரிசை": 9011,
      "வெளியிடடது": 9012,
      "ரச": 9013,
      "##ஸா": 9014,
      "நிதியை": 9015,
      "பேசுமபோது": 9016,
      "பறிதது": 9017,
      "உளளாடசித": 9018,
      "டவிடடரில": 9019,
      "சமான": 9020,
      "##ஞசில": 9021,
      "கணின": 9022,
      "வரைககும": 9023,
      "##தேவ": 9024,
      "குமரி": 9025,
      "##ாறில": 9026,
      "இதெலலாம": 9027,
      "மகால": 9028,
      "ஜெயநதி": 9029,
      "துரநாறறம": 9030,
      "தேடும": 9031,
      "ரூபாயாக": 9032,
      "வஙகதேச": 9033,
      "யை": 9034,
      "பிரண": 9035,
      "நேரததை": 9036,
      "தேதிககு": 9037,
      "ஒழுஙக": 9038,
      "எனச": 9039,
      "ஆழநத": 9040,
      "அயர": 9041,
      "##பபதே": 9042,
      "##டிககண": 9043,
      "மககளுககும": 9044,
      "அதுவரை": 9045,
      "காலில": 9046,
      "தூது": 9047,
      "கலநதாயவு": 9048,
      "##ாலயம": 9049,
      "##சசியான": 9050,
      "மாறறுத": 9051,
      "விருமபுகிறேன": 9052,
      "சிடடி": 9053,
      "ஸடர": 9054,
      "##ொறிய": 9055,
      "முனகூ": 9056,
      "மெதுவாக": 9057,
      "##மாண": 9058,
      "யாரையும": 9059,
      "பொருடகளின": 9060,
      "சேதமடைநத": 9061,
      "##ககுழுவின": 9062,
      "பகை": 9063,
      "##ிருபபு": 9064,
      "##ககளையும": 9065,
      "இறஙகிய": 9066,
      "##ளிககிறது": 9067,
      "வழஙகியுளளது": 9068,
      "நெட": 9069,
      "சேதுபதி": 9070,
      "தொடரகிறது": 9071,
      "##போத": 9072,
      "படிபபை": 9073,
      "கவுர": 9074,
      "மெகாவ": 9075,
      "இடமாறறம": 9076,
      "##பபடடிருககிறது": 9077,
      "மனவர": 9078,
      "அமமாநில": 9079,
      "ரவிசசநதிரன": 9080,
      "விடுதியில": 9081,
      "அலுவலகஙகளில": 9082,
      "தொகுதிககு": 9083,
      "##பபிடிதது": 9084,
      "நுழைநத": 9085,
      "##ககுழுவினர": 9086,
      "செகஸ": 9087,
      "காரியம": 9088,
      "##பபடடுளளதாகவும": 9089,
      "##ெகட": 9090,
      "முனனேற": 9091,
      "##வெடி": 9092,
      "பிரிடடன": 9093,
      "இருதர": 9094,
      "##பபிங": 9095,
      "பொருளை": 9096,
      "பேசசுவாரதத": 9097,
      "எனனவெனறால": 9098,
      "ஐஸவரயா": 9099,
      "##ிராஜ": 9100,
      "குனற": 9101,
      "ஆயவுகள": 9102,
      "ராஜி": 9103,
      "துவஙகும": 9104,
      "காவலரகள": 9105,
      "தாமபரம": 9106,
      "ரசிகர": 9107,
      "கடறகரையில": 9108,
      "ஆடுகள": 9109,
      "##சததிரம": 9110,
      "கேபிள": 9111,
      "எனனெனன": 9112,
      "அலலாத": 9113,
      "ஆககிரமிதது": 9114,
      "ஆவே": 9115,
      "விதிகள": 9116,
      "கொதி": 9117,
      "##யராஜ": 9118,
      "கூடவே": 9119,
      "அருஙகாடசிய": 9120,
      "அமைபபில": 9121,
      "அபபொழுது": 9122,
      "ஆஞச": 9123,
      "தேவர": 9124,
      "நிறைவடை": 9125,
      "வரிததுறை": 9126,
      "வாசலில": 9127,
      "வறபு": 9128,
      "சுடு": 9129,
      "சொடடு": 9130,
      "அதேசமயம": 9131,
      "ஹெலம": 9132,
      "நபரை": 9133,
      "பவுணடரி": 9134,
      "கடநதாணடு": 9135,
      "தேவையறற": 9136,
      "கொடுததுளளார": 9137,
[...]
