[PAD]
[UNK]
[CLS]
[SEP]
[MASK]
!
"
#
$
%
&
'
(
)
*
+
,
-
.
/
:
;
<
=
>
?
@
[
\
]
^
_
`
{
|
}
~
ஃ
அ
ஆ
இ
ஈ
உ
ஊ
஋
஌
எ
ஏ
ஐ
ஒ
ஓ
க
ங
ச
ஜ
ஞ
ட
஠
஡
஢
ண
த
஥
஦
஧
ந
ன
ப
஫
஬
஭
ம
ய
ர
ற
ல
ள
ழ
வ
ஶ
ஷ
ஸ
ஹ
ா
ி
ு
ூ
௃
௅
ெ
ே
ை
ௐ
ௗ
௙
௝
௰
௱
௲
௳
௴
௵
௸
௾
##ே
##ட
##ு
##ம
##ண
##க
##ள
##த
##ி
##ல
##ய
##ெ
##ா
##ந
##ன
##ூ
##ப
##ழ
##ங
##ை
##வ
##ஸ
##ர
##ற
##ஜ
##ச
##ஈ
##உ
##எ
##ௗ
##ஷ
##ஹ
##ஞ
##அ
##ஏ
##இ
##ஃ
##ஒ
##ஆ
##ஐ
##ஓ
##ஊ
##ஶ
##௰
##௵
##ௐ
##஢
##௅
##஡
##஧
##஦
##஥
##஭
##௃
##஠
##௳
##௴
##௸
##஫
##௙
##஬
##௝
##து
##கக
##ில
##ும
##ிய
##கள
##தத
##பப
##டட
##ார
##ரு
##ோ
##நத
##ின
##ைய
##ொ
##டு
##ாக
##ிர
##ிற
##ான
##ஙக
##ளள
##ககு
##தது
##ால
##று
##வர
##தி
##டி
என
செ
மு
எண
##றற
வி
##ஙகள
##வி
##லை
##நது
##டடு
##ணட
##ாம
கு
##வு
##ரி
##கு
##சச
செய
பெ
##ிரு
மா
##ாள
##லல
##ததில
போ
##ாய
##ேர
இரு
##ையில
##பபு
கொ
##றி
##னர
##னை
##சி
##டை
வே
##மை
##ககும
தொ
##ாவ
##ுககு
இநத
##மப
##ணி
##ரகள
##ுவ
##ணடு
##தல
கூ
##கிற
##னற
பு
##வரகள
உளள
வெ
##பபடட
##திய
##ாட
##ிக
நட
##ாத
##றப
வர
##றை
##ிகக
##வே
##னன
ஒரு
##ிட
கட
தெ
##டிய
அர
##ிழ
##களை
பிர
இத
##வில
அத
மே
##ஙகில
வழ
##சிய
##ோர
##ததை
##மாக
##டர
##றறு
கா
ஆஙகில
##ழு
##ககள
##டன
ஆஙகிலம
##ூர
##ணடும
##டுதத
##கர
மறற
##ினற
கோ
தே
##ளளது
##வை
எனற
##ிடட
##றக
##வத
##சு
##பபட
##ையும
பா
##னறு
அதி
பல
வரு
##ிகள
##பபடடு
தம
எனறு
வா
##மு
சு
மறறும
பொ
##வும
நில
##மான
##ரிய
##கிறது
##பு
##ோது
தலை
##ததின
##வா
அவர
தமிழ
##ககிற
து
செயய
அமை
##ியில
##ாடட
##னால
முதல
வேணடும
##ளி
##ணை
அவ
பய
##டுதது
அதிக
மூ
பார
தன
சி
##தான
##களில
##திர
பே
வை
நிற
##ையை
தெரி
குறி
##ாரு
சிற
கால
##ணம
##நதது
பி
எனப
##கினற
##நில
##ுமப
தொடர
கே
கல
##ததிய
##ணண
##சார
மன
இட
இது
##ிறகு
சொ
திரு
##தாக
இல
##ஙகு
##டிகக
இர
ஆக
பட
##லி
##ாடு
அறி
ஏறப
##தை
##ேன
##கா
##டடி
##கம
##ரை
போல
##ாரகள
##ரம
##லம
மககள
##ியு
தெரிவி
##ாகக
##ாஜ
##ஙகளில
சேர
##னப
அநத
##பபடு
மேல
##றகு
##ாளர
தேர
##தம
##ததி
தர
அம
##யர
கார
கி
##வடட
##தும
எதிர
##வன
திர
##கை
அரசு
##ளளார
##ளிய
##ணடி
இய
மாவடட
ஆர
இநதிய
##ித
அவரகள
##ிடம
கூற
அன
##ாமல
##ழை
##பெ
##ினர
##ஙகளை
பகு
##டடும
பேர
வழஙக
##தில
##வாக
##ஞச
செயல
##ோம
##ழி
##டுகக
சில
##றறி
செயது
##பர
##லாம
வெளிய
கரு
##வம
வநத
பின
##யில
##சசி
##டைய
ரூ
அபப
##விய
செல
##ளை
##ரும
நான
##னம
இருநத
முனன
ஆணடு
ஆய
சம
##களுககு
தி
கொணட
##விலலை
##ககிய
##பி
##ாது
##பபடும
மது
##பபடடது
ஆனால
மாண
##ெய
கண
இருநது
##லக
உட
முடி
சநத
கை
##ணிய
##மா
##தியில
நே
எழு
தான
ஆகிய
##ிருநத
நேர
முடிய
கிர
##னி
மரு
அல
##ாடசி
கடட
குழ
##ிரம
##ருககு
அள
கடநத
சர
##ாலை
##ககிறது
கொணடு
##ாளரகள
##டும
##ஙகி
##டச
நி
சே
முன
##பபி
##ினை
##ிருநது
மணி
##வது
##ருக
நடை
##ாப
##கார
##ககம
தவ
##ாடடு
##தால
##ததார
##ுடன
நிர
##கும
##ையாக
##ினார
பொரு
வரும
##ளளனர
விர
போர
##ாச
திடட
உளளது
பர
##விடட
மடடும
##ததுககு
அனை
எனன
##கினறனர
பளள
கூடட
சேரநத
நகர
நாள
வாழ
##ாவது
நடி
இபப
##வல
தலைவர
##தர
##டடை
அதிகார
##பபடடுளளது
நிறுவ
டி
சமப
விள
##லா
##வச
பூ
##ாவில
பெண
தொழ
நெ
##வெ
தோ
மோ
##ததிறகு
##ததால
மருதது
தமிழக
உண
உத
##ோடு
நோ
வள
செயத
##ாண
பணி
##ககான
##ைகள
நேறறு
சடட
அடி
##ையின
அரச
##ரிகக
மாநில
அது
##ியாக
##னனை
சார
##ததிர
நதி
விசார
வில
##ககி
##றும
##ேய
பெறற
##ியை
##நதிர
இவ
##டம
மேலும
##திகக
##பாய
##போ
நடைபெ
##னா
எம
##ையான
குறிதது
##ிகழ
மிக
##ககொ
வரை
போடட
அமைசச
தா
##கொ
குறை
நாட
பால
ராஜ
##வடிகக
##முக
சொலல
எனபது
வார
உயர
மக
##ாலும
நடவடிகக
##வுககு
##தே
தேரதல
##லில
##ஙகளுககு
##றிய
தய
##திகள
##ததர
உறு
##பபடுகிறது
நம
##பபில
செலல
மூலம
##ிதத
##சன
##கையில
##டடில
அலல
செனனை
நிலையில
இலல
கிடை
##தா
பதி
இருககும
##ையே
தொழில
##ென
##பபை
இருகக
இனறு
இருபப
கொளள
பிற
##கிறார
இந
##ணடிரு
வநது
மொ
ஒனற
அலுவ
##ிதது
பொது
##ககை
தொட
தெரிவிதது
செனற
##டப
##வரும
நிகழ
தறப
உரு
நர
வாய
##பட
##ிரிய
தேதி
மததிய
##ஙகே
பயனப
இலலை
எஸ
##சை
அனு
பழ
##கோ
அருக
தக
கோர
போனற
##ாவின
படட
பரி
சா
கழ
சூ
##ியம
##களின
போது
##நர
##றகொ
##மனற
##ாமி
பாது
அறிவி
குறிபப
##வார
கூட
தொடரநது
ஆம
ரூபாய
##ககாக
குழநத
வச
##ேஷ
தெரிய
மின
##ஙகிய
தொடரப
##ததம
உளளிடட
பாதுகா
இதனால
தின
##ெலல
எலல
##ோத
##கினறன
##போது
வய
கிராம
கர
##ணடிய
பண
##பபடுதத
##வரை
காண
படி
##ுககும
##பா
##ோக
சஙக
நிறுவன
தறபோது
##மும
இதில
வருகிறது
அக
##களும
ஊர
##பதி
அரசிய
தூ
விழ
அணி
##ையம
போலசார
பாட
உய
##வின
புதிய
##வசாய
தகவல
##டுப
தவிர
##ளம
விவசாய
லடச
வைதது
கடசி
வெளி
##ியா
##யம
எநத
நடவடிககை
திற
நிலை
பத
வேலை
இன
தனது
##ாரி
காவ
பகுதி
##வான
விடு
பெரிய
முககிய
##வாய
இணை
அனைதது
செனறு
##நதி
ஆட
மாணவரகள
##விட
இற
##ைப
எடுதது
##தன
##நிலையில
##ாதார
கலல
##சசு
எடுகக
##பபின
##ேயே
##ெட
##பபடடுளள
இவர
திரும
##றகாக
வளர
எபப
##ஙகை
##பபது
உததர
நினை
குட
நாம
பெரும
##கி
நலல
##ககபபடட
ஆச
அமைசசர
##ததிரு
புது
பேச
பகுதியில
அரசியல
மர
##வேறு
அதை
குறற
##ிஸ
முழ
கைது
முக
அதிகாரிகள
அளி
இரணடு
பிரி
மேறகொ
கொள
துறை
##டக
அடுதத
நிரவாக
ராம
##ககூ
எனறும
##குதி
ஈடுப
பக
##ிரி
காலை
##ததது
வாக
இனன
##ியல
வழககு
பெறறு
##ககில
##நகர
துவ
விற
காரண
##ிடடு
##லு
##ாஙக
##பார
கலநது
##றறிய
சத
குடி
ஸட
விரு
ஆண
அதன
கொணடிரு
யார
##பில
பளளி
விடட
முற
போராடட
கடை
ஜெய
##சசை
முய
முறை
அவரது
தேசிய
##ஸட
சின
உடன
நாடு
பலவேறு
##படி
அலலது
மெ
##லர
இநநிலையில
விட
அழை
##ததான
பணிய
உலக
##ததனர
##ியின
##ககிறார
##மர
##விடடு
ஆகியோர
பொருள
அதில
அமெ
குடுமப
கடடு
##பபா
போலஸ
தலைமை
அமெரிகக
##பபத
அடை
##ொரு
நடநதது
அனும
##வதாக
கம
முதலவர
வருகினறனர
உயிர
விசாரணை
தாகக
மாறற
மதி
ரயில
நமப
காய
நிறை
மருததுவம
அதே
மார
வழி
சிறபபு
##யா
##ககினற
சிக
பினனர
நதிமனற
செயலப
நடதத
##ைக
வல
பிடி
##ூக
நா
அருகே
கலவி
##மன
கோவில
##டியாக
அபபோது
##புரம
ஆல
##ுதத
நாடட
எனறார
##ியுளளது
##நாய
தஙகள
##கன
வெறறி
வடட
தலைம
வகையில
எல
ஒருவர
##ததக
##றகான
##ததுறை
இதன
##ையா
##ரே
மனித
கெ
##தார
##ுடைய
பெயர
நூ
கோடி
நு
சாரபில
மறு
வாகன
##ளளி
மணடும
விஜ
##றறில
##வாறு
##ஷண
##முறை
கோயில
இதை
ஆசிரிய
துணை
##நதார
##ததுடன
பிரதம
##ககோ
##ிககை
##ராஜ
உற
தணண
பாதுகாபபு
முடியும
##வரு
மடடுமே
செயதி
விடடு
கூறிய
கடசிய
உஙகள
உரி
பஙகே
##ததுக
சிறு
பயனபடுதத
பயிற
##தியை
##சனை
##ஙகும
உள
அஙகு
இயககு
நடநத
##வுகள
அவன
##மபர
##ுமார
உதவி
ஆரமப
பொறு
##ாவை
ஊழ
ஏறபடட
சமூக
##சில
நிலைய
சோ
##ியார
கூறு
மாத
##பபுகள
காஙக
கள
எனபதை
##வள
##கிறாரகள
டெ
##ுளள
##மம
பிறகு
திடடம
உடல
வடு
பாக
##பை
மூனறு
கணட
வேணடிய
##ிரஸ
##நாத
##ிலலை
##ியன
##றறை
தயார
தேவ
##நிலை
எனககு
##சம
இவரகள
எனவே
##வதறகு
நடைபெறற
ஒனறு
பதில
புகார
##பபெ
##களாக
பெர
##ிழமை
செயலாளர
##நதுளளது
செயயபபடட
அழ
கேள
விஜய
##ாறு
பறறி
##நதத
ஏறபடுதத
அரு
தேரவு
இருநதது
பதிவு
விஷ
மழை
விவசாயிகள
ஏன
பிரசச
பெய
பெற
பஸ
இலஙகை
லடசம
வது
##ஸவர
பிரதமர
காவல
ஆள
##பபோ
வெளள
##ிருஷண
வெளியே
உருவா
மனை
##சர
ஒவ
இருககிறது
பொதும
விறப
##றைய
##நதர
##நாடு
சுறறு
நோய
கலை
உணர
மாலை
சிகி
##பால
##சிக
##தின
##தியாக
அளவில
##ெக
இநதியா
##ையடுதது
ஸர
முயற
##வொரு
ஆணட
அதிகரி
##ததிற
விப
படம
பாதிகக
வன
##மபெ
கொடுதத
##சல
சிவ
விமான
தணணர
மாதம
மேறப
விளைய
##சியில
காரணமாக
விழு
##ைககு
நஙகள
##நி
அலுவலக
கருதது
பொதுமககள
முனனாள
வட
வரி
அண
மண
அமைகக
கேடட
சக
##குமார
நல
##மபு
##ககல
பெணகள
ஆதர
##ுககான
##ியுளளார
வேறு
சரி
##ெலலாம
##மே
கடும
மனு
காஙகிரஸ
##ிகளில
##பபாக
உளளன
மணிககு
திருபப
விழா
##பபடை
##சாமி
##ியும
ஜி
பாதி
##பரகள
##ரோ
அதிர
முழுவ
படை
கணடு
##ததினர
##ததல
ஜன
##தாவது
##பே
##ஙகம
##தாகவும
தனி
இரணட
அதறகு
குறிதத
மிகவும
முடிவு
##ககர
##ியுளள
சொல
போய
இரவு
அளிகக
##தலை
குறிபபிட
##ாஸ
போககு
சொனன
கிட
போன
ஆன
##ததும
வைகக
மாவடடம
சூழ
##ஙகளின
##ூரி
சன
சாலை
##ெல
தலைமையில
கவன
ரோ
தெரிவிததுளளார
##கால
இஙகு
##டடம
##குதியில
ஆயவு
தொடரபாக
இயகக
ஆயிரம
புற
##ததையும
இறு
இடம
கன
மதுரை
##பபினர
கழி
##போல
மல
திருமப
ஒவவொரு
##குறி
மி
தாய
##ிருககும
சுவ
கேளவி
மருததுவ
##னு
இனனும
##ததகக
சிகிசசை
நன
விரை
வயது
பொருட
##படட
குடிய
சரிய
நடநது
##ிலல
செயயும
இண
மாவடடததில
##ரகளுககு
எதிரபார
முடியாது
மை
அட
எபபடி
##வியல
தேவை
##ாடடில
கணண
வகு
பயிறசி
##கலை
##களையும
##பபான
செயதனர
##ியது
##ணர
கேடடு
நேரம
இழ
சால
##ேச
இடஙகளில
##வேணடும
சிகக
##கிறேன
##ஞசி
மகன
##றறும
##பக
ஜெ
பகுதிகளில
ஏறக
##வுன
கூறினார
ஏறபடடு
இள
##ஙகளும
##ததுளளது
##ேரி
இபபோது
அவள
##ியான
வேல
புல
எணண
தனியார
##ேக
##னையில
முழுவதும
நிதி
குழு
குழநதை
##ிருகக
##ககுள
போககுவர
தாககு
##ாகும
வாஙக
##நதுளள
காரணம
##ஞர
விலை
##டைநத
தடை
பயணி
##ததன
வநதது
##ாணுவ
##ினால
##றையில
செலலும
##லகள
சதவத
##டடர
கத
##ூரில
இளை
##ூன
பிள
வடி
பாரகக
தெரிவிததார
பணம
##ுமபோது
திரை
அவரை
வடடு
##ககார
##ோதனை
வடடில
##ிககொ
##ககால
##பல
##ககிறாரகள
மணட
பலர
சுக
இதறகு
##ரகளை
டிர
அமர
கொடுகக
ஒரே
கொலை
##ாகவும
ஊழிய
##வாத
நாய
இடததில
மேறபடட
##நாள
##கூ
தநத
கிள
மைய
##ஙகா
பேசிய
பாரதது
தொலை
வின
##லகம
உடபட
##டுதல
##மைய
ஈர
குழநதைகள
விறபனை
உணவு
நண
விய
தமிழகததில
ஒது
கலலூரி
ஈடுபடட
##வரி
கேர
உறப
பெருமப
வலியு
தெரிவிகக
கடல
##வதை
முயறசி
வாயபபு
##ுமபு
##ரகளின
##ததா
மேறகொளள
வாககு
மகள
##தோ
##ாளையம
##நதன
வலியுறு
##விழ
##டுததும
சாத
ஊராடசி
##ாகி
##ககே
##ாளும
தாம
தஙக
##டசி
கோரிககை
இவவாறு
எவ
##சே
செனன
##ஜின
அடிபபட
அதனால
வரவே
##ககெ
விதி
குள
இபபடி
##ாயம
அவருககு
நியம
##டுபப
பலகலை
நாக
காதல
எனனை
இடமபெ
##னின
இதுகுறி
குடிநர
ஓர
இநதப
அடைய
கூடடம
##ததொ
ஆப
கொடுதது
அஙக
##கே
எஙகள
##வதால
##பபர
முழு
ஆலோ
முகாம
##ஜி
குர
எலலாம
##னாதி
மறை
##ாளி
திமுக
வேடப
பதவி
காடட
##ாளிகள
##ணா
இனற
##ிதா
எனறால
சப
##ோல
உசச
நிறுவனம
##ிஷ
##பபாளர
உளளனர
##வுடன
##விடடது
##ினும
பாத
##வாரகள
நிகழசச
மூல
சமபவ
போடடி
அனுமதி
##ாகு
ஜனாதி
கோவை
தொகுதி
தாககுதல
##தததில
தல
##ஙகல
இடை
காம
வழகக
##தேச
##ாளுமனற
நேரததில
தரமான
##ேஷன
##ைச
போககுவரதது
இதுகுறிதது
கதை
##வரகளுககு
வஙக
திருவ
அரசின
தனன
நானகு
##டுககும
அனுபப
##கான
##ததிருநத
##ஙகர
##ுமி
பெரு
எணணி
கிழ
ஜெயலல
தள
அணண
##சசல
நிறைவே
தேரதலில
கூறி
மாநகர
ஜோ
இதையடுதது
##டியே
##பாடு
##ாணட
படததில
##ிருககிறது
பறறிய
பாஜ
##ிபபு
பொலி
சுகாதார
##பபம
திட
##வித
##ூல
##கிறோம
நாஙகள
நெரு
நடததி
##றறம
மனைவி
சொநத
போடடியில
##வால
##ழிபபு
பகக
தொடரபு
##மபி
இதனை
##கினறது
##ிஸதான
எது
##நதனர
##ததககது
##ேல
இதே
##டா
போடடு
##வண
மருததுவமனை
இணைய
பறி
வசி
##ஜர
விணண
தணட
அணிய
##ிருநதது
ஏறபாடு
டாக
புரி
வேள
##கல
புர
##ததனை
பாரதத
உறுதி
##ாடசிய
கில
மோடி
மேமப
பூஜ
##ிருபப
ஆடட
நிறு
##ிம
கிருஷண
##செய
##ாடி
வரலா
சுமார
நடிகர
##தறகு
அதிமுக
வருகிறார
எதிராக
தாககல
தெரு
அருகில
##களைப
ஓடடு
##ஞசம
##ததிக
தரு
ஆயிர
##சசர
##யூ
##வளவு
உரிமை
இதுவரை
அதிகம
##டியோ
ஓடட
தொடஙக
##களைக
##ெனற
கூடுதல
பஙகேறற
ஒனறிய
திரைபபட
##ேநதிர
கைய
##டியில
காடசி
ஏர
##பபே
மகிழ
##கததில
சினன
அமைபபு
மான
##ததிரம
உறுபபின
அரசாஙக
புக
பரிச
பாஜக
காலததில
அடிபபடையில
ரன
யோ
##பபடடுளளன
##ககளை
சேவை
நிய
தயாரி
அப
ககும
ஆசிரியர
அச
##டுகிறது
பன
ரெ
##மைபபு
இயககுனர
விருது
கடி
##வோ
குறிபபிடட
முனபு
கேரள
பணிகள
ஒபப
ஆடசி
வக
##றவு
உணம
பரு
ரா
அபபடி
மதத
எடுதத
##ஷட
##கஸ
பை
##பபடடன
பகத
##நாட
##ிறது
##ுறை
##ுத
##ிலும
ஆகும
இலலாமல
##ியே
இனி
கமப
வித
பஙகு
##ககொளள
விருமப
##படுதத
ஏறபடும
உயிரிழ
ஆறு
மககளின
பததிர
யா
செலு
கிடைககும
##ுககாக
##ாணடு
போடடிய
##நாடடு
பிறநத
சான
வான
சை
டெலல
##கொளள
சாம
பெறறோர
##ாரம
குறிபபிடததககது
##பாக
கலெக
கடசியின
குழுவ
வெளியிட
##களிலும
வண
##ககையில
ஜனாதிபதி
##னஸ
உடை
பொருளாதார
முறையில
கிடைகக
நடததிய
##பபடி
செனனையில
பெறு
புதுசச
##சா
முருக
##ழுது
எரி
வருட
##ையர
##சியம
##பபாடட
##ததுளள
மாணவி
##ாலி
##ாததால
சூர
##ானது
##எஸ
##வகார
கடன
உறுபபினர
பாகிஸதான
பேரு
##பபாகக
##ததைச
அகக
##ிடையே
மருததுவமனையில
அறிவு
போராடடம
##ியோ
சேரநதவர
இநதியாவில
மாதிர
இலலாத
##ினறி
குரு
##ககுப
##ையால
##ககழ
##முதல
கூடடு
நடு
ஆடசிய
##காணி
##பபும
சரவத
உர
தலைவரகள
பிரிவு
அபி
இநது
திடர
##நு
உணடு
வஙகி
தமிழநாடு
அவை
கூடிய
##லிம
அதிகாரி
##ததிலும
ஆராய
##நதம
ஓய
எனது
அவரு
சிலர
நிறுதத
கணகாணி
அழைதது
வழியாக
##டுபபு
எனவும
வேணட
நடககிறது
##தினம
ஏறறு
சரவதேச
##மி
##வைய
சும
விடுதலை
ஆழ
##பபன
##வோம
##ககிறேன
##ததுளளார
##கொணட
அதனை
படு
##ககினறன
மாறறு
பணியா
##ிககெட
பயன
##றறின
கூடாது
##ிலை
குமார
விரி
##வியை
வளரசசி
பேசச
##ுஙகள
அனுப
சிறநத
ஐநது
##நிதி
விளையாடடு
##ககொணட
##விரு
விஷய
##னனு
திருமணம
இறுதி
##ேஸவர
இணைநது
அவரகளுககு
சொலலி
அனறு
பற
##பபடுகினறன
##ததைப
##ததிடட
நாளை
மூனற
மககளுககு
செயதார
##பிடி
மாடட
இஸ
##துறை
அதனப
##பபிடடு
மட
##மானது
##ாவும
முதலில
போலஸார
##ரிடம
##ஷன
##லலை
உடனடியாக
வழககில
அடையாள
நாடடு
##புர
எழுதிய
வகை
விளை
விவகார
##ககண
முஸ
உப
வெளியிடடு
வருகினறன
ஆகியவ
ரசிக
##ாநத
பிளள
புகை
ஜெயலலிதா
##றையினர
அவரகளின
கவி
##றகும
அழு
தொகு
##பபுற
செயயபபடடு
##ேகம
##விடு
##ாசிரிய
##வதிலலை
குமப
அனைவரும
##ானம
எனபதால
##ஙகியது
வசதி
திருமண
##ஙகளாக
காடடு
சமபவம
பஞச
##வதறகாக
##பபாடு
கணடி
அதிகமாக
அமமா
##ினறனர
மாக
கூறியதாவது
தொடரபான
நதிபதி
##கரன
பிரதி
நடைபெறறது
உறபததி
கலெகடர
சுத
##டல
குறைநத
கூறியுளளார
##ஞரகள
##ஙகளையும
மலை
ஒதுகக
##வையில
விடும
##ூரததி
பொலிஸ
இலஙக
உருவாகக
இருவரும
தோல
##விடடார
முனப
பாடல
மற
வளாக
கூடடணி
ஆலோசனை
நிகழசசி
சேலம
விரைவில
எதிரபபு
தட
முடியாத
அணை
##பம
அந
ரஜின
ஏறபடடது
உரிய
ஆஸ
##ததைக
அடிகக
பிரசனை
##விடும
கரநாட
வகுபபு
மோச
இசை
வநதார
##பபடவிலலை
பிரதேச
##வலை
ஆகக
##ிருககிறார
அசச
வெள
பணியில
ராணுவ
மத
##ியுடன
சோதனை
கூடடததில
சுர
##பபிர
பினன
##பபதி
அளவு
தென
நமது
இயல
அறிவிகக
எனனும
கிலோ
##ஞசு
##நோ
வடடார
##ககூட
##ைத
தவற
சநதிர
##வநத
##தியின
நகை
##ிருநதார
அற
கூறுகையில
வெஙக
அணு
நிம
##னில
விபதது
முழும
நிறுவனஙகள
##ககினறனர
இறை
பலகலைககழ
##ாா
திக
முனனே
மொழ
காலம
அலுவலர
விவர
##ியர
ஊடக
அனுமதிகக
##ினி
அமப
விழிபபு
##நுடப
இருநதாலும
இலவச
இருநதால
காநதி
நகராடசி
வெளியிடட
அறிய
நாடடின
அடுதது
##டுகள
எபபோது
மொழி
##பபதறகு
##ககூடிய
மாற
அறிககை
ஆணடில
இயறக
##ளவில
நெடு
கொணடனர
##தையும
முனதினம
பழைய
கும
##தியான
##தொ
படததின
பிரபல
##ையுடன
நணட
உன
அரி
##ேட
குறு
சாலையில
நோககி
வியாப
நாடாளுமனற
இநதக
##வோர
கூறபபடுகிறது
மனற
##வரகளை
வரரகள
தேடி
##வருககும
எசச
##னவே
##ஃப
மனன
விமர
தேவையான
##ணரவு
பரபர
அய
##நாடடில
##வேல
பாதிககபபடட
சதவதம
மரம
##காக
##ெடுகக
தினம
செயதிரு
வெடி
நகரில
##சசிய
##ோன
##பபடுதது
##ணடை
##குநத
##சாலை
##டடிய
நிரவாகிகள
இடையே
##டியும
##ககொணடு
##வதில
##ெனறு
வாழககை
தொழிற
தொகை
நிரவாகம
முதன
##ிப
##கமாக
தொழிலநுடப
அறு
##பபிகக
சநதிதது
##வதறகான
அவரகளை
அதிபர
ஈடுபடடு
எனபவர
##ிறு
யு
##ளிகக
பொருடகள
தெளி
அனுபபி
தறகொ
பராம
யான
ஆதார
##ோட
##ொழி
வாட
வடியோ
நாடகள
போக
உறுபபினரகள
##ாநது
ஏறகனவே
நின
முகம
நாடடில
எலலா
ஊழியரகள
யாரும
ரயிலவே
எழுத
##ததூர
நடககும
கலலு
சுய
##ோடட
எனும
கிரிககெட
##ியுளளனர
வருவாய
##ததுப
போட
மேறகு
##ளளன
நதிமனறம
##ூரவ
##ினறன
புததக
##ரன
குறிபபாக
முமப
உருவாக
வாஙகி
கிற
செயறப
பிரசசினை
பெணண
டாகடர
இவை
தறகொலை
ஏராள
மொதத
புதுசசேரி
##தள
##ஙகளிலும
##ககபபடடு
##கடர
நனறி
கொணடிருநத
கருணா
கடவு
ககு
##ணடர
அனப
கனன
மடட
##ேசன
ஏறபடடுளளது
##ாமன
பயணிகள
##நாதன
##டசிய
ஸடால
அலுவலகததில
நவ
நடைபெறும
தொழிலாளரகள
எதுவும
எளி
இலககிய
தெரிவிததனர
சேரதது
##பபிடி
நடிகை
##ிநத
வலை
##தததை
ரொ
சிறி
பளளியில
மததியில
அநதப
உணமை
பகதரகள
##பன
நிறைவேறற
##ாலையில
##டிக
##ணியில
குறறம
##மாகும
கேடக
##திலலை
##ுவார
ஆளு
மருநது
சித
முஸலிம
##வாதிகள
இயககுநர
சடடம
##கையை
##ிலலி
தெரியும
மிர
சேரநது
ரோடு
##பான
திருபபூர
மினசார
மாகாண
ஒளி
தரம
செலுதத
பஙகேறறனர
##ததுவ
அறிவியல
##ரா
உளளார
நிலையததில
மாணவ
பழனி
##நததால
வெளியாக
அளவுககு
சகோ
வேணடாம
சமபநத
பாஸ
தடுகக
தரபபு
##ுவை
வைததிரு
வைர
##வரகளின
தளள
ஆணடுகளுககு
பாதிபபு
##ாதி
நணபரகள
அறிமுக
##ககிழமை
##பபிட
வேளாண
சநதி
தினமும
மனம
##யல
கொலல
##தறகாக
முறையாக
சிறை
கவுன
செயயபபடடது
##சக
ஒழு
##ளளதாக
ஏறற
##நாயகர
கணி
காயம
##நதிமனற
##ையோ
எதிரான
தமிழகம
நுழை
விச
ஆசிரியரகள
தனனை
##கடட
##தியம
யாழ
வேடபாளர
வழஙகும
##பபார
திருந
##ககிறோம
குவி
கமல
##பரம
##டோ
##கிரி
நடதது
##களால
விசாரண
பெஙகள
திருசசி
ஆதரவு
##வேன
பேசி
வகி
உல
##வருககு
ஒபபு
மாதிரி
கவர
##டைநது
இநதியாவின
கழக
மாறி
புரிநது
தூர
பூஜை
நடகக
##தாய
எணணிககை
கறப
நதிமனறததில
அளிதத
##நாயக
##விர
##களைத
பரிசு
##தரி
கோல
உஙகளுககு
சகதி
##ிறறு
நிறைய
##நதில
பயஙகர
ஆணடுகள
வெறற
புகைபபட
கைபப
##முகம
##வழ
தரும
வாசி
##பிர
உதவிய
தரவு
நியமிகக
நடிகக
ஆணடுகளாக
##ருககும
##ழுவ
ஸடாலின
பணண
அதாவது
##ககா
##மைசசர
சாரநத
##ுவன
கொர
##ததுககும
இவரது
இரணடாம
கான
வரர
##போன
##ககுழு
பயிர
இருபபது
நூல
தகவலகள
சிறையில
##கூட
சாய
டெலலி
மாணவர
விததிய
மாநகராடசி
சிறிய
புகழ
தொடரபில
##விறகு
பகுதியை
குறறசச
வடிவ
கொஞசம
நமபிககை
ஏராளமான
விடுதது
பொறிய
##றையின
அவசியம
பேருநது
##திக
பேசசு
அடிபபடை
மாநிலம
தெரிவிததுளளது
கடடி
##விழா
கேட
அலுவலகம
##பபதாக
அனன
கிழககு
சுதநதிர
ஐககிய
##ஸபெ
பாலியல
##வாள
##யததில
கொணடாட
ஒருஙகி
##ையொ
விழாவில
பகிர
சுவாமி
தொடஙகி
போதும
##நாடட
சடடச
சிங
தரி
பாரவைய
##றபு
##படச
நிலையம
சிநத
மணடல
பததிரிக
செயலர
எனக
ஒருஙகிணை
##பபிய
எனகிற
வடககு
அழி
பெறும
நினறு
இச
##ாகப
##ரசு
ரி
##கிய
##ிடு
##ராஜன
##விடம
செனறனர
##ததேர
நாடுகள
##பபணி
ரசிகரகள
மூதத
##ாலு
##ணும
அஞச
படிகக
##ாசன
கமிஷ
##ுள
விதிகக
பேசு
நினைவு
மஹ
திறன
கவுனசில
தமது
##ாசிரியர
பிடிதது
துபபாகக
நமம
செயதிய
குறிபபிடடு
நடைபெறறு
கடவுள
விடடது
##ததே
##ததுவம
சமபததில
வநதனர
##ாலான
##எல
இனறைய
##ாமா
##ததகைய
##பாளையம
படததை
மதான
##மையை
இரணடாவது
பயணம
##ககபபடடது
##ணமாக
இஙகில
அலை
அமெரிககா
துர
மாறறம
வணி
கழிவு
இபபட
உததரவு
அரசுககு
##சசியில
விழிபபுணரவு
தெரியவ
தணடனை
படடு
நெடுஞச
பிரே
##ிமா
நனற
சஙகம
நார
##ிககிழமை
##ையாளரகள
இராணுவ
இம
##படடு
செயவது
ஆககிரம
மொததம
##றித
##ரிபபு
நமககு
##ததிலிருநது
##நேர
உணட
ஆரபபாடட
##வுட
##ாகவே
நெருகக
##ணன
வாகனஙகள
பாய
விழுபபு
உரிமைய
ஈரோடு
ரக
மய
மேறகொணடு
டிச
##ுவது
மகளிர
நபரகள
நிசச
காஞசி
ஆதி
##பவரகள
தோனற
மதிபபு
இடமபெறற
ராகு
திருதத
பேசினார
வாரததை
மாணவரகளுககு
ஜூ
முடியவிலலை
##சசியை
பாம
இருவர
##லுககு
தேரநத
வழஙகபபடும
##ாடசியில
பெயரில
அணணா
வெனற
கவு
மச
ஒனறை
##கொணடு
##ணு
##ெழு
முர
அலுவல
##ததலை
படடிய
மழ
மாணவிய
##ூப
உடனே
திறநது
பெருமபாலான
##லுார
ஏறபட
##ககையை
அநதக
தொடகக
எட
மேறகொணட
பயனபடுததி
அவருடைய
விததியாச
##சனம
##யன
செயயபபடடுளளது
கரநாடக
##ககபபடும
எனினும
டை
##புற
முடியாமல
ஏமா
முனனிலை
கொணடார
தநதை
மையம
அடிககடி
##திரேல
நபர
வாகக
நாடகளுககு
அபபா
புதி
##வக
இருபபதாக
சுறறி
ஆவண
##ிரா
உறச
##தியும
ரதது
இநதத
##பபடுததி
செவ
##நதிரன
தோடட
வகிததார
மணிய
அனற
##ாதம
விளககம
விகக
##ிங
##ளவு
கோடட
##திலும
வலியுறுததி
ஆநதிர
டே
பறிமுதல
##பிள
நினற
##ததிறகும
தப
இருபபதால
##ிருஷணன
##களுடன
##ககொள
வழஙகி
##ோதைய
திணடு
##டரகள
பயண
சென
சினிமா
புன
பலல
வைததார
##ககூடாது
செயதது
##டடார
சநதேக
##வியில
கிறிஸ
##ஙகலம
##ாரிகள
ஜூன
ஆணைய
சாதனை
வலல
தூததுககு
##வாளர
ரம
##பபடடி
திகதி
ரவி
##ஙகக
எஙக
உலகம
நியூ
##விடடால
##ககணககான
குடியிரு
சுறறுலா
சமு
##பபடடார
முககியமான
##பபதிவு
##ிலலியன
நிகழசசியில
சொதது
##ாதை
##டஸ
##ிலிருநது
நதிப
பயனபடுதது
பரிசோதனை
பேசசுவார
##களைச
துவஙக
##நா
பினப
தெரிநது
தடுபபு
##ணடன
##றையை
தார
##பின
பேரும
சமர
##ஷம
கடைசி
##ாவல
அமைநதுளள
பெருமாள
##நதால
##மாகவும
##ததிரை
டிரை
நடததினர
அமமன
பிடிகக
##ையாது
வாழதது
வரததக
கொடு
அகறற
பநது
##றறிலும
மேறக
அவசர
##மபரம
கையில
பிரிவில
##வதும
இதறகாக
##ஙகளைப
இருநதார
கடடும
##வாதி
நடவடிககைகள
##ாபா
சிரம
சிர
##டாக
காவிரி
பச
##ஷா
அறை
##பபளளி
பாவ
தரபபில
##ககரை
##ரின
போராடடததில
பககம
தவறு
மடடுமலல
##ககோடடை
சிறபபாக
தஞச
செலவு
எணணெய
##ததைத
இளைஞர
நடிதது
ஜே
தஙகளது
வருமான
கோரி
நவன
லோக
விழுபபுரம
கிண
தெரிவிததுளளனர
##டியை
கலலூர
சரியான
அறிவிபபு
##ககடட
சிஙக
##பபெண
##நதா
கடடுபப
தலைமையிலான
அருள
##களுககும
வைதத
##நதை
##ொனற
##ிகளின
ஈடுபடடனர
தெலு
##னும
பிக
##தாம
##வதாகவும
வரையில
முனனர
வால
ஆஜர
##ககுமார
##ததினார
முயனற
இருககிறார
முதது
கருத
முனனிடடு
இருககிற
எழுதத
##ஸதான
##ிகர
எதிரகக
நடைமுறை
##படடி
ஒலி
கிராமததில
நிறுவனததின
கழே
##வினர
அஜ
மரிய
கழு
பிரசார
அரை
##ையாட
தயாரிகக
##ாவிறகு
##சசார
##ககுறி
மககளை
மகா
##ழல
கடடட
சவு
தொகுதியில
எவவளவு
வழககறி
உறவின
பலகலைககழக
காபபா
தகுதி
சுடட
திருவளள
அதிகரிதது
ஒபபடை
ராஜபக
இஙகே
விசாரிகக
கொழ
எலலை
ராஜா
பரிநது
திடரென
##ககலாம
##ாடடி
##தாப
##ாசசி
##ாயவு
##றகால
##ையொடடி
##யின
##ாககி
##செல
கிடையாது
நாடகளில
மணல
வெறும
நிதிய
ஊழல
அவறறை
கடடணம
கொளகை
##ஜா
##நதிரம
##வேளை
உளபட
##டடியில
எலலோர
ஓயவு
முருகன
கிளை
மறறொரு
கரை
விளையாட
நாளில
##ககபபடுகிறது
கலா
இடையில
சானறித
##ஸடர
##தொடர
முமபை
##ரிக
பொய
இனனொரு
உளளே
##ததத
##டடா
ரே
வாரம
பிரச
##வாதம
##பபிடு
போடடிகளில
இயறகை
##ெனறால
பவு
சேக
##ையையும
##பபதை
##ழில
##வாளரகள
சாதார
உழை
தவி
கருணாநிதி
##பிடிகக
மாரச
##பபதறகாக
சபை
தெரிகிறது
செனறார
களள
##வைத
அலஙக
அனைததும
பறற
தகக
##டிகள
வசூல
யூ
வழஙகபபடடது
இழு
##ரகளும
சனி
பொறுபபு
இசச
முழுமையாக
##ினம
ஒரும
குணடு
##ருடன
##மலை
திணடுககல
##நோய
ரனகள
##ையைக
பரம
முதலமைசசர
வைததிய
பெரி
குண
தனககு
பெடர
அறிநது
நமபிகக
தெரிவிககபபடடுளளது
##ிகளுககு
##விடடர
##ையைப
##ததிரி
நடைபெறு
ஆயிரதது
##பபாடி
அதேபோல
##நிற
##ாககம
படடா
##ையல
வளாகததில
##பெரும
இளம
##ிததனர
வழியில
வசதிகள
எசசரிகக
##பபோம
மறிய
இனஸபெ
##ஜன
##புரி
பேரில
மணண
தை
குற
மிகக
செயலபடுதத
அமல
நடைபெற
##ெனட
பணியாளரகள
விளகக
##றறார
##ஷேகம
அணியின
மஞச
கொளளலாம
நிவார
##பபிரம
குபபை
##ககொணடிரு
பலரும
மாநிலததில
ராகுல
##ானஸ
##ியமமன
##மார
##பபால
முது
வலி
வடடுககு
##ிடும
துவகக
##முளள
பணததை
புதிதாக
##நடை
தெரியவிலலை
காததிரு
சடடசபை
நிரண
எழுதி
கறறு
தெய
அதறகான
உததரவிடடு
எழுதது
##ாககு
##னறி
##ஙகோ
பொலிஸார
குறறசசாடடு
சசிக
கூடடுறவு
கபப
##மைகக
##துர
படஙகள
சல
கணவர
பில
##வடை
தமிழர
கணடுபிடி
ரதத
##ாஹ
களை
##வறறை
##லலி
கணககு
வாலி
குளிர
சநதோ
விபததில
இருககு
##ிடமிருநது
ஆகியவை
##வெளி
தெனன
##ஷமர
கடிதம
இளைஞரகள
மாறு
மூட
நூறற
மிகபபெ
அதனபடி
கரூர
கலலுாரி
கவலை
தமப
##பபூர
அறிககையில
##ூரு
சாகு
##பபுககு
##செயய
கமயூ
சகோதர
##வதி
அமைநதுளளது
##ோககிய
கணககில
வணிக
ஒதது
எடுததுக
குரல
அததுடன
மடடர
##ையன
அதிகமான
பெறறது
##ிருநதனர
##பபடடனர
நேரில
அமம
இலஙகையில
தூததுககுடி
எபபோதும
##நததாக
##ாதே
##சையில
மூலமாக
கவிதை
நோகக
எஙகளுககு
##பபடுததும
மலைய
சானறிதழ
நிமிட
தெறகு
ராமநாத
ரசி
படடியல
##சூர
செயயபபடும
நிறுததி
வழககம
முனவை
நாடகளாக
##டசுமி
கிடட
ஆயுத
மாம
செயதுளளனர
பொளள
பொருதத
விதை
மனவரகள
ஞாய
சேதம
நடிதத
##ஙகுகிறது
##ெனில
அமைசசரகள
கோவிலில
திடடமிடடு
##ததினால
காஞசிபுரம
அஙகே
##ரிமை
##கட
சநதிகக
அபபடியே
ஏககர
பிரதான
கடற
தாஙக
செவவாய
லாரி
ஏபர
பணிகளை
நடச
முடிநத
##பபூ
ஆஸதிரேல
சிலை
நடிக
##ததுளளனர
##ஙகளைக
சூழல
செயதிகள
மிகுநத
##ளிக
##லூர
வாடிகக
கடநது
தாழ
மதுர
அரசாஙகம
ஆணகள
பொருடகளை
சறறு
பொதுவாக
##டியான
இஸலாம
சமபநதபபடட
எனகிறார
தனனுடைய
தேச
பதது
##வராஜ
காடடி
தமிழில
பரிநதுரை
##சசியாக
அடைநத
##நாயகக
சிவக
அனைவருககும
##போனற
##சசூ
##வாற
போனறு
முனனதாக
ரஜினி
டெஸட
கிடைதத
ஹரோ
அடிதது
ஹெ
தெரிவிதத
##தாஸ
உணண
விசாரணைககு
ரஷ
விந
படைய
##வூ
புளள
வைககபபடட
சடடமனற
மதிபபெண
##சசெய
மாவடடஙகளில
டிசமபர
##முடிய
கடடுரை
இதறக
##கொள
மாரக
விளககு
##டடின
காரததிக
அனபு
காஷமர
##பைல
படிதது
##னுககு
எமது
மேலநிலை
நாடுகளில
முனனணி
அவரின
##ஞான
கோரிகக
எததனை
கொணடே
பேருககு
காலநடை
எதிரதது
##ொழுது
எதிரகால
பேசசுவாரததை
அபாய
சரியாக
##பபதால
வதி
ஜூலை
##கோர
திடடததை
வெகு
சுரு
ஞான
செயதுளளது
புதத
ஜனநாயக
கவனம
ஆடடோ
இஙகிலாநது
இறநது
அறிநத
##வையும
துறையில
ரொமப
ஐரோ
கடசிகள
##ுகக
##ிடடி
பாராளுமனற
ஆளும
துபபாககி
தொணட
தாலு
முட
கடடண
நொ
##லின
##ததோடு
பஙகள
##பபடடுளளனர
திடடததின
ஏழு
##விகக
விநாயகர
செயதால
##வரின
பககததில
இடி
மைதான
போடடிகள
வநதால
நதிபதிகள
இனஸபெகடர
##வரம
ஆறற
##கரம
##கிழமை
காள
##கரை
இதனப
##ாபி
பனனர
பொஙகல
சிறிது
இணைபபு
களம
பான
ஆணடுகளில
கேப
இருககலாம
புரிய
சிஙகள
அடடை
ஜான
மரண
பிரசசனை
அவதி
சினிம
ஈடு
மினன
மிகபபெரிய
அறிவுறு
கடுமையாக
##பபாளரகள
வெளியான
நானும
ஏறபடுததியுளளது
காலவாய
அஸ
பேரூர
உளளாடசி
ஓவிய
##ுமான
##ாணடில
ரோடடில
பேடடி
மருததுவமனைககு
துணி
##ததுல
இறநத
ஒனறில
ஆனாலும
ஏபரல
##ையோர
யாரு
##ோனா
எழுது
அமைதது
சூபபர
தலைய
##பபிரமணிய
இளைஞ
##ககுத
தியாக
##ேசிய
பெடரோல
##கிறான
தேனி
##நதிய
வாழும
##ககிள
##ொருள
நேரடியாக
முதனமை
அதிகள
வாரடு
குழாய
##ேநதிரன
##ாஜி
சமய
உடபடட
விருமபு
செயதியாளரகள
##டோபர
அளவிலான
##பபடடுளளதாக
##டடல
ஆசை
##பபடுகினறது
##பொரு
##ஙகளுடன
இருபபினும
##ததியம
தபபி
வியா
##ுளளார
உலகில
பாணடிய
இதறகான
முனை
கடறப
##னையை
##பபகுதியில
புயல
##றது
நனறாக
படடியலில
மெய
மோடடார
##பாஸ
##சின
மாறறி
சண
வேத
ஆரோககிய
மணியளவில
##ுக
கொளளும
அவரகளது
தகர
##ககவும
தஙகம
##ாணமை
##வுளள
வேற
டால
உளளிடடோர
தலா
வழஙகிய
சிககல
விலல
வேணடு
பஙகேறக
எடடு
அடையாளம
காங
கணக
நஙக
இருககினறன
இநதச
##மாகி
நிலம
டர
##வராக
##மையான
பேரை
பாரககும
மலர
நவமபர
வேக
உடைய
உயரவு
ராய
வயதில
ஏழை
##பெறற
அடட
##ததொடர
எனறாலும
சுநதர
வாரிய
##யோக
வெஙகட
##மபடடி
கலலூரியில
வழஙகினார
செலவ
##ுமலை
கொணடது
யூன
மறி
திருவிழா
##ெடுதது
ஜனவரி
##ானா
பாராடட
விணணபப
##போர
சுபரம
அவரிடம
##ககுச
மோதல
##கோவில
எகஸ
கரும
வற
படிதத
##ாமலை
சட
##ிககும
செயலபடடு
ஆனம
விசாரிதது
விஷயம
##ிராம
நாராய
##ியோக
##ினாரகள
பொளளாசசி
காரை
சநதிதத
ஏரி
##ிருபபது
விசாரணையில
இததகைய
##திரு
வாயில
செபட
பெஙகளூரு
அபர
##ாடடம
எடட
##தய
மடக
உதார
வேலூர
அவத
##வாகக
அதிகாலை
##ாதது
##பபேர
பலதத
பாராடடு
படுதத
அகில
##வேலி
##ையாளர
##விநத
லி
நெடுஞசாலை
முறறு
பிரம
##ததிறகாக
தமிழரகள
ககள
தலைவராக
மொபைல
பலன
சுறற
மடடு
விழுநது
சமுதாய
வெளியில
##ையெலலாம
நணபர
ஆராயசசி
##வினை
##நிலைப
ஹை
தறபோதைய
ஆரவம
##நல
##வாசி
முடிநது
மிலலியன
மதியம
##பபோர
ஒருநாள
புதுட
##பபடுவது
லாப
##தாகக
##ிருநதால
பேராசிரியர
உதவ
##ரிதது
நெல
அருண
இலலாததால
நலலது
சிதமபரம
முத
சநதேகம
உணமையில
குறைநது
அழைபபு
ஆளுநர
பநத
##டடுகள
##பபதில
##ாதா
சிபி
முடிநதது
யில
எனபதே
விடடார
##ுமபடி
##ையைச
மாதததில
ஆவது
##ூட
பள
சாபபிட
இடைய
##ினேன
##காரம
ஆரமபிதத
மனோ
மோகன
தினகரன
கேமர
பொனன
##பேடடை
பொறுதத
கடுமையான
முழுகக
ஈழ
காயசசல
லே
##ிடமும
விபர
தறகால
இருககிறாரகள
பளளிகளில
சுரேஷ
##வாழ
பகுதிகள
உளளதாக
##ததள
தயாராக
எதிரககடசி
உறவினரகள
##டடுககு
முறறிலும
மாய
ஏறபடுததி
சனா
பலி
வேலைவாய
குழுவினர
வைததிருநத
##ிறகும
எனனுடைய
தொலைகக
சாதாரண
கதிர
ஆணையம
##தாகும
ஆனநத
பிளாஸ
திருமபி
வருகை
ஏற
அஙகிருநது
பருவ
##ததாலும
நிசசயம
லை
##பது
##ூலம
##ணடல
##விலல
அவவ
நிரு
சிவா
வருவது
##யும
நேரஙகளில
##முதது
ஆகவே
##ாகம
மரணம
டிவி
ஏதாவது
ஏதோ
குல
கமிஷனர
அணம
விருபப
கொல
நமமை
டாஸ
##ககளில
குடியரசு
வேகமாக
மயில
அசசு
ஓடி
பணடி
சிதத
##வுளளது
பெணகளுககு
வடடிறகு
எடுககபபடும
##நலல
போடு
##மல
##யிற
திடடஙகள
முககியததுவம
பயிறசிய
புனித
##ையு
அலுவலரகள
நிறைவு
அவனை
தனியாக
வழஙகுவ
தானே
சசிகலா
##பபிரி
விளமபர
வருடம
கேபடன
வெளிநாடடு
தேஙக
கோயிலில
அதிகரிகக
உலகின
##பூர
விஞ
சரவண
##ியூ
அபது
##வுகளை
தலைநகர
ஒதுககடு
ரேஷன
படபபிடி
செபடமபர
முறப
எழுநத
##பூ
செயலபட
டன
படஙகளில
தெரிநத
தெரியவநதது
நடசததிர
வழிக
தாஙகள
##கொணடிரு
போலி
##வரகளில
கடலூர
##ியுளளன
##முடைய
தூககி
போதிய
உளளூர
போத
போராட
கிடைததது
உறபததிய
ஆடி
அகடோபர
படஜ
விடுமுறை
மனதில
##ஙகால
மேலாணமை
வாககள
திருவளளூர
##ிகா
##தோறும
பிடிதத
##ஙகளால
##ேனும
தவிரகக
ஆசிய
சூரிய
ஒடட
விடுதத
கணவன
##ெர
செநதில
##போதும
நள
இணையதள
##பஸ
ஒனறும
குஜர
வரலாறு
நாமககல
ஸடேஷன
நரேநதிர
சஙகர
ஒததுழை
குறிததும
சாதி
##கறி
##ாளைய
இயநதிர
##ககுடி
நிரணய
சிறும
கொரோனா
எனறனர
அமைநத
முறைகே
படகு
சபா
வருவதாக
தாள
##காநத
திறகக
கடடிட
வளை
அதிரடி
இயககம
##ாவளி
மாணவிகள
சொநதமான
சாகுபடி
##ாரக
மனைவிய
யோசி
##குள
இயககததில
##சப
கொடுககும
லக
பிளஸ
முதிய
வரலாறறு
சநதை
நெலலை
துவககி
வெளியிடடுளள
கமயூனி
##ககணி
தோழ
நகக
குடியிருபபு
மதிபபில
வடுகள
ஏழ
அபபகுதி
கற
இருநதும
விசாரிதத
காவலது
திரா
##ாசில
சைககிள
ஆகியவறறை
ஆடடம
தில
அதிரசசி
தரமபு
##ியால
சாக
பதவிய
##வறற
##பபளள
பெறறார
அனுபவ
##நதரம
கலவிய
முதலடு
சேம
##பபடுகினறனர
##மது
##வரகளும
மநதிர
அபிவிரு
பொன
வாச
செயலபாடு
##ுார
வேடபாளரகள
இதுதொடர
அறிமுகம
குறைவாக
ஆணை
செயதுளளார
##தூர
ஆடசியில
முநத
காணாமல
மினசாரம
எமஎல
##மபரிய
கணடுபிடிகக
##விள
வழககறிஞர
ஆரபபாடடம
டு
ராமநாதபுரம
உயரநதிமனற
சரம
##சேன
கலநத
பஙக
##றுபபு
அமைபபின
பிழ
வழககை
##ணைபபு
##னபது
நிலைமை
அடைநது
எசசரிககை
##ியாவில
##ொழ
வெளளை
இதுபோனற
இமம
லடசதது
விண
அமெரிககாவில
பழனிசாமி
இநந
பிளளை
நலக
##ககளின
##எம
##பபாரகள
விவகாரம
கருவி
##ிககொணடு
முனனில
##வனம
##பபடாத
எனத
வநதுளளது
நலன
##ஙகளுககும
லிடட
பிரகா
சொனனார
ரில
##ூறு
காறறு
கிரு
பாரவை
எனறே
உடலை
##சரி
எமஎலஏ
புதன
வைககும
மால
தேரநதெடுகக
##வரையும
பஞசாய
பெயரை
குறிபபிடடுளளார
முடிதது
மூனறாவது
கதா
எழ
கொடுபப
பூம
##ிருககலாம
இடததை
##வனை
போனறவை
ஐய
ஏறபடுகிறது
பரபரபபு
தோலவி
##காய
நனகு
காயகறி
பிரிடட
##ாதான
மகார
##டடையில
காலையில
தளளி
##ெணட
##ிககிற
ஆகி
படடம
மோசடி
##புரததில
யானை
தடுதது
##ஸர
##ாவடி
சமையல
குறறவ
நக
பொறியியல
திடடததில
##ாகிய
பாரமபரிய
மாதஙகளுககு
சநதிபபு
இறைவன
##ககுளள
##ோகன
டெலலியில
இளைய
நிபு
##ுன
பளளிகள
##டபடட
இறுதியில
##மொழி
##ாளா
##விடடனர
வடடின
##னனா
வாகனம
அமச
திருசச
வியாபாரிகள
##ஸில
தொடஙகியது
##ரகளில
புகு
கொடி
ராசி
மஞசள
சதுர
##ாற
பொழுது
எனபத
##ிருககிறாரகள
கணடிதது
தனிதத
##பபதறகான
##தைப
வேணடியது
பொதுச
##டையில
தலைமைய
காத
##டியா
##வுககும
நிறைநத
விககெ
தாலுகா
போகும
உடலில
உயரதத
அணமையில
அதுவும
இழநது
##ததினை
பினபு
##ககுக
ஜபபான
##வழி
மோதிய
இகக
##ாடடை
திருநெல
எடு
##லலிகக
அழகு
##மாரட
இருககினற
வரவேறறார
ஏறபடு
தமிழநாடடில
வாடகை
பெருமபாலும
##நிலைய
சநதோஷ
தடடு
பிரிதத
உசசநதிமனற
எடபபாடி
தாணடி
மலல
ஒபபநதம
செயயலாம
கிருஷணகிரி
வெயில
##ததாள
##சசா
இவருககு
வியாழ
முடிகக
சமம
லெ
சாகக
லார
பகல
##சிஙக
விஞஞான
அபபுற
##பபடாமல
கணகாணிபபு
##கிர
நியாய
##பபகுதி
அமைபபுகள
வழிபாடு
சிம
பிளாஸடிக
வடக
சுடடு
கொடும
விரைநது
##பபேடடை
ஆகஸட
கொணடிருககும
##டிதது
விறக
வாரியம
பேரூராடசி
காவலதுறை
விருதுநகர
கௌ
விமானம
பூர
##றிநது
##ாவூர
விவசாயிகளுககு
##ககுழுவ
##ததேரதல
காடசிய
##குளம
தரமானம
சிவகஙகை
##ையைத
தேவையில
##ெனவே
நெரி
சலு
கணம
##சபா
தெரியாமல
ரு
கோப
கடடுமான
நிரநதர
வைததுக
அவவாறு
இருநதன
##சசநதிரன
வடடை
தொடஙகிய
தளளு
துவஙகியது
##ஆர
நடவடிககைகளை
##ியாகும
சிவன
ஒபபுதல
நரை
எடுககும
எழுபப
மூனறாம
தொழிலாளர
வெளளி
குழநதைகளுககு
சேரகக
##செ
##ுககுப
அதிகரிககும
##சேகர
மலேசிய
ஏறறி
மள
##பாட
சூழலில
##பபிறகு
சககர
வாஙகிய
மேலாக
முடிவெ
##டியின
உடகார
விடய
##நதோ
##ருகன
தேன
வருகினற
##சிங
##வேணடிய
தமிழகததின
அடஙகிய
பராமரிபபு
தாசில
##ையார
வேட
சுறறுசசூ
ஆரவ
அறிவிததுளளது
##ொனறு
##ிரவு
##ததுறையினர
வருகிறாரகள
##ககோயில
##ததுார
சேவ
கொடட
கொழுமபு
விஸ
பதிலாக
மூழ
##பரவரி
ஜம
தறகாலிக
தனமை
சவால
மகிழசசி
அளிககும
ஏறகெனவே
மணடப
##ாஷட
திருவணண
பதம
இதனையடுதது
##பேசி
விவகாரததில
சுடடிகக
ஸமாரட
மேமபாடடு
பணியை
##புக
அதறகாக
தமபி
##கோள
வலு
போலவே
பரிமா
இறஙக
##மாகப
கேடப
ஏறபடுததும
தரமபுரி
துரை
தகு
குளி
இடது
சோழ
##தப
மிகப
மெலல
ஆணையர
அதிரு
##பவர
காமராஜ
##ுககுள
உடுமலை
ஆரமபிதது
காலஙகளில
வெளளிககிழமை
காலி
சரககரை
காரிய
எனபபடும
##வகை
##ணிகள
எவவித
நடைபெறுகிறது
அளிதது
வெளிநாடு
துறையினர
##கிருஷணன
மேலே
தெலுஙகு
ஞாயிறறு
திறநத
இலை
புலிகள
##ததாக
கதாபா
உளளதால
மருததுவக
இபபோ
##ாபாத
வனமுறை
##ூா
செயதுளள
கொணடுவர
##யாண
சனிககிழமை
பொருளாளர
இததிடட
உறவு
##மேல
ஆலை
மெட
செயலபடு
##ிககொளள
வழஙகபபடுகிறது
##ொல
##விக
முனனிலையில
கையெழு
பிளளைகள
##விதது
உதய
விதமாக
தேசியக
கனி
##ஙகுகள
கோரட
##ககுற
நப
மருததுவரகள
இவவளவு
இருநதனர
வணண
ஜெயலலித
உஙகளை
திரி
##ுமை
புதுடிலலி
##ணியை
உணமையான
எனபதில
##ியோகம
##ததிறகான
##னனி
செலவில
வைரஸ
பணிபுரி
எனபதும
மருததுவர
கடடுபபடுதத
ஒததி
சடடபபேர
##ினான
நிவாரண
##காம
உதவும
அமெரிககாவின
நிகழவு
கடசியினர
பொறுபபே
வசிதது
அஙகுளள
மதும
விவா
பிரசன
ஆடை
தவறான
##ததிடம
புறககணி
##ராம
பாரதி
##ககப
சுபபிரமணிய
வேணடி
வெபப
அதிகரிததுளளது
அரிசி
##கைய
நனமை
கைபபறற
தடுபப
இரடடை
கடைகள
தேரவில
ஆதரவாக
ஏறறும
காநத
தொழிறச
##ககுரிய
##வதே
ஃப
படிககும
##லலா
பழு
தேரசசி
எழுநது
தெரியாது
நினைதது
படையினர
தபப
ஏனெனில
பனனரசெல
##நததை
உளளட
காரில
##ுவில
செயயபபடுகிறது
பிரதிநி
தொழிறசாலை
பணட
இடமபெறறு
அவு
புறறு
அமைதி
குதிர
தரபப
விமரசி
துரு
##வதன
விலையில
கொளளைய
##றையாக
##னரகள
செலவம
பாசன
தயணைபபு
தஙகளுககு
டெஙகு
கணடறிய
பகிரநது
தனு
சமபளம
ஊரில
ஐரோபபிய
ஊழியர
##ஷடம
##காசி
##ததிருநதார
##ாவுககு
விவே
##ிருககிற
##ெடுதத
வெடட
முறைய
ஏரிய
##ுரிமை
திருடடு
##னே
மேலாளர
அணியில
இதுதொடரபாக
தாசிலதார
ஒபபநத
டூ
அபபகுதியில
யாத
உததரவிட
அதிகளவில
வேர
சுழ
சோத
தொடரில
##பபடுததிய
இதுதான
##டே
##ணிகக
தெளிவாக
இசைய
##ககலல
##வைதது
பெரியார
வரவேறபு
##லடசுமி
சதது
சொலலும
##பபிடட
##மாணட
மனிதரகள
வாடிககையாளரகள
ஒருவன
துணைத
ஆடசியர
##லஸ
##ிடையில
##பபாட
இடஙகள
##ஞசிய
திருநெலவேலி
வைததனர
##ணணு
மாநிலஙகளில
கடலில
##ததுககாக
புளளி
ஆறும
##சோ
ஏதும
செயயபபடடார
##நாடடின
வெடடி
கேடடுக
பருவம
##ததபபடட
##கிதம
சாமப
##லிஙகம
ஆடு
நடததும
குடுமபததின
இறநதார
பஙகேறறு
ஒருவரை
பினனால
அணிகள
பேசும
ஓவர
குமபல
உம
##ஙகளைச
காபபாறற
மாணவரகளின
காலப
விககெட
கூடுதலாக
##ேரியில
ரமேஷ
##யான
வருவதால
கூடடமை
வரைய
வாயநத
இதேபோல
செயறக
தபாவளி
ஓட
முனனேறற
பெயது
##பபோது
கிராமஙகளில
##பபவரகள
இஙக
போலசில
சுவர
வழிப
காணபபடும
மரஙகள
விதிமுறை
தஙகளின
இனறும
மித
##ததிறன
எனறான
ஒருமுறை
டவிடடர
வாககாளரகள
ஆத
##காயம
##வநது
அதிகபடச
அபிவிருததி
##ிருககு
வாழை
யூனியன
கநத
##ஸக
##ததடி
##குடி
##கொலை
நுகர
##பபிரிகக
அணிககு
##ேத
தவிரமாக
ரண
பலியான
##ானால
ஹி
பேசுவ
விவசாயி
டிரைவர
##ககடை
அழுதத
முநதைய
சேன
##ததனம
ஏறபாடுகளை
முடிவில
திகழ
##ிடததில
நிலையை
பெருமை
ஒனறாக
##டடிகள
##வானி
##ாவிடடால
மாணவியர
##ொலி
##டரோ
கடடாய
அவரகளிடம
##நதும
##ிகை
##ககலை
##ததேன
##ஸத
ஏறறுக
##பபாளையம
சாமி
கோடை
உரை
வேலைவாயபபு
##ததலைவர
பறறியும
பசசை
வெளியாகி
டவுன
தொறறு
##புறம
##ெனன
தயாரிபபு
எனனிடம
##பொருள
இனறி
##ையானது
திருபபி
நெய
பணப
இஸலாமிய
அவவளவு
குபப
கொளளை
##ணியின
தயாரிதது
மடடுமினறி
நாச
அமைய
படிபபு
உததரவிடடார
வயதான
மனிதன
##ையிலிருநது
##பேர
##ாதனை
இருமபு
தெரியாத
படுகாயம
முடிவுககு
##ேசு
வரவிலலை
தொகையை
யோகா
##நதிருநத
சடடததின
பாரததால
##ுவின
##ஸவரர
##பபறை
##ிககபபடட
அறுவை
கமயூனிஸட
வசச
கருது
கூடடமைபபு
காயமடைநத
ஊரக
வடுகளில
வசிககும
பது
இதழ
பறவை
இனப
##ுளளது
மாரகக
வத
கோபி
##ககுறிசசி
தடட
நேறற
தரகக
எணணம
தகவலகளை
லடசுமி
புலன
அதனபின
நலம
விறபன
நாடக
கலநதுகொணட
மிள
பாலி
திரைபபடம
எடை
பெணணை
துண
ஆறறில
பிட
சேரநதவரகள
உறுதிய
##டையும
கணககெ
##கிழ
அதிகாரம
வெளியேற
##தானே
##சாய
##ையாகக
வாழககையில
##தேசம
##மஸ
வருகிற
அமையும
பூஙகா
##ஙகளைத
##பபடடுளளார
இரவில
குறைகக
மாறாக
உயிரிழநத
##தரா
ஐநத
அனுபவம
ஏறி
விக
அமரநது
மடபு
##ககோவில
ஜோதி
ஆயவாளர
இருககாது
சலுகை
எவவாறு
அபிஷேகம
##லாத
##ொர
##பபூரவ
அசை
செனறது
ஆககிரமிபபு
##ோஸ
துறையின
ஆசச
மேமபடுதத
யாக
வணடி
பனன
ரூபாயககு
நரம
பரவல
எச
பிறபபி
சாதன
கழகம
ஆனா
தனிபபடட
##ாவிர
குறிபபிடடார
தளளுபடி
##முருகன
திருவணணாமலை
##ாசி
தேரதலை
சமபள
படிபப
மானிய
தொலைககாடசி
ஆலய
##லததில
வருகிறோம
##ககாரரகள
முடிவுகள
##நதூர
செலுதது
##ளிதத
அழைததுச
மணம
கோள
உரையா
யோக
தெரிநதது
கருததர
கபபல
தெயவ
நை
##டடஸ
##கழ
##ியிடம
அமைககும
நிறுவனததில
பாடசாலை
ரகசிய
பஞசாயதது
பஸகள
சஙகததின
அஞசலி
சிகிசச
தொடரசசியாக
அசசுறு
நாவல
##வதறகும
எழுநதுளளது
ஈடுபடு
##யிர
ஆனலை
செஙகல
ஆரவல
பரபரபபை
சுதத
##றியது
புகாரின
முயறசிய
நோயாளிகள
வாழநது
அரசியலில
நிழ
கணணன
உபபு
##ையாகும
முகமது
##லாநது
##சசாமி
மறநது
உணணாவிர
பேரவை
விவசாயம
##ளளை
அளிததார
ஒடடும
தபால
##ிறகான
கொஞச
எலலோரும
திஙகள
ஸடார
உணரவு
##பபடுவதாக
கேமரா
ரதியாக
##மாகவே
மககளிடம
##ிலலாமல
நளள
##ொதத
தமிழத
மாநாடு
பணியாறறி
சனிவா
கூலி
இடததிறகு
துவஙகி
பாலம
##துரை
பணியிட
உபயோக
##தோடு
வலியுறுததிய
எதிரவரும
நிராக
குடுமபததினர
##ளியில
உனன
பதவியே
கனம
பிபரவரி
அளவிறகு
செயலபடும
களமிற
##கில
சிறுமி
##வுகிறது
சிககி
மதம
நேரடி
இவரகளுககு
##ானிய
##ினாலும
##னியா
மரியாதை
பிரிய
டாஸமாக
இதைத
கமபயூ
கோடடை
பரிதாப
லிடடர
நநத
இறஙகி
ஈடுபட
ஏறபடுதது
ஆதரி
##ததோ
##டடிங
##வாட
##ககூடட
##ிககொணட
கடமை
பறறாககு
##பபோல
நிரபப
மேறகொள
உருவான
காடசிகள
சிபிஐ
நோககம
உரிமையாளரகள
அவவபபோது
சிரி
ராக
போடடியிட
##கத
##றறினார
அமு
ரஙக
வழககுப
சமயம
மோசமான
பாதை
எடுபப
ராவ
காரடு
நடிககும
கிளமப
##ணததில
காடடும
அமைககபபடட
எதையும
இவன
எழுததாளர
சுறறுசசூழல
##ையிலும
நேரு
சாமபியன
பெறறுக
ஒழுஙகு
கெடட
##ககட
##ிருநதன
##ககத
செலுததி
சணட
##ிருபபதாக
களில
கருபபு
நாகர
விமரசன
முரண
லோகசபா
##ஸி
பாரதிய
எனனால
##சுர
ஸபெ
##காசம
உறுதியாக
சிநதனை
பாடலகள
பதத
உருவ
கோரிககைகளை
##ாசலம
மலையாள
நுடப
இதய
##வாஙக
அவசிய
திணை
##ககளும
ஆயிரககணககான
##சுவ
மாதஙகளாக
##விககும
விருநத
##லே
மோதி
வழககுகள
ஊடடி
கொட
##ையறற
யெ
கடடாயம
வாழநத
கொடுததார
நடம
கோபால
##ுஙக
தஙகிய
மேறபடடோர
கோரடடில
அசசம
கொணடுளளது
##ூகம
திடடமிடட
அவளை
நாண
போனது
ஞாயிறறுககிழமை
இறககும
அபாயம
சானறு
மேடட
ராஜேநதிரன
குடுமபம
சணடை
ராத
முலலை
வாயபபுகள
கருமபு
விஜயகாநத
அஜித
படுகக
வாசக
ஜலலிகக
மாடு
திடடஙகளை
சாடட
ஜாம
ஆரமபி
##நேரம
படடாசு
மாசு
மறுதது
இலககு
அமைசசரவை
##ரியும
##கததின
##ககூடும
வகையான
கூடும
கருதி
பிரதிநிதிகள
கதாபாததிர
பணணி
##டிககொ
கூறுமபோது
ஜனதா
இசையமை
##சாம
##வாடி
மதுரையில
##றிநத
அலலாஹ
விடடனர
ஏத
பலம
தூதர
##ததிருககிறார
நடததபபடும
உததரவிடடுளளது
##மாள
##சால
மனுவை
உயரநத
அததிய
கழிவுநர
பேசியதாவது
##ாவாக
உததிய
தெருவில
முனனால
##பபொருள
வழஙகபபடட
சராச
ஆணடுககு
கடின
பனனரசெலவம
##லாக
சரசசை
தரிசனம
ஆசசரிய
தலி
தொடரபுடைய
வேலைககு
##பூரவ
வகிததனர
ஆவார
சநதர
##பபுர
##ததிலேயே
கோலி
ஆதம
##ணடா
##சசின
சிறுவன
##ிகளும
பௌ
டசல
##ததிறகுள
கனவு
அறிமுகபபடுதத
##ககாடு
தோறற
எடுததுச
##சசெயல
##ககளுககு
தேவி
எதிரபாரககபபடுகிறது
பரபப
கனனியாகும
கிளி
மறுப
இடைததேரதல
##டில
##வாரி
வெளியேறற
வியாழககிழமை
##ஷி
பொதுபபணி
##னபு
##முடியும
கூறபபடடுளளது
அனைததையும
கொனற
##ககிர
##ததொகை
அறப
##சேகரன
##ழிவு
நமபு
நாடுகளின
##ாவதி
பழஙகு
##மபாககம
சபாநாயகர
போதை
திருவார
இவரை
இனஜின
சிறபபான
இளவர
##நட
மெடரிக
குழுவின
கொசு
##பபையும
ஒடடுமொதத
வளள
உயரம
வேளாணமை
எஙகே
##பபதிலலை
##கிறரகள
தாககிய
உரிமைகள
மஹிநத
மைதானததில
இவறறை
வாககாளர
வககல
விடை
விணணபபி
##றல
வாகனததில
அரஜ
இலஙகையின
வழஙகு
இஙகுளள
வரிசையில
ரஜினிக
வடிவமை
ஐகோர
வெளியாகியுளளது
ஊருககு
##ததவர
கடததல
பாதுகாகக
கடடிய
##யமாக
பிரகாஷ
##மபாளையம
சொலலிய
மாதஙகளில
பிரபாக
சரவணன
ரவு
நெருககடி
பதவியை
பெறறுளளது
திடடமிட
தொலைவில
##ததெ
கவனிகக
கூறும
டாகடரகள
வேணடுகோள
பதிநது
அறிவிககபபடடுளளது
கணேசன
##யிறசி
செயயபபட
செலகினறனர
##ோரி
இததனை
##ககாய
##முடி
தலைவா
##ாதன
அழுததம
ஒழிபபு
குழும
சினிமாவில
எளிய
கலயாண
##ஷேக
##மதி
##ககததில
தொடரும
கோபபை
எனனவெ
##சசெல
உருவாககு
அததனை
##ரவ
வாழககையை
##ககவிலலை
வலைதள
பிரானஸ
இருபபதை
அங
கலைஞர
புததகம
தயாரிபபாளர
பஞசாப
கணகாடசி
கொணடிருநதார
குழபப
வரம
பிரிதது
தலையில
##சசுவ
அநதத
விணணபபிகக
சுடடிககாடட
##தததால
##ேஸவரி
மாளிக
சமயததில
##ககினறது
நித
##ககாமல
ஆதரவாளரகள
விடுததுளளனர
உறசாக
தனுஷ
உழ
பசச
இநதி
சநதையில
மிஸ
நிறக
##தததிறகு
##ததடட
##ககததை
##யோ
இபபகுதியில
வஙகிய
காலமாக
அமித
குஜராத
அகர
பிரப
ஓயவூ
தியே
மறைநத
தேஙகாய
புதனகிழமை
கலநதுர
கடசியில
மனனர
சததம
சுல
அபராதம
கிறிஸத
சததிய
வழககுபபதிவு
பிரசசின
படபபிடிபபு
மாநிலஙகள
அவனுககு
வெலல
பிரசாரம
வசூ
வைகோ
கடடடம
திணைககள
##ேப
தணணரை
பென
கொளமுதல
தாயார
படுகொலை
தாஙகினார
சாககடை
கடடுபபாடடு
வானிலை
அறககடட
அபதுல
பசு
##வரகளாக
கிணறு
தஙகி
கூறினர
விருபபம
உரிமையாளர
அவறறின
புதுககோடடை
##டான
##வலம
##பபதும
##பபுகளை
கடததி
##குல
வேணடுமென
வலுவ
##நதுளளன
இதுவே
##டடியை
கருததில
எனபதறகாக
சேகர
இதனிடையே
புரடசி
துறைமுக
பனி
##முறையில
இயஙகி
குடிம
##பபய
ஏறபடடுளள
பூரததி
வடடி
ராஜின
ஆற
ஊககு
செயயபபடடனர
வெனறு
ஒறறும
மில
துணடு
முனனெடுகக
சரககு
கடடுபபாடு
##பபாககம
கமலஹ
வெண
##ேடு
##ிரியை
குறிய
மகாராஷட
வடம
##சசேரி
சிறுநர
முகாமில
##ராஜா
##லாமல
பிரபு
##ளிககும
தஞசாவூர
ஜனாதிப
நடததபபடட
அறையில
தவிரவாதிகள
திராவிட
வணணம
செயதியாளரகளிடம
தளபதி
##களுககான
##ாமை
பிரிவின
சிவச
விடுதலைப
நூறறாணடு
வெளியு
##தியுடன
பெரிதும
புலி
##ககின
பாததிர
மறறவரகள
நிறகும
தாககி
இருநததால
எனபதையும
ஊதிய
நடததபபடடது
உனனை
செயவதறகு
ரஜினிகாநத
##ியாவின
##ருமான
நமபி
##பபாண
தொணடரகள
கிடடததடட
பிடிககும
##ியூர
வாரி
உலகக
புஷ
முடிகிறது
##ஙகளே
மறியல
நாராயண
பதிவாக
கடறகர
விகரம
##ததுககுள
பகுதியைச
புறறுநோய
தரை
##ாலம
புளளிகள
##ிககல
நோடடு
பூமி
முனபே
அதைத
வழஙகபபடடுளளது
உளதுறை
கரி
வருமானம
இழநத
ரஷய
ஷா
##ோதி
##பெயர
பததிரிகை
##ணாம
##ணடம
அஙகிருநத
எநதவித
மிரடடல
போதுமான
ஏனைய
தலைபபில
சாததிய
தெரியவநதுளளது
எலலாவ
குழநதைகளை
இளஙகோ
உஙக
தேட
காவலதுறையினர
##டுககு
அணிநது
உளநாடடு
##பபுடன
கடலுார
##றிவு
சரத
பதவியில
##என
கழிதது
ராஜபகஷ
##முறைய
போதே
##நததும
விநியோக
##வரா
முடிவை
வியாபார
மடடககள
பேஸ
அரசி
சோம
தரபபினர
கவரனர
அஙககார
சுததம
நோடடஸ
வரவேறப
மேலநிலைப
##ிருககினறன
பலாத
வெளிபபடுதத
லாபம
கோவையில
கணடன
##தறகான
##ராக
மழைநர
##வருகிறது
தணி
கஷட
##ததுககான
பாரததுக
காணபபடுகிறது
அவருடன
காடடில
முனபாக
##பபடடிருநதது
நூறறு
எனபதுதான
விழுநத
இவறறில
##ணஙகள
முககியம
பெரமப
ஹரி
படச
முனனெ
பொறுததவரை
##ுடு
இநதிரா
##பபிரிவு
ஹர
தனிதது
நடைபெறவு
வாலிபர
கேடடார
சஞச
##ிகஸ
வறும
தேவையிலலை
பெணகளின
##ிடடனர
ஒர
டோ
##வகு
எளிதாக
##ேயன
செயறகை
பிழை
டிலலி
##சககர
ராஜஸதான
சமபவஙகள
சிறிசேன
கிருஷணன
##ஹா
உததரவிடடது
##டிவி
இலலைய
அதிலும
##வாறான
அறிவிககபபடட
பினபறற
##சசம
கொழு
அமலபடுதத
வளரநது
ரஹ
நடிபபில
தொலைபேசி
விடுவி
போராடடததை
##ுககே
ஒளிபர
குறைவான
மனுவில
கேரளா
##நலலூர
##ாரும
சிறுவ
சரசச
பணிககு
வதம
கணடனம
யாழபபாண
##சுககு
சேத
திறமை
கிராமம
கொணடிருககிறது
அமைசசகம
காஙகிர
ஜெரம
காறற
டொ
காலகடட
மறுநாள
அரசை
ஒனறியம
சாவ
உருவாககி
கமிஷன
தூய
செயகிறது
கொளவது
வெறறியை
நிரவாகி
வஙகிகள
குறறமச
##ஙகுவ
செமம
உடைதது
ஒனபது
கடதத
வழஙகபபட
சரவ
பொறியாளர
வெளிபபட
திண
##சகர
##ுர
யானைகள
##ெடடில
தோனறு
##ிககொணடிரு
போராடி
வளரசச
பராமரி
பகுதியாக
அனறைய
ஏறறுமதி
அனைவரையும
விருதத
மாநாடடில
ராமேஸவர
ஆவ
வேளை
பயனபடுததும
அளிததனர
சரமைகக
பெணகளை
விலக
மககளும
ஒருஙகிணைபபாளர
ரிசர
குறையும
அதைப
கோவிநத
சூரியன
அணணன
ராதாக
நககம
பொலிசார
ஹோடட
##ெடி
கோபம
தெரிவிககினறன
முயறசியில
குறைவு
திறபபு
வதியில
##வியின
புகைபபடம
குணம
கைவிட
##ககடடு
##ோதா
அலஙகார
மூடி
இதர
##ததுச
நரில
##கோணம
புதுசசேரியில
சமூகம
அநதநத
செவவாயககிழமை
##பாள
எசசரி
##மையாக
குறைநதபடச
உனககு
யுதத
##ாதரகள
ரதியில
நகரம
ராஜினாமா
சினனம
உதவியாளர
சபரி
கூறியது
##பபேன
##ானை
குறைநதது
கடசித
காடடிய
கலநதுரையாட
செயறகு
குமபாபி
##பகல
முடியுமா
பிரசசார
கிடைககவிலலை
ஹே
நிலைககு
##ருள
நாடடை
##ிலலாத
நால
##சசெயலாளர
##ராய
தவிரதது
பூஙக
##வஙக
திருவிழ
சூழநிலை
ரணில
மேடடூர
விடுகக
மாதஙகள
மையததில
##ினா
பளளிககு
மம
வரதத
உருவாககிய
தகராறு
ஆணடுதோறும
##சிற
வெளிவநத
நிகழசசிகள
டிக
படஙகளை
மாரியமமன
##ஜித
கமபயூடடர
கறற
வாககுறு
பாதையில
##ததுககுப
##பறறி
நிப
##ானி
##ாலய
##முறையாக
நியமனம
ஓடடிகள
வசிய
வெறறிய
##வாககம
வெளியானது
கோய
நெரிசல
##செயது
##ினோம
##னைப
ஏதேனும
இயஙகும
சேரககை
##ரிட
குழநதையை
மாணவரகளை
##ெகஸ
காலபநது
புதை
ஸல
##வைப
துற
காலனி
தாககுதலில
##வைச
கணணர
காணப
அடிய
பெணணின
மனுககள
பாணடியன
மெக
கனனியாகுமரி
கடைகளில
கொடூர
வருகினறது
செலவா
##கிறாள
எப
##விடடன
புலனாயவு
பெறறனர
தளம
##பபளளியில
இராஜ
பாரத
குடியே
ஹெல
கணணாடி
தஞசை
யாருககும
##ிறகாக
ஏறறுககொளள
கலலுார
தாமத
சேது
செயலபடட
அலி
சாபபிடு
##னாக
விதததில
வாயககால
ஏக
படுதது
பகுதிககு
நாயகன
##சேட
##ிருபபத
எனபன
விடுதி
பிறநதநாள
##மபா
மாணவன
அளள
வெவ
உணரநது
எத
##ஷடி
அவறறில
பேசினர
மனனார
##றறையும
##லும
ஸடாணட
##யாணம
வலது
இடையிலான
உதவியுடன
கவல
உததியோக
ஓம
ஜோடி
உறவினர
ஈரான
எஙகளை
##மையும
முதலவராக
நுழைவு
கொடியே
வெறு
வரலாறறில
வெளியுறவு
ஜமமு
ஹோம
எளிதில
##ககாரர
தொலலை
##ிலலியில
செயறபாடு
இருசககர
அகம
நூறு
##சாக
இநநிகழ
நடபு
பயனாளிகள
##நதான
##வரன
முடடை
ஆபதது
வெறறிகர
இநதியாவுககு
சொலவது
##ருடைய
சாரபாக
அறபுத
அதிரசசிய
தூரம
கடறகரை
##கதை
காணி
சாலையோர
இடததுககு
பாரககலாம
##ையோடு
போடடியிடு
பேசுகையில
உளளவரகள
##ோவில
பணியாறறிய
விளையா
கடடுபபாடடில
மரகக
##விரோத
படஜெட
கூடடணியில
##சசாலை
##மபுல
பாடம
பரவி
அயய
கோட
##ககிட
அரிய
நிபுண
##ாசம
##ழிகக
முதலாவது
ரிஷ
விழி
கவிழ
##றறுககு
கவுனசிலர
நமமுடைய
பாடடில
கருததை
##படு
##னமூலம
##றசி
தெரிவிததுளள
அவனது
பழநி
புததா
ஆடடததில
யெகோ
குழுககள
##ஸது
காசு
தேமு
அழிகக
பெருக
##பிஎஸ
அறிவிததார
##சிஸட
தடு
##பலி
##ககுமபோது
பராமரிகக
##திகளின
முறைகேடு
ராதாகிருஷணன
பேரி
தேமுதிக
வலம
மேன
செயயவிலலை
வாழவில
பிரிநது
கரநாடகா
நிலததடி
ராமதாஸ
##றகே
பலமுறை
##களிலிருநது
நலகிரி
##னறம
வரதது
விஷால
##கஙகள
##பபாய
சமாள
##துவாக
பிரான
##ாநதிய
##நாதர
வினர
##ததியது
கப
பவுன
வாத
செம
களததில
திருமபிய
திசை
தொகுதிகளில
ஆகியோரை
சனன
சடல
##வாகள
மாறறுததிறன
கோரிககையை
இலடச
ஆரமபிகக
தளததில
##சியாக
நோககில
கூறுகிறார
ஏறபடுததியது
பிரதேசததில
சரண
சொற
மசோதா
##லைப
அரசுப
நிறுவனஙகளின
பணடிகை
##மாகத
##ாவு
விரோத
விசேட
விறபனைககு
குறைய
கடையில
மழையால
##ரல
நடபபு
விவரம
கருணாநி
##நரை
தவிரம
மொழியில
##டகள
##முனை
விஷண
தெரியுமா
##சிஸ
விரிவு
##பபடடதாக
ஆனமிக
##சகதி
##பாபு
வடகிழ
மேடடு
முதலிடம
நிறுவனர
திருவாரூர
##பபடடிருநத
சகல
கமலஹாசன
காரணஙகள
மைததிரி
பதவிககு
##குணடு
ஜார
ஒபபநதத
வெளியிடடுளளது
சிறுததை
உரையாட
##றேன
நிரம
சனிவாசன
வயதுககு
பருவமழை
முடிதத
##வெல
##ிருககிறேன
இராம
அறிககையை
கேரளாவில
தொடடி
தெனம
##தைக
அநந
டிககெட
செஙக
அவரகளுடைய
நடட
##ிசை
நாளித
அதிகாரிகளுககு
##களே
பேரணி
##னல
ஜெனர
பிரதிநிதி
##ாயிரம
குடுமபததில
கறுபபு
ஆததிரம
##சியை
வாயபபுளளது
##சிட
அரும
##ணணெய
##ுளளனர
இழபபு
அரததம
##ியைச
ரிசரவ
சசன
##ளிபபு
அநதச
இரா
பவானி
அறிகக
எதிரகொளள
ஏறபடுததிய
##விளககு
##ாயின
பாருஙகள
கடசியை
மும
கையாள
வேறுபாடு
##ளா
அனுபபிய
தொழிறசஙக
கருண
அனுமதிய
இலவசமாக
துடுபப
வசூலிகக
செயறகுழு
தெரிவு
குறிபபிடு
செலபோன
உததரவை
திருசசெ
புறபபடடு
முறறுகைய
ஆஃப
ஆஸதிரேலிய
##பபடுவதால
முழுமையான
##டசியின
விதய
கவிஞர
தநது
##தலல
காரைககு
நிரமப
##ஞசா
ஒடடி
இனனமும
##ஸதிர
##பேஸ
ஜெக
##டடுப
இருவருககும
சுவி
##ிநதிய
##ஹார
தகவலை
##ஸை
மணிக
பாலாஜி
நாவ
எனபதறகு
சாபபிடட
சிரிய
விலகி
மிகச
பரிசல
##ாணம
##சூ
வஙகியில
ஒததிவை
போதிலும
##ககமாக
வரையிலான
துடி
இநதியன
அளிககபபடடது
##ககொணடார
பாடு
பைக
வாலபா
##நதனை
தவறி
அழக
ஈடுபடடுளளனர
##ததையே
வாடஸ
##மொழ
சிகிசசைககாக
தஙகளை
##ககன
மடடககளபபு
சேகரி
இபபகுதி
கணமாய
##நததில
##ொழு
வநதன
##ளிததார
குறைபாடு
பாணட
##காண
##ககோள
ஆபர
##லையில
தியான
பஜ
##ஷணம
##பபடம
இதனபடி
நாளாக
வாககுகள
வலலு
ரெணடு
காபப
செலவது
நிஜ
தினசரி
நடிகரகள
##போனறு
மாடடாரகள
அறககடடளை
##ுகம
தோலவிய
அனுபபு
ஆடசிககு
அககறை
விததியாசமான
##ளளோம
வடடாரததில
##ணணன
சடடததை
எனறாள
இயககிய
சமாதான
சிககிய
யின
மனாடசி
படததிறகு
இலலையா
மாபெரும
மாறறிய
அணியை
வசன
விசுவ
பதின
பூஜைகள
ஆபபிரிகக
பிரமம
திரையு
வேகததில
மாநிலததின
விஷயஙகள
தைரிய
ஓசூர
இடஙகளை
திருபபதி
ஆயுள
##கோபால
தெரிவிககபபடடது
அவுட
ஜவ
##ஙகின
கொழுமப
##பபுல
##தராபாத
சஙகத
##ஙகுளம
##ுககுத
கொடை
விலலை
கொளகிறேன
இதறகிடையே
செயயவும
மஙகள
சடடவிரோத
நடததினார
##ிடடார
வாழவ
அடிதத
செயகினறனர
கிடைககிறது
அரசியலவாதிகள
வருடஙகளுககு
ஜெயர
கடலோர
##ியரகள
##ததுறையில
திணடி
##ாலா
பிரிகக
நிரூப
பிறபபு
ஊரவல
உளவு
அறிவுரை
மனனிபபு
பழககம
##ாளையததில
வாழகக
##மமன
ஆபததான
செனடர
அபபுறம
##ழகன
மேலநிலைபபளளி
##வாகும
மதிய
தாவர
பவுணட
குதி
செலவராஜ
கததிய
ஆறறல
##ெஙகும
##ாடும
##வைக
உயரநது
##வுக
எநதவொரு
கொணடிருநதது
ரெடடி
கிராமபபுற
மறும
##ககக
வெவவேறு
பாபு
##னியில
விசாரிககினறனர
ஆனலைன
##பபாடடை
##ககபபடடுளளது
போனறவறறை
டெல
##மோ
சொறப
அனனை
ஆறுதல
தினமலர
காரைககால
ஒததுழைபபு
சூரயா
வரவ
காது
போடடோ
அகல
##மையில
##ிககான
இரும
வாரததில
##படுதது
##டிககை
உளு
மேறபார
அரசும
வெளளம
ஏலம
##கின
##வையாக
பிராநதிய
ஊடகஙகள
##வேர
கொளளுஙகள
சுதநதிரம
##சாரி
நேரி
மணடபததில
வாஙகுவ
##ிருநதே
திருததணி
கணடிபபாக
அறுவடை
ஒனறி
நிலததை
தரபபை
வாகனஙகளை
உதத
பாலசு
##பபடடால
விஸவ
##வய
அரசுகள
##ததிருககிறது
மிரு
நெலல
##ிலலா
##ாகத
சிறில
##ாஜா
ரூபா
நிமம
பிரேம
இறககுமதி
சிலி
விககெடடு
காஸ
துள
அமரநத
அமரவு
பணிபு
பழி
காலியாக
கூர
பொதுசசெயலாளர
கூறுகினறனர
சுவாம
##ிறற
வநதுளளார
சூடு
##ககபபடடன
ராமசாமி
##ததுறையின
சரமை
ஏனெனறால
தயாரிககும
##படியே
##ோடி
தாமதம
துடுபபாடட
ஆடசியை
இருபபதாகவும
புகுநது
இயலபு
##ையினால
பொதுத
நாயுடு
##பகான
சுரஙக
அணட
வேளையில
பாரவையாளரகள
காக
##ிககாக
நாடகம
விடடால
எதிரே
இயேசு
##றாஙக
எஙகு
கிடநத
நயன
##தததின
கடசிககு
நரி
##ஙகானா
திருபபு
சணமுகம
வழஙகபபடடு
ஒனறுககு
கருததுககள
இனம
##வெளியில
உருவாகி
இதேவேளை
உயிரிழநதார
ஜெயலலிதாவின
##நரகள
எனகிறாரகள
கோடப
கடடுர
சசி
சோக
உபகர
டாலர
வராஙக
தெனப
##ாவே
பாமபு
விசை
பிரார
பெருமபான
குளம
பேரின
##விடடதாக
விருமபும
பாமக
உருவாகும
கலாசசார
குடடி
வவுன
##னைக
ஆஸப
மேறகணட
##ோா
போனால
டிஜ
ஆரமபததில
அமைககபபடடுளளது
##ததனமை
##சசிகள
##தேதி
ரிலஸ
ஜலலிககடடு
முதத
ஆனது
கச
ஹார
##னார
##ரித
மனபிடி
##ிடடல
நூலக
##கமப
##ூம
ஒருவருககு
வழிதத
நிருபரகள
##சும
##பபழ
முறையான
##ணடில
##வாசல
##ளிதது
##தானம
மாவடடததின
அஙகக
பேராசிரிய
குடிதது
மதிபபுளள
##வாசிகள
விகன
விருததாசலம
சாபபிடடு
மணடபம
##சாலையில
உயிரின
சமை
பலியாக
கடறபடை
சகோதரி
வேகம
கோபப
செயயாமல
இவரகளின
இலஙகைககு
வேன
சிதை
கூடடமைபபின
நாணய
நிலையஙகள
கனமழை
##ுவர
##திறகு
மாடடு
ஆஸதிரேலியா
அபபடிய
மெடரோ
பூரவ
எகஸப
##டடரி
கொனறு
##ஞசல
ஆணடின
இஸரே
தலைமுறை
##ானாலும
சநதிபபில
குறறவாளி
##ததிருககும
செக
எலுமபு
சுபரமணிய
##பபதாகவும
விமரசனம
சுப
அடர
சிலைகள
##மின
##ததாரகள
அமைபபை
இடமா
நியமன
ஏறபாடுகள
##ையூர
விஷயததில
அஞசல
ஐபி
ஞாப
##ரியா
துனப
கொலக
கேளவிககு
##ககபபடடார
திரையர
##ிருநதும
விதமான
##றச
லணடன
##னிய
##வட
தொகுபபு
அவி
கூகுள
##மானார
கடடததில
பசுமை
மாலையில
தலைமறை
இவரகளில
கதைகள
நுழ
ராணி
நடுதத
விசாரணையை
ஏமாறற
சணமுக
##சமயம
##பபாணம
செலகிறது
அனறாட
குதிரை
கணினி
கழிபபறை
##யிலை
வழககமாக
வாயபபை
##ததமிழ
முறையை
நுகரவோர
##பபாள
வழஙகினர
##ககுழ
ரூபாயை
தொகுதிகள
சடடததில
வருமபோது
உதவு
வெளியாகும
பழகக
வேதனை
##தரன
தொழு
பிறபகல
நிலததில
பரவிய
ஜா
மாததிரம
கதத
ஊரவலம
எதிரபாரபபு
மாடடேன
யாழபபாணம
சோர
##ஸப
##திப
##ேயான
அததகைய
முடட
அரவிநத
##விடடேன
நிலுவ
கடடபபடட
நடனம
தடைய
##நதோறும
இககோயில
பணிகளில
பணியாளர
புததகஙகள
மாறறஙகள
சிறுபான
##ேஸவரன
பெஙகளூர
##ததவரகள
தேஙகி
##ஙகிக
இளமபெ
நிலையஙகளில
அழகிய
##வரர
சதவ
இருபபு
இரதத
ராஜபகச
##வதோடு
ஒடடு
##ாபுரம
##ாடா
##ிககிறது
இடைககால
##சசதது
பொதுமககளுககு
##ரிங
இணைநத
கேடகும
##குதியை
மூளை
விலஙகு
வாகனஙகளில
பெயத
பிரசாத
கொலலபபடட
பாப
##முறையை
##ுதவி
குடியரசுத
வணட
##வரையில
##பபறறி
நெஞச
##டுமா
மாறிய
கோயமப
அதத
வநதாலும
உதாரணமாக
##ணணி
பாச
அழைகக
எஙகும
கவனிதது
வளாகம
ஒலிமப
##பபொ
செடி
மேடை
பயம
ரோநது
வினா
பரபபு
ரயிலில
##லைக
##கரோ
யாராவது
பயஙகரவாத
பாகு
தமிழழ
எலலையில
இருவரையும
கலாசார
கய
##திகார
இருககிறேன
அவரும
அதுவே
நிகழவுகள
விவசாயிகளின
சததியம
##ியைப
பெல
தபார
முடிவ
எடுககபபடட
குழநதைகளின
##ிரத
வலைததள
##ாதத
##வகையில
##பாணடிய
தலைமைச
வருவதாகவும
சொலலிக
அழகான
ஆஙகா
##நொ
பதிவே
சடடசப
பணணை
வனததுறை
சநதரபப
ஒல
முகததில
எனனைப
பணியாறற
குறறவாளிகள
லஞசம
குறுகிய
##ஜரி
அவகாசம
நெறி
##மமாள
உணரநத
இடததிலேயே
##லிஙக
##ாருககும
மடஙகு
காகக
துபபுர
கிரிகக
ஒழி
##ூடட
செயயபபடடுளள
##ேயும
நிறுததம
முமபையில
##வையை
விலைககு
##ஸவரன
சொர
அரியல
தோனி
டிரமப
சூழநிலையில
தொடட
கிராமததை
நிறுவனஙகளில
முயறசிகள
##ததுககுளள
விததியாசததில
உதிர
போகிறது
சோனியா
உணவுப
உணடாகும
பயஙகரவாதிகள
ஆவணஙகள
##ியையும
##குரு
##ரிககபபடட
ஊறறி
திஙகளகிழமை
ஒருவேளை
சரஸ
அதுதான
சபையின
மொழிபெயர
ஆமபுல
மதிகக
##வையின
கொடுமை
கணபதி
தொடஙகும
இணைதது
மாடல
விடாமல
விருமபுவ
வஙகியின
அதும
ஆணடும
மெனப
எகஸபிரஸ
வழிமுறை
அநநாடடு
விவாதிகக
எனககும
மேயர
வரவழை
அடிமை
நாயக
அபபோ
கருபப
வநதபோது
சாலையை
வேலையை
##சசிற
##போதே
புகாரகள
மாரகசிஸட
ஊடகவியல
பிரசசினைகள
பெறலாம
##ககிங
போலசாருககு
##ாமணி
##நததாகவும
##கிருஷண
##ரஸ
அடைநதனர
குறறமசாடட
மூசசு
##தஙகள
சிஙகபபூர
கருததுககளை
பிரியா
குடியுரிமை
சரமா
பலாதகாரம
வாஙகும
வேலையில
##சமாக
மூடடை
##சசாவடி
நடராஜன
அணையில
பறககும
ஏல
வநதுளள
உறை
குறிபபு
செனனைககு
ஆககிரமி
மரககனறு
##ருககான
வசூலி
ஒய
ஜாக
பறறாககுறை
ஆபகான
நாளுககு
முரளி
ஆறறு
வினியோகம
விணவெளி
புரோ
அரணம
மேறபடி
மனறம
நடைப
வயிறறு
கிடைததுளளது
தடுககும
முகவரி
தாககம
வடிவில
அடுததடுதது
##ககாலததில
பிரிததானிய
அறிவிததது
ராமேஸவரம
ராஜேஷ
சொலலு
##ாவைச
பயனபாடு
##ககுறை
நகரின
##நாயகம
கேளவிகள
முதியோர
##ானார
அதோடு
தலைவரும
இஙகிலாநத
செயலாளரகள
செஙகலபடடு
மைததிரிபால
மறகக
பஞ
##பபினை
வினியோக
##லைட
சாடசி
அரசிடம
பெயரகள
மிளகாய
குதது
தானிய
விலையை
இரணடும
மையஙகள
வாழவு
துபபுரவு
இருககிறோம
கதையை
முனனேறறம
மறியலில
இததால
##களுககுப
எநதப
சிறுவரகள
வரவு
ஆயவாளரகள
பகவான
வாழவாதார
சாப
##ாவி
தெனனை
##ோககு
மாட
பகுதிகளை
அதிரசசியை
பெறறோரகள
##பபாடடு
புரு
வருதத
##ததொடரநது
தகுநத
பதிய
சிததிர
மககளவைத
சாததியம
பரிதாபமாக
அஙககாரம
##கடசி
##ிருநதாலும
கடடமைபபு
##முடியாது
பிரபாகரன
கேடடால
பலகலைககழகததில
நிமிடம
தவு
கொளளவும
படசததில
வெறறிகரமாக
அரஙகில
மரப
பாதிககும
மொழிகளில
##ேயர
இருள
##கினறார
பகதரகளுககு
நலததிடட
தனிததன
நயனதார
சிவபபு
போடடியிடும
##நெ
விழாவை
சதி
கிரக
விவரஙகளை
காட
கோவிலுககு
விவரஙகள
ஓவரில
தொடரநத
ஆயு
வேடபாளராக
வருடஙகள
இதனபோது
நடன
பாரிய
ராஜவ
டிஜிடடல
##ிககு
ஸக
கூடி
##ாதர
##ககொணடே
யாதவ
கசச
படததுககு
நாகை
காயல
தடவை
வெறி
எபபடிய
காமராஜர
சதத
புவன
கோடியே
வழஙகபபடடன
தவறாக
##நபர
##ிறார
##ததவு
தொணடு
எழுநதது
நரமடடம
குடிகக
விளையாடு
களளககுறிசசி
கடு
சுவார
விஷணு
தொல
முதலாம
தளர
நிகர
நளளிரவு
சொலலலாம
உலா
கடடமாக
##பபிள
இழுதது
பிலலியன
##வெடடு
எடுககவிலலை
லோ
இனிமேல
அதிகாரிகளிடம
மெர
வருகிறேன
பொறும
உடறப
சமரபபிகக
அதிருப
ஒப
வடிகால
வேதன
வியாபாரம
நெடுஞசாலையில
##ஹர
பிரெ
இனனிங
லாரிகள
##யே
காடு
##முன
அவுஸ
##ததிருநதது
இடஙகளிலும
டிராக
சனாவின
நிவாரணம
##ேஜ
துயர
அமபேத
தெளிவு
தேய
கேடடபோது
ஆததூர
முனி
நிலவும
போனறவ
கிளிநொ
##வொனற
பாடட
நிகழவில
சௌ
அமைதியாக
ஓயவூதிய
திணடிவனம
##சிஐ
இருபபாரகள
மணிகணடன
##தொரு
போகக
சுததிக
##தைத
நாளைககு
சாநதி
வகைகள
ஓடடி
##வததை
வகிதத
மணணில
அரசச
நலலா
படைபபு
வாரதத
ஆரவலரகள
##திற
##னட
##ததியில
##மேடு
நியூசில
நிறுதது
பிரேத
##ாணி
மகிழசச
##வசம
இசசமப
லஞச
##பபொரு
##தததுககு
துவஙகிய
ஊடாக
ஜாதி
குதத
தோள
காணலாம
வெடடு
படும
நெகிழ
ஓடிய
ரகு
சுன
நடவடிககையும
பினனணி
##வேலு
தமிழநாடடின
கரபபி
##வருடன
நேறறைய
அவஙக
##விடடாலும
பிகபாஸ
ஆடிய
சந
லேச
ஒருபோதும
நகரஙகளில
தஙகளுடைய
வைககபபடடது
வேணடியுளளது
##ருகக
##டைநதார
காபபு
நானக
கொடுததனர
சனாவில
அலஙகாரம
##ேயுளள
பகுதிகளுககு
##ளவுககு
நிறைவேறறு
##நார
பனறி
##தியினர
உயிரிழநது
சுறறியுளள
ஆஙகாஙகே
நககி
செயவத
இதைப
நெருஙகிய
##ாகள
இநதிர
##ஙகுடி
##பபவர
அவரகளில
மருநத
குறைதது
##வாரம
##ததிட
முககியமாக
காரைககுடி
எய
பகார
பிரசசாரம
நிமிடஙகள
டுவிடடர
இவவாறான
வளரநத
செப
பெருநத
இணையதளததில
##ததறி
##னனுார
ஆறுமுகம
ஜெயககுமார
விளையாடி
ஐகோரட
காலகடடததில
இதுபறறி
இலலா
விணணபபஙகள
மினவார
ஸம
இதோ
கிரே
அசோ
தொலல
வெடிகுணடு
##தளம
வுககு
##ாடடின
வைககபபடடுளளது
அவறற
பைககில
உளளோம
அதிருபதி
##ககமும
சொலகிறார
இணையததில
கொணடுளள
உருவாககும
தொழிலாளி
பலகலைககழகம
முனவர
##ககபபடடனர
அசசுறுததல
புனன
##ியைக
போடடியிடட
புததி
அதைக
அபார
அரதத
செயயபபடடன
##ததுளளன
வாயிலாக
வசசு
கடடளை
##சய
கலவர
எழுமப
குழநதையின
உலகள
##ாமப
வறடசி
கொடடி
பாதிககபபடடு
விமானததில
சகோதரர
காததிருநத
##வாஸ
கணகள
வசதிகளை
##மமை
செயகிறார
உடனப
##ொருவர
காசி
மேய
மதிபபிலான
பவன
##விற
பாடிய
இதனைத
இப
##ெடடி
##விடுகிறது
##ெஸ
இயஙக
செனறபோது
நடுததர
வெளியிடு
உதவிகள
##பபோன
அதிகபடசமாக
##ாளரை
தடடுபபாடு
காடடிலும
நாகரகோவில
இபபடததின
##ாடடிறகு
காணும
சொனனால
வரவேறக
##விதமான
அதுமடடும
வாஙகு
கலயாணம
பிரசனைகள
##விகள
##டுககி
குழபபம
நினைககிறேன
மனைவியை
பரவலாக
தததுவ
##ரகளா
எததன
வழியே
கடசிகளின
சிறுகதை
விரைவாக
கலநதுகொணடு
எணணிககையில
செயயப
பரத
##ூசி
நிறுவனஙகளுககு
விடுவிகக
அவா
பாடடு
இருநதபோது
முதறக
##ககோரி
வழஙகல
உருவாககபபடட
வனததுறையினர
##ெனறும
##றாக
##ஷர
சுஙக
பாதுகாபபாக
அரசாஙகததின
ஒருஙகிணைநத
சேமிபபு
##ூபி
##ியுளளதாக
##ாதேவி
சிவில
பௌதத
வெளிபபடையாக
ஊதியம
எலக
##ஙகளா
ஆணடி
எவரும
பஙகேறப
ஊடு
பாடி
பணியாறறும
##வுளளதாக
கமிடடி
கோயிலுககு
##திகளை
##புல
தெரிவிககினறனர
##னமையான
போடடியின
இளமபெண
ஸரல
செலுததிய
மூத
மடடுமதான
தயாரிதத
சொனனது
வழககமான
சோதனையில
இடு
கடறபடைய
பொதுவான
தமிழரகளின
கிங
##ைகளும
##தேவி
ஸப
சரதிரு
வைததுளள
தோனறும
உஙகளின
இளஙகோவன
நிபநதனை
##விடலாம
##ானு
இருநதே
பிறபபிகக
##கமான
மாதா
இநதியரகள
சமபா
##ரியில
##மாநில
எனககுத
##லாப
##ையாய
இயநதிரம
சமாஜ
எலலாமே
ஃபர
##ெண
அறிவிதது
##டைநதுளளனர
சிலருககு
கருதத
அமைசசராக
சிறுவர
##ாவடட
செயதல
##தாரி
டெனன
அனபும
விவாதம
அமைசசு
##ஸின
ஸவ
காரணததால
சகக
நகரை
கனட
வடகிழககு
மறைமுக
புனர
கிம
செனறுளளார
##ினபோது
அதனாலதான
அபிஷேக
##ேறகு
##சபை
தணணரில
பிரபலமான
டய
புணண
புறநகர
முதலடட
கூறியுளளது
ராணுவம
ரததம
##டததில
செவில
கூடு
எடுததுகக
மௌ
அமைககபபடடு
ஆலோசகர
செஞசி
விதிதது
##ரிரு
வராமல
வருததம
பெறறுளள
தரிசி
அமைநதது
முயல
ஆலோசி
மரஙகளை
வாககும
சதவி
அறநிலைய
கருதபபடுகிறது
நடததபபடடு
பயனபடுததிய
விரிவான
விராட
உயரநதுளளது
அறிவிததுளளார
இழபபடு
முதலிய
வைததது
டாப
##ாங
##விடடாரகள
மனுதார
ஆபாச
மேறகொணடனர
திரையுலக
##வாச
தடடி
துரநா
தியேடடர
ஸகூ
##ாககும
போரில
பலகலைக
##னையும
செயததாக
வைததுளளனர
ரஞசி
எழுததாளரகள
பசி
அசோக
படிபபடியாக
மறுபடியும
மையஙகளில
பணிபுரியும
ஐஸவர
##நலம
இதனமூலம
நிலவர
புகழபெறற
சரஸவதி
##ாககிய
சமபாதி
மாரககெட
ஜெனரல
விவாத
நாளான
##மாகச
ரயிலகள
நடநதன
அரேப
##பபடலாம
துரித
அதுபோல
##ககுபபம
இவரகளை
##கததை
தரமானஙகள
##ிருபபதாவது
##ரதது
##ஜை
துார
##தராஜ
வகையிலும
அணியும
இருககினறது
##மாய
##ுவதறகு
சேரமன
இவவழ
##டைநதனர
நபி
வசநத
எஙகளது
அறிவுறுதத
சேவைகள
புழு
அவளுககு
செயதிருநதனர
ஆயவில
கலவிததுறை
##ையிட
ஆசிரியை
கமபென
மனனன
கலநதுகொணடனர
கனடா
இனறைககு
##டஙகு
##ாருஙகள
விழும
##நதல
மேலதிக
தலித
கசி
காரகள
விடுகிறது
சாலைகள
வாககெ
ஈடுபடுதத
வெனறது
##றறது
ஆகியோரின
##றையும
##மபூர
இபபொழுது
தோறக
மதிபபடு
கமபம
தோறறு
எஸட
கறபனை
ஃபேஸ
##ோடடம
##மபோல
கிராமததைச
பெயய
ரோஹ
கணகாணிபபாளர
##பபநது
போற
திருததம
விறறு
வாலபாறை
##ாயிர
##டசை
முனபதி
பஙகளிபபு
மரும
##ணததை
திருடி
தேவைபபடும
பகுதிகளிலும
ஆடடமிழ
உயரததி
##ஷய
திருககோவில
துறைகளில
தொழிலநுடபம
மடடுமலலாமல
சபரிமலை
##திககு
##ாதவரகள
சேரும
யோசனை
செயயபபடடுளளனர
சதஷ
மரியாத
சேவையை
ஒறறை
கஙக
கோழி
பாணடி
சிறப
நோயகள
சிரமம
##வளை
செயயபபடு
சநதிரசேகர
இமமுறை
##ககுளம
புள
தலைபபு
கைதிகள
உறுபபு
கிடைதது
அளிததுளளார
பெரமபலூர
##மணி
மாரககெ
மனமோகன
விடிய
பிராம
அறிகுறி
அவரகளும
இபபிர
##னுார
பாலை
சுநதரம
தொழிலதி
ஜோடியாக
தொக
தோறும
மரபு
விருமபவிலலை
ஜாத
தேவன
கடடமை
ராஜய
கூறியுளளனர
##பபிளளை
தாமரை
ஆமபுலனஸ
##ருநது
ஒனறரை
கஜ
ஆகியோருககு
##நடுகக
நேபாள
கழிவுகள
வடடாரஙகள
நடடி
விகிதம
##டைநதது
பாககிய
##படுததபபடட
##ிததார
இபபடததில
ஸரர
மோடியின
மறுபபு
பொறி
கலைஞ
திருட
தரதத
விஷயஙகளை
வெளியிடடார
இதறகிடையில
##ஜரிவால
எதிரபாராத
##வாழவு
நிபுணரகள
##ையாவது
அரஙகே
##சசே
திஙக
நாடுகளுககு
இபபடம
கததி
நிலவுகிறது
விலககு
கூறுகிறது
சமபவததில
##ிருபபதால
##ாதிரி
##நாயககனப
##டிங
##மபை
அலலவா
முறைபபடி
வினோத
பழனிசசாமி
ரெய
அவல
வருடஙகளாக
வரததகம
செயவதாக
செயயபபடடுளளன
டெக
##முடன
##படும
விதம
சதவிக
விரைவு
பததாம
டெனனிஸ
##ுதல
அடைகக
செயயபபடடுளளார
சறற
சிமபு
பாதுகாபபான
உதவிததொகை
படடியலை
நோககிய
பருபபு
##நிறுவன
செயவதறகாக
அதிகாரபபூரவ
தூகக
அனுபவி
கோரிககைகள
முளை
காணபபடடது
தவிரவாத
லூ
பாறை
##ாசா
ஜிஎஸ
பொருளாதாரம
##வரததி
##சசொ
நடுவர
பினனணியில
முஸலிமகள
செட
குறைநதுளளது
##மானம
ஐபிஎல
சடடு
துனபு
நிறம
வளரதது
அமைககபபடடது
உசசநதிமனறம
ஒனறிணை
ரை
##ேடடை
தேவத
சமபத
நூலகள
##ளையில
கூடடி
பெறறுளளனர
##போரட
ஓடு
பெடடி
மாவடடச
சடடமனறத
பாரததேன
ஆநதிரா
சமாளிகக
பிரக
எஸடேட
##ககிடடு
##ததொழில
சநதிரன
##ஙகொ
##லிங
படடது
##ககதை
##ஙகன
நரசி
மோதியது
கோஷ
##ககொணடிருநத
நாராயணன
விளமபரம
##காலததில
மூரததி
வம
பேய
ஒருவரின
உணரசசி
கரபப
வெஙகாயம
அணுக
சிதமபர
பாரபபோம
விறற
அழகாக
வாஙகிக
மாகாணததில
ஆஜராக
ஆபகானிஸதான
இடஙகளுககு
முருகேசன
ஒடி
தபாராதனை
##சஙகர
##ினாள
இருப
அமைபபாளர
தினேஷ
அகறறி
நாடாளுமனறததில
அவிநா
நிலநடுகக
மறைதது
நிசசயமாக
வராஙகனை
இநதியாவை
கிருஷணா
வருவதறகு
அளவை
உளளிடடவை
வாள
##பவன
கலைஞரகள
சடடபபேரவை
##மாடட
##லவி
வேணடுமானாலும
விருநதினர
தூயமை
##வறை
தெரிவிககும
இணட
##சசில
##ாவதாக
ஆஙகிலததில
துபாய
விடயம
சடடசபையில
அடியில
வளரபபு
குடிசை
கலவித
நஷட
பளளிகக
யாரோ
கிருஷணம
##ககிறான
மூவர
நடிககிறார
##படுததி
##பொ
வெளியேறி
அளிககிறது
##மில
வலியுறுதத
பினவரும
பெருமபானமை
##ியாய
தொடககம
சதவிகிதம
##பபறற
அறிவிதத
உயிரிழநதனர
மநத
வளரும
காணபி
வரிசை
குழுவில
ஆதாரம
சுகாதாரம
ரதியான
##நிலையை
சாடசிய
எனபவரை
எலலாரும
##ககாரன
விரிவாகக
சமரபபி
தலைவன
உயிரு
##னினறி
உளளடககிய
வழஙகியது
மகிநத
மதிபபடட
ஆளாக
##நதுளளதாக
வவுனியா
நிலுவையில
சஸபெ
##ுடனும
இனிய
சசசின
குழநதைககு
அறிவிககபபடடது
வருஷ
தமிழப
முகவர
##தாசன
குணட
மாறும
நிரூபி
மானியம
##வடி
புளிய
இருநதேன
கொணடாடு
கரம
இக
ஜய
##பள
போராடடஙகள
விஷம
சொனனேன
தோனறிய
கொடைககான
தூககு
முனம
நிரணயிகக
##ெனப
##ூரை
பெறறுளளார
விவேகான
நணபன
டிலலியில
##சமான
##வாயு
பாதாள
நாளிதழ
##பவரகளுககு
##ுல
நடிததுளளார
ஒனறியததில
வழிகாடட
விருநது
உறுதிபபடுதத
##ககரி
விழுநதது
##சான
##கிறதா
வெளிவ
கொடுததது
ஓரிரு
உரிமம
தொடடு
மேறகொளளும
விவாக
கலாம
##ிககொள
மாதிரியான
##ககரு
முறிய
ஜெயம
முதறகடட
தேயிலை
மொததமாக
இவரின
கைபபறறி
மாடி
இநதியப
ஆகியவறறின
ரசாய
##ையாகவும
தரபபின
தோனறியது
##னறால
எதிரகாலததில
##ாவசிய
##வாயில
வாரததைகள
துனபுறு
சதம
வைகை
விடுததுளளார
கூறியிருபபதாவது
##ததிருகக
சுமமா
பயநது
வநதிருநத
போடடியை
##ததினபோது
விநியோகம
செயதியை
சிநதன
வாசு
திரள
கமபெ
அகதிகள
அவளது
ஆகியவறற
போஸ
##ாவால
##ாடடுககு
பணபு
பொதுபபணிததுறை
கையை
ஆணடுககான
ஆரபபாடடததில
##ரஜி
##ாவிய
பதிவிடடு
ரத
##றா
##ாவைப
இலககியம
ஊகக
அரசால
துவககம
அமைககபபடும
ஹால
புட
##ரியாக
##ியிலிருநது
##ாளரகளுககு
கடைசியில
விளைவாக
பையன
மககளவை
சிவகாசி
கிளப
ஆகியவறறில
##வானது
உறசவம
வலைதளஙகளில
இருககினறனர
தூஙக
பெரிதாக
##ககூடடம
##சுவாமி
##பறற
மகாத
வைரல
ரவ
ஹோ
தோனறுகிறது
நானகாவது
##ரகளாக
திருபதி
செலுததும
வாசன
இலலததில
பயிறசியாளர
##றறியது
வடிவம
##ககாத
பாலு
இனடர
தூரததில
##ககூடடததில
ஊடுரு
நேரகாண
##ெனஸ
வழககறிஞரகள
##ககிடட
##வுணட
கொணடாடட
நிறுவனமான
தரமானிகக
ஷூ
##கதி
பிறகும
எடுததுககொளள
உறுபபினராக
சிவாஜி
##ஙகுனறம
கருணை
நாளும
சுபபிரமணியன
ராகக
செயின
##வதுடன
சதய
வினை
##ஸஸ
காச
நிலஙகள
பிரிவினர
யாருககு
சுயே
இடிநது
ஆபபிள
##சியா
காரததி
##ததாழ
கறறுக
எவர
ஐமப
எனறுதான
வினாடி
எததனையோ
கறி
கொடிய
பிசசை
வாழநாள
அனபழகன
எலலாவறறையும
டார
##லகளை
எனறெலலாம
திருவன
வழிகாடடு
தககாளி
கோளாறு
##ிண
சிததர
##பபடுகினற
வரிச
##பிக
வயிறற
இருபபவரகள
கடசிகளும
மாடடோம
அமபேதகர
செநதிலகுமார
##ாஷ
##பரை
காபபடு
பாலிவுட
வநதேன
நியூய
பசும
பருததி
##சசிக
##டைபபு
பழமையான
இறபபு
முறைகள
பேஸபுக
##மேன
இதுவும
சிநது
வழஙகுவது
மினி
##ததேரவு
சிறிலஙகா
தமிழிசை
பகதி
மிரடட
நிபுணர
பிரமுக
சமூகததின
வெளியிடபபடடது
லணட
இலககை
பொருடடு
நினைவில
சிகர
களுககு
தொடஙகினார
எரிநது
உயரநிலை
மெகா
மாரி
போடும
##ாவையும
##கொடும
##கோடடை
விரிவாக
##சுநதரம
பேரையும
நடுவில
புரிநதுகொளள
ஓடடம
திருசசியில
விடடன
##பபதறகும
கிடககும
அவுஸதிரேல
செனறால
விடடதாக
அழைககபபடும
வடடம
கிலோம
##றகா
நடததியது
திருவனநத
கணேஷ
தேரதலுககு
தினஙகளுககு
குடுமபஙகள
##ேனா
அரியலூர
##சேர
வரலாம
கொணடால
பளளியின
வநததும
விசேஷ
ஓடும
##ணவு
நியாயம
மககளிடையே
ஊழியரகளுககு
உரம
##நதிரா
அணுகும
கமபெனி
ஏவுக
இயககி
கடைசியாக
பனனாடடு
##ததூ
##பபடடதால
நானே
நிகழநத
ஹிட
நடநதுளளது
ஸடெர
தனிபபடை
##வலி
சிட
##லகளில
##யிஸ
##ிகாப
தெனனிநதிய
அமில
கிணடல
##ிததுக
ஓவரகளில
வாஷ
வைததிருககும
கஞசா
தடுதத
அரஙக
கிராமஙகள
லடசும
ஆகியோரும
கையக
வேடடை
##ைகளின
நடததுவது
பாவம
சாதகமாக
மாறறுததிறனாளிகள
தஙகும
தழுவ
மேக
மேடையில
##ோரின
சாநத
##டடியே
மாதததிறகு
நடுநிலை
வெறறிபெ
பொறுபபில
ஓரளவு
மூழகி
##களுககாக
பிப
வளரசசியை
விசாரணைகளை
அதிரடியாக
மநதிரி
##லார
உலகப
##ாடசியின
முனபதிவு
நிறப
நடவடிககையை
##தததுடன
##ியபபன
##டடோ
இலகக
விளஙக
மனிதர
##வதைத
வெளியிடடுளளார
ஜனன
அபபோதைய
உடறக
சிவககுமார
தாக
இடைவெளி
ஊடட
ஏகக
பலனினறி
கிழமை
ஓராணடு
கொணடிருநதனர
காமெடி
சடடை
வாடகைககு
எதை
மோக
காஷமரில
##வாண
##பபடுகிறார
##ாசை
நிரமலா
உததரவிடடுளளார
உடகாரநது
##வியும
தேதிககுள
##ரசன
சுவை
தடுமா
பளளிக
விஞஞானிகள
வனகொடும
எரிய
திருமபப
சவுதி
பெடட
##களுககுள
நுால
உரிமையை
கொழுமபில
எணணை
தறகாலிகமாக
எமபி
டம
##பபதன
##வுளளார
இதைக
##ிருநதேன
அவரே
அருகேயுளள
பவர
##லோ
பரவ
வகிதது
கிறிஸது
எகி
##ாயன
எநதக
விககிரம
வெஙகடேசன
ஒலிமபிக
##துளை
வேலு
##வேநதர
குரூப
சபளை
வெல
காபபடடு
பயனபெ
காவலர
முறையும
இருநதவர
கூடடததை
பிரதமராக
பெருமபானம
இஸரேல
பழுது
பொதுககுழு
##மபிகக
புண
தேடு
நிலவிய
தனனார
அளிககபபடும
விழிபபுணர
கவுனசிலரகள
சிவபெரும
##யை
##ாவார
நடததின
தெரிவிததுக
அரபு
கோபுர
மேறகொளளபபடடு
நிகழசசியை
திஙகடக
தினதத
பாதிபபை
தணிககை
ஒதுககி
வஙகிகளில
யூத
##ாராம
மனதை
##ளியல
சராசரி
முஹ
முரு
செயகிறாரகள
உஙகளது
சோநத
ரஷயா
##ககுமாறு
குறிபபிடபபடடுளளது
இயலாது
ஹிநது
நியூசிலாநது
மூவரும
பிரிடடிஷ
அததும
போஸட
அறிவிபபை
பநதுவ
##ஞசன
ஏராளமானோர
உயரநதிமனறம
மினவாரிய
##வலல
உறவுகள
நகைகள
##நிறுதத
மகாராஷடிர
போவதாக
##கராஜ
சிலல
ஆசிரியரகளுககு
கொடுததால
சரும
##மாற
கூறியிருநதார
சரிபார
கலலுாரியில
##ரில
##பபடவுளளது
##விருககும
சரு
##டிதத
##வுககுப
பைபிள
தடுபபூசி
மாணவிகளுககு
அதனைத
புத
பாலா
உததரவின
##ததினம
மேலமுறைய
வசதியாக
துறைககு
கணடறிநது
எலலோருககும
தினததை
ஊராடசியில
விபரம
அவிநாசி
##ௌ
##ககிழ
##சசரிகக
அரபபணி
அவரைப
மினனணு
அடைநதுளளனர
அரசியலுககு
நிகழசசிககு
பேருநதுகள
##பாணடியன
சடடப
அதறகுள
உடைநது
ஜாமன
சதவதமாக
முகாமை
எதறகாக
##தவி
##ோருககு
நெச
முஸலம
எடடி
சஙகில
சதா
செயலா
மகேஷ
இணைகக
மென
##ிபபை
துலல
##போய
சாஸதிர
சபையில
மமதா
##விலககு
காதது
##ியுஙகள
நேறறும
கணடுகொளள
மிரடடி
நூறறாணட
தருவதாக
ஆவணஙகளை
##முடியாத
வாரிசு
கவித
சமூகததில
எமஎலஏககள
##ாககில
தேதிகளில
அதிலிருநது
உஙகளுடைய
கிடைககாமல
திடரெனறு
##ொழிவு
##ரக
##டடான
கூறியுளள
மதுபான
ஒறற
வேடட
##வரகளிடம
வாதி
சடடபபடி
இயககததின
கிணறறில
##ககச
##ினறு
##ஙகளுககான
##ினறது
கூறபபடடது
தோறறம
பணரு
இவவி
வெளளததில
குறுககே
மாறுதல
பிரதேசம
படடதாரி
புதுபபிகக
நிலையததிறகு
நகல
##ிரியில
பலகை
போலஸாா
செயலபடுகிறது
உமா
அலுவலகததை
##ததிடடம
நிரூபிகக
ஊட
##லால
வரத
செயதுகொணட
அவரால
பாதுகாபபுப
பொறுதது
எரிபொருள
வெகுவாக
கணககெடு
நிலவி
பளளிகளுககு
இருககுமபோது
பொருளகள
##ாரா
தயாராகி
குமபாபிஷேகம
##ததிறகுப
##விடாமல
எதிரபாரதத
ஆவல
இருபது
வரகக
இயறப
கொணடேன
வளம
##ததானே
தேசம
ராஜன
வழிபடட
##காலமாக
குஷ
டிடிவி
விழாவ
காரணஙகளால
பிணை
அதறகுப
வகுபபில
புலிகளின
சுடடுக
நசசல
##சசுவை
ஆடகள
தடையை
நுழைய
நடராஜ
##வென
மேறகொளளபபடட
மறைநது
வேதிய
ஹரோயின
அரவ
பிரமாணட
கொணடுளளார
அழகிரி
பககதது
எடுததது
நயனதாரா
உணவை
இடையேயான
புததாணடு
ஜாரஜ
##பபிடம
திருடிய
திருமலை
விஜயகுமார
மகிழசசிய
ஆததிரமடைநத
##னையின
முறற
அனைவர
##நாராய
##ரைப
நிராகரி
##டடன
ரூப
முனனுரிமை
##பபெரும
வருமாறு
##நாயகன
பொதுமககளின
கழகததின
தோடடககலை
பாடடி
##ளியை
நேரமும
பேசசாளர
மருநதுகள
செயலபாடுகள
நாஙக
பிறநது
உடலுககு
ஆனை
மாஸடர
##ாளம
தொநதர
வேணடுமானால
##ொனறை
உடறபயிறசி
கிளிநொசசி
##விலலி
##தவிர
##பபிலலை
பயனபடுததிக
கடிதததில
நுழைநது
##கூர
பேரிடர
##ெடடு
போஸடர
இவள
வெளியேறும
சஙகரா
ஆதமி
கொணடதாக
நிரணயம
##ஷின
##ாளருககு
குறறவியல
மெயின
தால
ஞாயிறு
##ாறும
##பபோய
படைதத
மதமுளள
##னோ
நடிபபு
##டின
இநதாணடு
தொழிலில
வெபபம
நடுவே
உணணாவிரதம
##படியாக
நடவு
வெளியடடு
தொடரநதும
அமலாகக
குஜரா
ராமசசநதிரன
லலி
பாசி
குமபகோணம
புவ
காடடுகிறது
ஒபபுக
ஆதிககம
##மபெயர
மோசமாக
பநதுகளில
அவதான
ஆகியன
அபபோதுதான
கூறுவது
விளையாடிய
##ெடு
மனது
அவரகளால
அணிநத
பிரமமாணட
ராமர
அரசியலமைபபு
மேறகொளளபபடும
##மமா
வேடபு
ஆறறின
விசா
பொற
இதுபோல
தோதல
பிளளையார
விககிர
##பபடுகிறாரகள
தாஙகி
வழிநட
பெயயும
பாரதியார
##பபூரில
##வரதது
உடலநிலை
வலியுறுதது
##ையினை
தரையில
அககா
சேகரிகக
ரஹமான
##ததியை
ரூபாயும
நடைமுறைபபடுதத
##ிககிறார
உக
நிக
தனபால
##ாடசியை
சிநதிகக
அடைதது
##ஜிஸ
துபபாககிச
கடடணததை
வருவத
வாபஸ
அவனுடைய
குரலில
குனன
செயவதில
சொலற
கொலகததா
ஷர
தெரிவிததது
##சசான
##நேரததில
##சலை
இநதோன
அநதோ
உயிருககு
##பபல
இலடசம
##கினறோம
எழுபபிய
பூசசி
இருபபார
வைததுளளார
பொறுபபாளர
நிருபர
தாளாளர
##வோடு
##மபில
மோர
அடைநதார
வேடபும
உணமையை
வாஷிங
பொமமை
குறிபபிடததகக
இபபடிபபடட
ஹெச
பழுத
மெனபொருள
அதைச
ரனகளை
அதிகாரிகளை
##ேஸவரர
ஜிஎஸடி
நிலவு
எமஜி
நினைதத
##ககாலம
புகைபபடஙகள
அளிததுளள
நடததபபடுகிறது
செயலாளராக
புலமபெயர
முனனெசசரிகக
ஏப
##கிடட
##டடிக
##மாகாண
பேசிக
கேன
மதிமுக
கதவை
செலுததினர
வைததியசாலையில
##நூல
##ிருககிறோம
##கினறேன
அளிததது
அளிததுளளது
இடையூறு
முததம
தலைவி
ஆராதனை
எழுதும
அதிகரிபபு
நூறறாணடில
வலுவான
##ாகச
##நதுறை
சேலை
புறமப
சுகாதாரததுறை
இவறற
கோரிய
அதனபிறகு
ஏரியில
ஸரலஙகா
ஏடி
##னூர
பாடலை
##யயா
வருவதை
பெறறவர
பதிவுகள
காணபபடுகினறன
வெளிசச
பணியாறறு
##ூருககு
முடிவடை
பாஸகர
காணவிலலை
அஙகன
வெளிநாடுகளில
பனை
எனில
##சியின
வெளியடு
எதிரககடசிகள
##சசெனற
கொளளவிலலை
##ிரியா
அதிகாரிகளின
விபததுககுளள
தாககுதலை
மசூ
##ியைத
அருஙக
எரிவாயு
நிதியுதவி
நூறறுககணககான
##ஹம
உததிர
திலலி
கிரி
இடமபெறறது
ஒன
மவு
பெணகளும
##வழியாக
##டைகள
உளளதாகவும
தெரிவிததிருநதார
முனனெடுதது
உததரவிடட
வரையிலும
##பபடடினம
டேவிட
##ையாம
அமைபபினர
டரமப
விலஙகுகள
##காநதி
நகைசசுவை
திஙகடகிழமை
விடலாம
கணகாணிகக
ஸடேஷனில
அநநிய
##நாம
சிசி
வைபபது
பததிரிகையாளரகள
##ிறை
வேடிககை
##ாவலர
வேலைகள
பெயதது
கடனை
விடடேன
தனிநபர
வனன
##வடடார
கருவிகள
##தாச
வடுகளை
நமபிககையில
ஐயபபன
##பபாத
பெணம
வைககபபடடிருநத
##ாவள
தேரவுககு
பதககம
எனகினறனர
வகுபபுகள
சததுணவு
மாடுகள
வரவேணடும
##கலவி
இழை
நேசி
தாததா
பிரிவுகள
சாலைகளில
விணணபபம
அததியாவசிய
##துகக
கடடிடம
இறுதியாக
பறவைகள
மூர
சேல
##பாணடி
நாராயணசாமி
பூசச
செனறுளளனர
கலலூரிகளில
பெறுவது
டாடா
##யமாகக
##வருகினறனர
பூச
கிறிஸதவ
மேடடுபபாளையம
கறக
சுஷ
புராண
பணபாடடு
ஹெலிகாப
முகர
வாசல
செயயக
##ததியுளளது
கதவு
வழககின
##தியு
பாராடடி
அலடசிய
பெறறுககொளள
அணையின
ஆராயநது
பயில
##ிததது
பெருஙக
செயயுஙகள
ஏறபடடால
ஸடெரலைட
வநதவர
##வரிசை
வெளியிடடது
ரச
##ஸா
நிதியை
பேசுமபோது
பறிதது
உளளாடசித
டவிடடரில
சமான
##ஞசில
கணின
வரைககும
##தேவ
குமரி
##ாறில
இதெலலாம
மகால
ஜெயநதி
துரநாறறம
தேடும
ரூபாயாக
வஙகதேச
யை
பிரண
நேரததை
தேதிககு
ஒழுஙக
எனச
ஆழநத
அயர
##பபதே
##டிககண
மககளுககும
அதுவரை
காலில
தூது
கலநதாயவு
##ாலயம
##சசியான
மாறறுத
விருமபுகிறேன
சிடடி
ஸடர
##ொறிய
முனகூ
மெதுவாக
##மாண
யாரையும
பொருடகளின
சேதமடைநத
##ககுழுவின
பகை
##ிருபபு
##ககளையும
இறஙகிய
##ளிககிறது
வழஙகியுளளது
நெட
சேதுபதி
தொடரகிறது
##போத
படிபபை
கவுர
மெகாவ
இடமாறறம
##பபடடிருககிறது
மனவர
அமமாநில
ரவிசசநதிரன
விடுதியில
அலுவலகஙகளில
தொகுதிககு
##பபிடிதது
நுழைநத
##ககுழுவினர
செகஸ
காரியம
##பபடடுளளதாகவும
##ெகட
முனனேற
##வெடி
பிரிடடன
இருதர
##பபிங
பொருளை
பேசசுவாரதத
எனனவெனறால
ஐஸவரயா
##ிராஜ
குனற
ஆயவுகள
ராஜி
துவஙகும
காவலரகள
தாமபரம
ரசிகர
கடறகரையில
ஆடுகள
##சததிரம
கேபிள
எனனெனன
அலலாத
ஆககிரமிதது
ஆவே
விதிகள
கொதி
##யராஜ
கூடவே
அருஙகாடசிய
அமைபபில
அபபொழுது
ஆஞச
தேவர
நிறைவடை
வரிததுறை
வாசலில
வறபு
சுடு
சொடடு
அதேசமயம
ஹெலம
நபரை
பவுணடரி
கடநதாணடு
தேவையறற
கொடுததுளளார
சவரன
கடைககு
போடடுக
##டடாக
வசனம
சமயஙகளில
##ஸடம
##ுமின
செயவதறகான
புழ
நளம
பலவன
எடுததுரை
கரநாடகாவில
ஏமாறறம
கொணடவர
வடகொர
##லான
##வததில
##பபிடிகக
வரதராஜ
##ளிம
கமபர
உடனடி
##ரோடடில
தொடரபாளர
ஜோசப
வளரசசிககு
பேராசிரியரகள
மோது
##முகர
எழுதியுளளார
எஞசிய
கறகள
அனுமதியினறி
காளி
##ையினர
##ாபில
தமிழகததை
##காலம
மணடலம
அயோ
குறைநதபடசம
தெனமேறகு
தற
வராது
தமமை
இறககி
பேசியது
சசிகல
##ததுவிடடு
எனகிறது
##ாவா
ஒனறாகும
வனம
படையின
நடைமுறையில
விதிகளை
திருநாவு
அடியாக
முதலே
##பபடுவதிலலை
அவரகளுடன
தயாரிபபாளரகள
வறபுறு
ஜவு
ஜியோ
ததத
பஞசம
தேதிய
##ககியது
##ாளரகளின
கிளர
ரசிகரகளை
##தையடுதது
##காரததிக
சகதிவேல
##வைகக
இருககிறதா
அதறக
அவமதி
திருககுற
தானம
அனுஷ
##பபடுவாரகள
இலலையே
உதவித
குளததில
##பபடுததுவது
மசோத
காவலில
சுறறுபபய
பிரிவுகளில
ஊககுவி
போடி
பதறற
வெளியாகியுளளன
அழிநது
##நததே
வஙகிக
மோடிககு
சநதிககும
##ிருககினற
சிறித
வைததுளளது
செவி
காபி
பயனபடுததபபடும
விளககுகள
நகருககு
அநதஸது
பூத
சிமெனட
விம
##பபடடிருககும
##விலலிபு
எதிரில
மினகமப
##ததனமாக
ஆளுஙக
##வாறே
காறறில
ஒவவொனற
படஜெடடில
##ாடிய
ஆலயம
பறநது
கொணடாடபபடடது
சரதிருதத
கெள
பதிலடி
##சசோ
பேனர
ராஜகுமார
அறிவிபபுகள
ராமகிருஷணன
##படடினம
நொறு
பணிபுரிநது
நறப
போராடு
தலையை
விலலியம
நிரமபி
பரோ
முனனரே
னனு
மடியா
##தததாக
நளளிர
நாலு
முதிர
அசாம
முடிவுகளை
மையமாக
உறுபபினரகளை
வாககளிகக
தாமதமாக
குழி
பொறுபபை
கடடுரைகள
ஏவுகணை
வளரகக
தருகிறது
பயணததை
வாயபப
தொழிலாளரகளுககு
னு
##டசியம
##மிகக
தேரவுகள
அகழ
##ககணககில
தெனகாசி
தோடடததில
ரோம
##ஹி
பதிலளிகக
இளைஞரணி
சலமான
பணருடடி
பேடடியில
##பரட
##லாமா
ஓடடுனர
மாமா
பயிறறு
இனிபபு
மகாதமா
##பாத
##ையாகவே
தூள
உதவிகளை
சொலகிறாரகள
புரியும
##பேரில
##னுககாக
அதையும
##பபடுவதை
தொடஙகுகிறது
விடடாரகள
நமபர
நியாயமான
செலவாககு
ஷி
பலலடம
மூழக
டூவல
நிருபரகளிடம
ஒபாமா
பததி
வசு
தண
தவம
அவரவர
பெறறவரகள
கணடறி
திருநாவுககர
மாவோ
தலைமறைவாக
ஒழிகக
தமிழகததிறகு
முனைவர
இயநதிரஙகள
பிண
பரவும
நடிததுளள
பழம
விடுதல
அதிகாரிகளும
திருபபர
ஆலோசனைக
சிறற
திருமு
அமபல
ரோக
##ரகளால
##ாடல
செயதுகொளள
முககியமானது
அணணாமலை
பிராரததனை
எலி
பதிவில
சைவ
ஜேர
##யமான
வருஙகால
மரா
ராமன
எனபதைப
அடககம
மேமபடுதது
##ாகிறது
##தலால
தெல
தணடவாள
வறுமை
லணடனில
##ருககாக
கோம
அடையும
நகைகளை
உலர
கிரண
கலெகட
பலியானார
பிறகே
ஒனறின
விமானஙகள
அருகிலுளள
அஙகனவாடி
##ககமான
விவாதி
##ஙகரை
எனறேன
செயதேன
களின
விளைவு
அலுவலகஙகள
காடசிகளை
திடடமிடடுளளது
##வூர
பிரேசில
சஸபெணட
##யு
##ோடும
விளஙகும
நடைபெறவுளள
##ககணட
##பபுத
மாணவரகளும
முதனமுதல
##ரிச
முகததை
குடுமபததை
அஸவின
செயவதை
போவதிலலை
தொடரை
வெளிநாடடில
##பபாறை
உதாரணம
##டிககொணடிரு
##வதையும
அமைநது
துணடிகக
ஒடுகக
##தக
கொநத
கோடியில
நிலையிலும
##பபடுததபபடட
பெரியகுளம
குமர
##பபுக
வசம
காவேரி
##நேய
விரோ
##தாரதத
இயககபபடும
பகிரஙக
கிருஷணமூரததி
ஷோ
வேணும
பாதிககபபடடது
இயககும
##ததிருநதனர
ரெயில
சநதிததார
துலலிய
விணட
நிறைவ
மைகரோ
குறுமப
அரணமனை
##ியியல
##டடரகள
அபபால
உயிரை
கஜா
##ோடடை
சிததிரை
##மாறு
##பபைக
##ககபபடடுளளனர
கொடுபபது
அதிகளவு
ஆதிகக
தலைவருமான
ஈடுபடும
அமபாள
மாமலல
பிரெஞசு
நாடடுககு
வயிறறில
சிவபெருமான
கஙகை
படடி
##ூழ
##மைககு
அபபடிபபடட
பயிரகள
##னகள
தமிழின
திருபபூரில
ஊரை
##ணடாம
குறிககும
பிஸ
சரமைபபு
இவருடைய
லடசககணககான
##ஷல
##நதிரி
குடுமபததுடன
கருணாநிதியின
தடசி
நானகாம
தயை
அலுவலகததிறகு
தாககுதலுககு
ஆழதுளை
நேறறிரவு
##ேஸ
##றிக
##ணிககம
##கமும
வரிகள
எழுதினார
யெகோவா
புதும
##தியையும
முனனோர
கொளளாமல
உறி
ஜெட
நறு
அனல
சகோதரரகள
முடிவெடுகக
துரோ
வாககுபபதிவு
கநதசாமி
பாடுப
##பபடுகிற
அபபாவி
லிஙக
##லட
##பபோடு
விடுப
இதையொடடி
திருமாவள
விஜயபாஸ
கனிமொழி
##காச
திச
தயாரிபபில
##பபூணடி
அமசஙகள
டிகிரி
எர
டான
கடையை
அகாட
பேசுவது
மாமன
பாகக
அரசன
நலலிண
பததிரிகையாளர
விததியாசம
தச
ரியல
##ாரின
தனிமை
மாவு
சேலததில
பாலகிருஷணன
நடவடிககையில
தூணடு
அபபடிததான
உழவர
ஆயிரததுககும
அககடசியின
பயனுளள
##ததூரில
செரு
##ாருடன
உளவியல
மலையில
இபபடிததான
ஓடடல
சைககிளில
##ுட
வாகனததை
எனககுப
அஙகேயே
அழிதது
முதலாள
நிறுவனததை
பஙகேறகும
அருமையான
தொலலியல
##டடியார
செயவாரகள
##டபடுதத
##ோதெலலாம
பெணணுககு
சாதாரணமாக
##கொணடிருநத
சிறுததைகள
பாரக
யுததம
துடை
தனமையை
வாரஙகளுககு
கடைகளை
புலல
##ோரை
நேரமுக
உணவுகள
படடுளளது
ஒபபடைகக
கனர
##கண
##ழுதத
நிதியில
சாாபில
துணைததலைவர
பநதை
##கரமான
சேரததனர
சகதிகள
கோடபாடு
ஓபிஎஸ
##லைத
போடடியிடடு
உதவியாக
நியமிககபபடட
மதிபபெணகள
##றறல
திருப
வடமாகாண
வெஙகாய
##படுகிறது
##ையாகி
பஸசில
இடமபெறும
மருததுவமனைகளில
வறு
கவனமாக
தோலவியை
##ஜம
மேனன
வேணடுமெனற
வனபபகுதியில
போடடிககு
பாகிஸதானில
போராடிய
கடினமான
சதவிகித
யும
வழககுகளில
கழுததில
பூமியில
தகுதியான
இசையமைபபாளர
##னைத
துறைய
வேணடுமா
பெரியாறு
எனபதைக
கொழுபபு
##கையின
அதிவே
தொடரின
எழுபபி
இபபடிய
##பபோகும
மேமபால
எடுககபபடடு
நெருஙகி
வணஙக
ஆராயசசிய
பூரண
பாதுகாபபை
இணையதளம
கையெழுதது
சராசரியாக
நய
##பபரகள
அவமான
நலததுறை
##தூ
மோடியை
வழிவகு
இடமபெற
கணககெடுபபு
அபபட
நிறகிறது
கொணடவரகள
மியூ
செலவி
விசாரிததனர
##சசெலவன
பரமப
கலைநது
நெருககமான
இடடு
எனனவோ
வநதுளளனர
கிழககில
பாரததபோது
தொடககததில
விஸவநாதன
பாதிபபுகள
##ககொடி
நுணண
சரதகுமார
வாஷிஙடன
ராதா
மாஸ
பிரசி
படமாக
பினனரே
அதிகரிததுளள
##னராஜ
மாறறும
நடததபபட
நஙகளும
எடுததார
மகாராஷடிரா
உயிருடன
நனன
ஹூ
கடம
எலுமி
புறம
கபில
சேரததுக
பயனபடுததலாம
கவிதைகள
வமச
##ணல
##ையிடம
சூத
வேறொரு
முனகூடடியே
உணவ
மிகசசிற
பிறபடுததபபடட
ஸரவிலலிபு
சிகிசசைககு
##ாடசியர
##ிருபபார
ஜாமின
ஐயா
##மைகள
செயயவேணடும
பொறுபபேறறு
ரசாயன
கோஷம
பேட
டெணடர
நடைபெறவுளளது
##தறகும
செயதுவிடடு
புதுபபி
குறறவாள
##பபாகும
அளிககபபடடுளளது
ஊசி
##நதின
##ொளி
##மைசச
பலருககு
ஆகையால
பூககள
விருமபிய
செயதிருநதார
கரபபிணி
மாடியில
##ககலலில
செடடி
தெருவை
கணடுபிடிதது
விஜயம
##ெணணெய
இரஙகல
வநதான
நிறுவனததுககு
பறறிக
ரவுடி
##ணியாக
எனனோட
ஒனறான
செயதிககுறி
##ாபாததில
போராளிகள
தலைமையாசிரியர
அளளி
##ுவும
படைகள
இபபோதும
வரரகளுககு
##டரான
கூறபபடும
##பேசியில
நிறைவேறறபபடடது
நடபபா
திணி
தளப
வாழததுககள
தபா
##ுவனம
புகுநத
##ாடச
அரைய
படடர
##வராததிரி
##டடால
பயிலும
பரிவர
வடுகளுககு
##விடுவாரகள
அருளபால
ஜவா
##ெயில
ராஜேநதிர
முயனறு
அனுமதிககபபடட
யுவ
##ைகளை
##ஃபி
##ியரிங
போவது
ரஞசித
எநதத
காதத
##விடடோம
துணைவேநதர
மிதி
மோதியதில
மதிபபடடில
கமபி
சுபா
##டசர
கேடடேன
கொணடும
மனநிலை
அணிவகு
கோயிலாகும
பினபறறு
லால
##டியினர
டிஸ
தெளிவான
திருவளளுவர
டிராகடர
ஹவு
##விளை
##ரகளே
சிததா
மககளால
##பபடடுளளதால
ஹாலி
##தெ
##ககுதல
##டசும
நனகொ
பரிசோத
முறறுகை
கலநதுகொளள
இவரகளது
மனுககளை
ஓடடுநர
எடி
படர
நடககினறன
தேடுதல
பாதிககபபடும
வயதுடைய
பிரிததான
திருமாவளவன
டிகக
மாணிகக
கேடடது
விருமபி
##ாரியாக
குளிகக
தொகுதது
கததியால
வேணடுமெனறு
பாரததி
செலவதறகு
சஙகததினர
தகுதிய
முழுவது
##கூடிய
குடியிருபபுகள
சஞசய
மெகாவாட
##ககுது
வாழவின
சிவகாரததிக
பெஙகளூரில
ஆசசர
இருநதாரகள
சஙகஙகள
பதறறம
இறுதிப
மனோகரன
பப
மாறியது
##ததியின
பெருமான
செயறபொறிய
ஒனப
அலகு
நடவடிககைகளில
உடலின
சரிநது
தெலுஙகானா
சுவாரஸ
படுகிறது
உணவில
வெறறிககு
சுறறுலாப
விளையாடட
திராவி
டெலடா
ஸடை
##ததிகக
##ிககபபடும
##றறுடன
விறுவ
##பபரி
##சசெலல
உறுதியான
எழுதபபடட
ஸமாரடபோன
சரவஸ
##ுககுச
பாரபபது
தடகள
விணணபபிககலாம
##ாதானம
தொகுதிககும
விருதுகள
வரையறு
##ாணை
##ாளன
இறகக
செயதிகளை
கிடககிறது
புரிதல
லைன
பிரசனையை
இசசமபவம
நடமாடடம
##ூத
மாததிர
எழுதின
நிதான
காதலிதது
நளளிரவில
தமிழச
##பபெறற
கிளமபி
##படுததும
செயலக
அரசே
விவேக
மிட
##பபெயர
போனில
தோழர
ஹரிய
##லலாம
வழததி
எபபோதுமே
வியாபாரி
தஙகை
குறைதர
ஆதிதிர
பிரதய
விரதம
அகனி
பெருமளவில
மயஙகி
கௌர
ஹா
##ூடாக
##ாசர
##திககாக
உருவம
வடககில
பாயநது
யெகோவ
அமாவ
அமைசசின
வெளியேறு
வாககுவாதம
குழுவை
ஹைதராபாத
எதிரககடசித
##கரகள
அபபடியான
உயிரிழபபு
தாழவு
##வைகள
வைப
பொதுநல
இடைததேரதலில
அமைபபது
வயல
கெடு
உபகரணஙகள
வேதியியல
வநதவரகள
நிலையான
##வருமான
தூண
##ாகல
##ாமலும
இணைககும
பாடலகளை
முடிநததும
அகமது
##ாவோ
சிதரா
வழககுகளை
கருததுகளை
குமு
பேடடிங
##நபரகள
##பபடையில
சுட
நகராடசியில
ஜெர
எணணிககையை
நிதியமைசசர
சேகரிதது
அறபுதமான
அததி
மகனை
##பரமணிய
சுவாமிகள
லகன
##வதைக
பாரவையில
திருநாள
##தாகி
நிறுவனததிறகு
##வினால
சிலையை
சூடட
ஆனார
செயதியாளர
காநதியின
கடறபடையினர
##வளளி
கோததக
பாதியில
##தைககு
விடுவாரகள
இடததிலும
எதிரகாலம
ஆதரிதது
ஒக
##வலலி
##ரணம
##ஷார
வருவார
சுறறிலும
##காஷ
தோனறி
சவுநதர
அடுககு
தேரவை
நிறுததிய
பநதில
##ெடடை
##துார
##குழ
புனை
பாழ
அகறறும
##ஷனல
ஏஜ
சனனி
உணவக
சுறறுவடடார
அளிககபபடடு
மேமபாலம
##வோருககு
வெடிதது
மடி
கவுதம
ஒறறுமை
##ஸபூன
கோவி
கணகளில
மாடடார
அமமனுககு
லாஸ
##ாயி
காரணமான
வைககபபடடு
மேறகொணடார
புழல
உடபடுதத
ஸரராம
உதாரண
சரகே
சிறுபானமை
கபூர
மகர
உளளதா
அடைபபு
நடபபது
##டியால
நிலககரி
பதிவாளர
காணபபடட
நாயகம
காரததிகேயன
யோகி
கடடபபடடது
திருமதி
மறுகக
ரோஜா
இயலபாக
கழிவுகளை
இடமபெறறுளளது
வெளிவர
கெஜரிவால
மகளை
கொடடு
அனனதானம
பயனாளிகளுககு
##ருகே
நிலையததை
சொலகிறது
சிககன
உதயகுமார
முனனெசசரிககை
இதத
சிறைககு
ஆஸபததிர
வலிம
வநததால
##பபடியான
குனனுார
ஆரடர
படிபபில
வைககபபடும
பேசுகிறார
திருககோயில
##நிறுவனம
கணகக
##சைன
சிகனல
##நதுளளதால
சாதனையை
வெளியிடபபடடுளளது
ஜேமஸ
முஹமம
வெஸட
##ியமமாள
விடடதால
கலவிக
மிகு
ஒடடிய
காடசியில
##ிருத
போனறவறற
பாதுகாககும
குறறஙகள
துவஙகுகிறது
ரசிகரகளுககு
மலி
பூடடி
##பாணி
##கனிக
கபால
ஷஙகர
ஆசிரம
பாஸகரன
ஆரோககியமான
##சஸ
முததிரை
இநதநிலையில
இடஒ
சொகு
இலகு
##ுடனான
அயயன
பயஙகரவா
வேடபுமனு
##வஙகள
எனககூ
பிரமுகர
கூடடததிறகு
கவனி
##பபிரதேச
கடடடஙகள
தடுபபணை
பிரமுகரகள
உசசி
சாவடி
நனம
##மஙகலம
பேசசை
##போககு
##ககாகவும
##ிருபபதை
##ிருககினறனர
##ரைக
நரமபு
அமைககபபடடுளள
இயலும
நடிகைகள
வைததியசாலை
பேரர
உயரும
சாதிகக
##டடமின
கிலோமடடர
சரவே
செலலுமபோது
மேலநிலைபபளளியில
முறபோககு
சரமாரியாக
தனிததனியாக
மாததிரை
துறையை
பேடடை
இருககவேணடும
முறையே
ககுள
##ாயணம
பரஙகி
இலலாவிடடால
பினனடை
##டடது
இயேச
விரல
அதிகாரியாக
புரிநத
குறியடு
இயஙகு
அனைததுக
அமைசசரவையில
மொழிகள
அவசரமாக
தபபியோ
ஹோடடல
மேறபாரவைய
ஜமா
பாரததார
நிகழும
முதனமுறையாக
மதன
##தியர
வாஜ
அவரகளே
சமாதானம
##ாபய
கோவிலபடடி
பயணிகளை
சாமபல
எரிசசல
விளைசசல
மாணவரகளுககான
வாயு
தாலி
பிரசா
விடுகினறனர
இலஙகைத
ஆயுதம
நிலவரபபடி
காலமானார
கேரகடர
தெனனா
மனைவியும
கொடைககானல
தபக
முததுககும
பேடட
##ரைகள
பணிபபாளர
ஏறபடவிலலை
பரமககுடி
குளிததலை
திருகோணம
விடவும
சொனனான
வரன
##பபடுவர
அணிவிதது
நஷடம
##சசாரம
மனவள
காரபன
பயிறசியில
சிரிதத
ஜென
##படை
##ாமு
வைடடமின
ஆயினும
முதலவரின
அருபபு
ஒவவொருவரும
இறைசசி
பரிசுகள
அபக
வரியை
சிததார
அடைநதது
பாதிககபபடடுளளது
கனஅ
நாகராஜ
அறியும
##ொழுதும
கடததிய
##நகரில
##ாகர
பேடஸ
கேளவிகளுககு
சிறுமியை
சிலிணடர
##டடுக
##ாளை
மாறறததை
குமமி
ஹெலமெட
ஆரிய
மேலான
பிடிததனர
ஒருவரான
##படடது
அடிபபடையாகக
காதலி
கணகாணிதது
கருதபபடும
விபரஙகளை
அரையிறு
வெளிபபடுதது
நிசசய
தொநதரவு
##றிககை
அடுககும
##ேம
##கினறாரகள
இநதியத
மாதமாக
தனனிடம
வலிமை
கலவியை
##படடியில
நியமிதது
நமமால
தெயவம
தொழிலதிபர
எதிரி
##ணியும
சரணடை
நோககு
பயனபடும
சமபவததை
நிறைவேறறபபடடன
பாரவையிடடு
திருபபரஙகுனறம
விறுவிறு
##ரிககும
கணித
##ையிடடு
##வாடா
திணைககளம
##ிடெ
வகுபபறை
விளையாடடுப
வரரகளை
##ணணா
தூககம
விவாகரதது
##மய
வெளியூர
சநதன
##விடடதால
##போனில
கருததரஙகு
ஹோமம
##டரி
##ரமா
திருககுறள
##ெழ
கோடியாக
பஙகேறபு
பததிரிகக
சுததிகரிபபு
ஏமாறறி
புனே
வாசகரகள
விஜயபாஸகர
எறி
##பபரே
செயபவரகள
புகையில
ஒருசில
பழஙகள
மெரின
உஙகளிடம
டொனால
##பாககம
##ததுரை
எழுபபினர
அலுவலகததுககு
ஒபபடைததனர
##கடடி
ஒருவரு
பாணியில
##ததியான
பூணடு
கரையோர
##பாடி
மறுதத
##ொனறில
பூஙகாவில
நதேதி
கேலி
திசையில
தமிழகததுககு
##மையினர
கனனட
உருவானது
லவ
புதது
##ாளிகளை
குமாரசாமி
காயகறிகள
ஆரம
##ககிறரகள
தூயம
சோதி
நமமிடம
நமபுகிறேன
மாவடடத
தூததுககுடியில
##வரகளுககும
காலததை
##னிங
##ையினறி
சூழலை
ஆடச
##கடி
இரக
##ாளரகளை
பதிபப
பிறர
செயலபடுதது
நமபிககையை
##ககிக
##சிவம
எதிரபபை
அதுககு
##பாசிட
நாயகள
மலேசியா
அகரவால
##ேனனு
##நூ
கடடபபடடு
உதவுகிறது
கொணடிருககிறார
மகனகள
##ஷிப
மாறறிக
திரைபபடததில
சுதநதிரக
தரிசன
மாவோயிஸ
தஙகு
##வருகிறார
ஆதரவை
எனறப
அதறகே
துணடி
திரடட
நாளதோறும
##ைகளையும
பொதுக
படடதார
சாபபாடு
மைககே
பிளாக
நாடாளுமனறத
பொருததமான
பணடார
வளளி
மைல
முயறசிகளை
நிலஙகளில
பொதுமககளிடம
மணணை
தணடனையை
பெறுவதறகு
கொடியேறற
தாவ
லாக
லிருநது
வும
குணடும
தருண
வறடசிய
##வியுடன
விழாவுககு
அடஙகும
##ிருபபதாகவும
சய
செடிகள
செயவோம
##ிதன
மனறத
##மூரததி
மேரி
இவறறின
பரிசோதி
##ாளாகள
##கப
மூலமும
எடுககபபடடுளளது
ஆஜரபடுதத
கௌரவ
இததிடடம
வனகொடுமை
சராக
நகரபபுற
ராஜபாளையம
திறனை
கலலூரிகள
பைர
வைததிருகக
##சொ
வழசசி
பொடி
செயலகள
கைல
குறறஞச
நாயகி
தலைவரகளும
இபபடததை
சிவசேனா
##ஸல
உயிரிய
##சசுவர
கருததுகள
பேருககும
அணைககு
நிமிடததில
##பிகக
விஷயததை
காரததிகை
இளையராஜா
வழிபாடடு
சுலதான
ஒளிய
##ககென
தமககு
படேல
சிறபபுப
செஙகோடட
##இல
சரிசெயய
அளிககபபடுகிறது
துரோக
##ையனஸ
நடததை
நுர
எடுபபது
##ஸகர
##மபல
பொழு
பொதுததுறை
கடிதததை
மாளிகை
##ூடி
ஒருவரும
ரூபாயில
##மையால
##ரஙக
##ஜில
கணகளை
##வொர
தாணட
விருதை
சாலையின
மாமியார
கதாநாயக
ஒதத
நிகக
##வுளளன
அதறகும
கைதுசெயய
வரராக
##டுவது
##சசேர
மேலம
வாரியாக
நினறது
முதுநிலை
கசசா
தவுகள
கைவிடடு
வரவேறற
அககடசி
புததகஙகளை
புயலால
ஆறுமுக
மடடம
##தியா
தமம
##போதிலும
வாதம
##பபாதை
வராத
வரரகளின
செயயத
விதிககபபடடுளளது
நேரிடும
ஊற
சுபப
ஐதராபாத
##நதுார
தேதியில
மனவ
சமஸக
நரவரதது
சரிவு
கணணில
பிரியஙகா
உடறகலவி
##ெநத
தலைமு
சாரபு
விழாவிறகு
பாரததிரு
சாரநது
கூடலுார
ஆரமபம
கையால
அழுது
##யய
##பபறி
வாடி
சுஜ
சமததுவ
பதகக
அனைததுப
தரபபினரும
திருவனநதபுரம
வைபபு
வெளியிடபபடட
விலலன
விகனேஷ
கொளகினறனர
அநேக
சேதமடை
உணமையிலேயே
ரிக
பளளம
தஙகியிருநத
ஜெரமனி
##பபகு
கடலை
சொலலுஙகள
மனைவியின
திராவிடர
##ிஙகம
##ையிற
##ாயா
##வதைப
நூலகம
புகாரில
எழுநதருள
மெலலிய
ஜெரமன
ஊரவலமாக
அனபுமணி
செமப
##மாகிய
##ததியும
கரையில
விடுமு
தொழிலாளரகளின
ஊடகவியலாளர
கணககெடுபபின
##யிலலை
செயதாரகள
உறசாகம
இயறபியல
பாககி
பாலிடெ
##றியும
சொனனாரகள
பறகக
சோதன
முலலைததவு
கொஙகு
தலைவரான
##ஙகோடடை
நடசததிரம
சறறே
ஜவுளி
##ணடே
போறற
நிலையததுககு
##ஸவரி
புறபபடட
திறனாளிகள
##ிரை
காககும
விடடுவிடடு
கவனததை
விதிமுறைகளை
ஹெலிகாபடர
##பிட
##ுககுக
திருககல
எதிரகொள
எதிரகடசி
விரடடி
அடைததனர
எணணிகக
நிமிர
அறிமுகமான
##நலலுார
பிரகடன
##ருதி
##ாமபு
போகிற
இருநதவரகள
பணிகளுககு
வெளியேறிய
ஒதுககபபடட
ஈடுபடடுளள
உயரநதிமனறததில
சககிரம
##குட
பாதிககபபடடுளளனர
தாராள
தாலுக
கடகக
சுநத
கேம
##ெலலி
##ககூறு
அதேவேளை
மகிழசசியாக
ஆசி
நசசு
குலு
குரோ
##விடக
பறறிப
மருததுவப
செயதிருநத
விபரஙகள
முரணபாடு
பாளையம
கடைய
##சுல
அமலுககு
கோவிலகளில
##விதமாக
ஆதாரஙகள
##யோகம
கைகளில
தொடாநது
பயணிதத
மாணவியருககு
##வனின
நடிததார
ஸடேட
நதிமனறததின
##ததொட
இளைஞன
சுலப
நியூயாரக
செர
பொணணு
எழுசசி
எமககு
பிரதிபலி
பயிரிட
இருநதத
பினத
பினபுறம
வைககபபடடுளள
வடடுககுள
வரலாறறை
அரிவாள
சநதோஷம
நிழல
ஃபேஸபுக
தபபு
##ததுவது
##சசும
இருதய
விமானபபடை
வாககுமூலம
##டிககும
##விஸ
மாச
##ேரில
##ரியை
காரடன
நிரவாகததின
தெனனாபபிரிகக
##திடட
##சரஸ
##டசியினர
சமமநத
##பபகுதிகளில
சுழறசி
அலுவலா
பிரசவ
குபபைகள
யூர
##சூல
வருடா
திரையிட
கருவ
நாமும
பவுல
பிரதயேக
ஆஙகிலேய
கதாநாயகன
கதாபாததிரததில
##பழ
ஆயவ
##விடடான
ஆலோசன
மடப
ஆணடாள
பாஜகவின
பிரசசினைகளை
ரமே
குரும
செயலகததில
தாழததபபடட
எமஜிஆர
வாருஙகள
##குலை
##டையே
##ிஷா
உபரி
ஓவியம
இககோயிலில
##ெனபது
திரைககதை
வழககமபோல
ஆநதிராவில
பரவியது
விககிரமசிஙக
அமபு
##விதம
தமிழநாடடு
தரதது
உயரததில
##வதாகக
மனகள
அடுதததாக
டெலி
##றம
மாவடடஙகள
வேலைகளை
கொளகையை
நடைபெறறன
போகலாம
லிம
##டியுடன
வாணி
##ததிரததில
கிடபபில
##ககொளளும
அபு
அடுகக
##பானம
வாரடில
##விலலையே
ஐஸ
சவ
சுதாக
பிறநதார
வாயபபிலலை
வழிகாடடுதல
##ரையா
##ிறகுள
நூலில
தெலுஙகில
பாரககுமபோது
##மபிககை
தொடரநதார
செலகிறார
##நாயகி
இறைவனை
ஜூனியர
உறபததியாளரகள
காதலை
எதறகு
##பபடாததால
செலகினறன
சொலலிவிடடு
வைரமுதது
இஙகிருநது
நிரமபிய
ஆவின
திரணடு
சேவையில
அரசாணை
பழக
வெளிசசம
ஐரோபப
##மறி
##மனை
##ளளும
சிலைககு
பரிசாக
எதுவுமே
பதுககி
டேன
##ரததில
##டடோர
பிசி
நோடடுகள
சஙகரன
ரஜினியின
ஊடகஙகளில
வெனறார
ஆணையததின
##ஙகோடு
##சசெனறு
செயயபபடவிலலை
பேபபர
அபபுறபபடுதத
##ூபம
வழஙகுகிறது
##புதூர
மககளுககாக
மெயில
ரோடடரி
ஆணைககுழு
விககெடடுகளை
##பாடட
இனஜினியரிங
##சலி
நிலைபபாடு
நினைவுககு
எனறாலே
மினனல
குடிமககள
முடடாள
வாஜபாய
உணடிய
செயதும
நிலஙகளை
சமா
சமேத
கிளையில
பாஸபோரட
ஆரமபிததது
உதை
தமிழன
##போக
பிளவு
பஙகுச
விடுததுளள
பிரணாப
அடுககுமாடி
##ததோம
ராஜூ
ராஜபகசே
##ாயில
சிநதி
அகறறு
தவிரவாதி
கொணடிருககிறாரகள
இதைததொடரநது
அதிரஷட
கொணடாடபபடுகிறது
பினபறறி
விடுததார
குழியும
மேமபாடு
ஆடடததை
முதியவர
படுகாயமடைநத
தோர
##ளிததது
செயதுளளதாக
பரஸ
வளைய
உடனிருநதனர
மகிழசசியை
கூடியது
##பபணிகள
டைர
சுஷமா
லென
##ாறை
கடடள
நிரவக
உருளை
தறகொலைககு
##பூரவமாக
செனடரல
##ொன
கேளவிய
கனனி
ரிலையனஸ
##ககலலூரி
ஒள
##ாலயா
மாஜிஸ
மாவடடததை
எனனதான
பணபாடு
நியமிககபபடடுளளார
அவதூறு
ஆகிறது
டென
##வுளளனர
எதிரம
செனட
##ோதே
##பபுளளி
பாரி
சிதர
ஆகவும
பிறககும
கரன
உடலநல
வடிவமைபபு
##ககுகள
உலகத
சனியர
தகராறில
##ரகளுககும
இதுதவிர
கூடடததொடர
இவவிரு
பாலமுருகன
சஙகததில
பாடததிடட
அழைககபபடுகிறது
விதிககபபடடது
மஞசு
மூள
##லகில
உயரதிகார
அருவி
சமபநதமாக
ஐடி
மஙக
விடம
##ுவேல
அமைதியான
தொழிலை
மினத
##றகள
காநதிய
கோவா
மனவரகளை
கமிடட
வசிககினறனர
ஃபார
அணடை
##நிர
துா
சொலலவிலலை
வைததுககொணடு
நாடுகளும
செனனையை
பரபபளவில
குமமிடி
ஜால
##ததுத
குடடை
##பபடடியில
##வதிலும
குறிககோள
##ாககததில
நபரகளை
மைககேல
மாநிலத
அருணா
##கொணடே
பிரசனைககு
எஙகளின
##ளன
வேண
பலகல
கிடைககாத
அதிகாரததை
சமபததிய
சொலலபபடுகிறது
ஆயிரததிறகும
மடடனர
கையா
தெர
நணப
பரிசோதனைககாக
விஸவர
வரையும
திருவெ
அவளுடைய
மானாம
ஆனலைனில
அசுர
தமிழரகளுககு
தேவையை
வஙகாள
சுமநது
##வரியில
##வுககான
##ிகளையும
குறிபபுகள
வழஙகபபடவிலலை
தயவு
சூடான
கலலூரியின
முதுகலை
அரஜு
பிரசிததி
தோடடம
##மரான
அதிகரிததது
ரோடடை
வானம
ஆணையாளர
சடலம
காதில
விகிதத
வநதத
##பத
இதயம
##மாகிறது
மரததில
உணவுகளை
ஆனைமலை
செயறபொறியாளர
நததம
சரிவர
சரசசையை
சுனாமி
எரும
##றான
இருநததாக
கோண
அறஙக
புனனகை
விககிரவா
##டியூர
திடடததிறகு
பாரதததும
வெளியிடபபடும
விதிககபபடட
##ஹான
செயதித
கொலலபபடடனர
ஒழுஙகும
இடையூ
பிரபலம
கிஙஸ
நுரையர
##சாத
##பபுப
சொலலாமல
மடடுமலலாது
பலகலைககழகததின
இததிரை
விறகு
கோதத
பாரலிம
அரசியலவாதி
குறறபபிரிவு
இழபபுககு
நத
பலபபடுதத
அமைககபபடடுளளன
வணஙகி
எழுமபூர
கோததகிரி
முதலகடட
செலலாது
ரோபோ
தொகுதிகளிலும
எழில
குணடர
கலர
##ஞசேரி
வெறறிபெறற
அனுபபும
அதிமுகவின
மழையில
##நிறு
கொணடுளளனர
அடஙக
##ககேறப
முடிவெடுதத
குததகை
ரோஹித
##கரி
##களுககுத
விளககி
சுறறுபபுற
நிகழசசிகளில
காயமடைநதனர
சொகுசு
வேடம
பயணிகளின
தநதையின
வேடததில
உததரவிடபபடடுளளது
ஆடியோ
பாஙக
சிததி
அறிஞர
பயனபாடடிறகு
மாரகஸ
எனனைக
குரஙகு
நிறுததபபடடது
சரசசைககுரிய
வாககெடுபபு
பாலிடெகனிக
அதிகாலையில
முறைபபாடு
##விருநத
ஆவி
துகள
எதிரநோ
செலவன
கணடிகக
பயனபடுததுவது
காததிருககும
ராசிபுரம
பாருஙக
மணிநேரம
வயதிறகு
திறமையை
##ததிருபபது
##நாடடை
கோடிககண
சிஙகம
பேரறி
திருமபினார
முருகதாஸ
##கடடமைபபு
டேபிள
வரவேறபை
கஷ
##வுல
கிணண
பதிலளிதத
##ழவார
##ோறச
##கரா
செலவின
உயரகலவி
மகனும
நாகராஜன
சநதிததுப
புததகததில
ஏககரில
அதையடுதது
இலலாம
தெரிநதுகொளள
##ுககிடையில
நடடிகக
வாழககையின
முதலாளிதது
##ெடட
##ருவ
##தமிழ
கடசியும
அமராவதி
ஞானம
லு
அதேநேரம
இஸரோ
பானரஜி
விடயஙகள
##சசிகக
##மபாடி
அமைசசக
தயிர
தெரிவிககபபடுகினறது
கணிசமான
தபபிகக
செயதத
பாபா
ஸபெயின
ஓயவூதியம
நாத
##ையுடைய
##ிகொ
ஆகஸ
மதுககடை
நினைகக
ஆழவார
யுவராஜ
இராணுவம
பளஸ
லேசான
##ாறறு
தேகக
கைதி
பழமை
போலஸகார
##ையாறு
திருமபும
பழஙகுடியினர
சடடவிரோதமாக
வழிததட
ஸதான
சுபபு
கலவெடடு
நேரததிறகு
நினைககும
மொர
##ெடுககும
வேணு
போராடடஙகளை
கிடநதது
குமரன
செயதாலும
##வடு
நிறுவனஙகளும
அரசியலை
பெரியசாமி
குடுமபததார
பயனபடுததபபடுகிறது
அருநத
தாமிர
பைன
விகடன
அஙகம
பிரிவினை
பெறறுளளன
மாதவன
காலவாயில
ஜெயராமன
உததம
சிடட
##ளளேன
##ததுகக
நிறததில
##கோயில
வரவேறறு
தேரநதெடுககபபடட
##வறறில
செஙகு
போரடு
##பேடடையில
செயயாத
##ழிதது
ராமானு
ஏறபடடதால
பாகஸ
தொழிறசாலைகள
இலலையெனறால
##பபணிய
##லலாஹ
##வசதி
##பபடுததுதல
##ுககிடையே
நிலநடுககம
சஙகக
நனை
##ிசச
##ககுடபடட
##ஙகுகளில
போலசாரிடம
கூறியிருககிறார
படைபபுகள
பரிசலனை
ஓடை
##யாவின
##ியாகவும
பாலின
ஏறபடலாம
ஆரமபிததார
முதலடடு
##பரா
##ெயல
கணககிட
மகேநதிரன
கோடிககு
தரமானிதது
இயலாத
விசாரணையின
மயிலாடு
குததி
இலலம
கின
ஜவன
##ிரிகக
பிரா
பயணிய
##துமஸ
##ஙகிள
வைககவும
நெடுஞசாலைததுறை
பொனனேரி
நாடாக
மெல
ஸரதேவி
கழிபபிட
மரககனறுகள
தபம
##ேடிய
##நேயர
முதலான
எடுததுககொணடு
எஙகளுடைய
அணியினர
காபபாறறு
உசசநதிமனறததில
பொறுபபேறற
##வரதன
செயவார
##ிககபபடுகிறது
ஒருபுறம
பலருககும
##ததுககுச
##ததிரன
தகவலின
##பபினால
கடைபிடிகக
கவனததில
டிரானஸ
வாககுறுதி
##ணையாக
##பபததிர
##ககுவது
தகவலறிநத
தியானம
கவின
நஙகும
பேடடிய
ஊழியரகளின
பிரசசனைகள
தணடிகக
ஜின
##கடரகள
##சசரி
வைககிறது
செயலகளில
குறைககும
களமிறஙக
பழஙகுடியின
ஜூல
வளரசசிய
நாறப
சகதியை
##தியால
செயயுமபோது
மனச
பயிறசிகள
விதிமுறைகள
ஜெகத
தெலஙகானா
ஜு
வருபவர
##ணணும
சஙகஙகளின
உஙகளால
##ததெரு
மாஜிஸதிர
பயினற
செலவிட
போனறவரகள
விரிவாககம
விபததுகள
சிசிடிவி
##நததம
முறி
அரூர
அதிசய
மூஙகில
மனமு
ஸடாணடில
பிடிததது
வலியுறுததியுளளார
சுறறுபபயணம
ஆஸபததிரியில
கனறு
டவுட
##ாராமன
வாழவை
அளிககபபடட
குணடுவெடி
##தியிடம
##வேத
தருமபு
மகததான
பிரிவுககு
கொளு
மனிதனின
எனபவரின
##புறமும
கூல
உலகததில
உரிம
விஜயன
சுகாதாரத
ஆடசியாளரகள
ஆககிரமிபபுகளை
பரிவரததனை
##நதேன
தேடல
##பபடுவதறகு
கைதான
##பபோவதாக
வணககம
##ிஙக
கூடை
##தியே
கோவ
கலவியில
இடலி
எனனுடன
நோபல
பாதுக
சாகுப
சாலையோரம
ஞாபகம
அடம
##ியாகக
##திகளும
ஜனநாயகக
கதையில
இசையில
புணணிய
ஆயில
தெறி
பேசியுளளார
ஏறததாழ
படமும
இனஸட
சுடடிக
தமபதி
லிப
விளஙகுகிறது
கூடலூர
பிரசனைகளை
விடுததுளளது
பிறபபிதத
இஙகிலாநதில
குறைகளை
தயககம
ரூபாயககும
குடிமகன
##விறககம
கபடி
நநதி
##ியலில
##ாயிறறு
வெறுபபு
ஸரபெரும
சபதம
சமபநதமான
திருசசெநதூர
பெடடிகள
பாரபப
வெளிநாடட
ஸரதர
புததகததை
கொணடாடும
##ிகு
செயகிறோம
சுறறில
பெயரிட
அபராத
எபபடியாவது
ஃபெ
குளியல
கேது
இயறற
கைகளை
நாளகள
தாணடிய
கோயிலகளில
ஓடடுபபதிவு
திகை
டஸபூன
தவன
##லலவா
##பபடாது
##ககிறகு
கூறினாரகள
விடடுக
பரிசலி
உருவாககபபடடது
தஞசம
ராஜநாத
இமமாதம
சலுகைகள
பாலசுபபிரமணிய
##ஷமி
குடட
கோழ
விரடட
திருமஙகலம
புதுவை
##ககோணம
போனார
சாதகமான
பிரபலஙகள
எழும
ஆவடி
##கலம
##வனாக
இடமபெறு
இமரான
##திகா
##சசாவ
சேரு
மிளகு
கரிய
##மாரகள
வேதா
தொகையில
தொடரசசி
பொருநதும
நினைததால
பொருளகளை
காயதரி
எதிரபாரகக
முயனறனர
பருவததில
ஆஸபததிரி
ஏககருககு
##ாககள
பணிககாக
##ிருபபாரகள
##விடுவார
##வநதார
கூடம
அவரைக
கொணடாடடம
பெறறுத
நுண
தூரவார
மயககம
முதலடடாளரகள
தவில
##ையிடட
மாநாடடு
##ணடுகள
காரணமாகவே
வலியுறுததல
எடுததுககாடட
குவார
உளளேன
மூககு
பரநத
சேரநதார
##ததிருககிறாரகள
பிரதமரின
முறபடட
படுககை
எலுமிசசை
மதேதி
செயவதால
##ாபாக
பிறநதது
நிலைமையை
நஙகளே
தெரிவிககபபடுகிறது
##கேட
கடினம
பிரசுர
திரையில
நகரததில
##பபைப
ஒனறே
விடடோம
நோயால
இளைஞரகளுககு
இடஒதுகக
பைச
##குறை
மாதத
வருபவரகள
தொழிலாள
##ததனமான
இநதுககள
கிறிஸதுமஸ
உழைபபு
துணிசசல
மனுதாரர
கெட
கொணடாடி
வயிறு
அடுததடுதத
பொதுமககளும
புரோக
வெடிபபு
உறபததியை
எனறழை
செலவுகள
ஆயதத
வரைவு
தூணடி
பெரியவரகள
எடுததுளளது
வெளளததால
விதயா
வெளியிடும
உயிரியல
##நதவர
காலா
சேரககும
கொணடான
தேவஸதான
சிவகுமார
ஏறறுககொணட
இயலபான
அறியாமல
சிரிதது
குணசேகரன
பரிமாறற
துடுபபாடடப
ஸரரஙகம
சிவகாரததிகேயன
##ாலே
பாகம
இஸர
நிமிடஙகளில
மைதானம
எடடாம
போதையில
##சமப
##ககுறைய
சிறநதது
##ததியால
நிரமா
##பபினறி
அமைககபபட
கணிதம
##ியப
##ாதுரை
உறபததியில
சேகரிபபு
பொர
வெய
பாரவதி
தோணட
செயறபட
அவதிபபடுகினறனர
ஹிநதி
##ிககொணடே
அசு
##ஸடி
தனமைய
கலவரம
நகரைச
பெறவிலலை
காதலன
களமிறஙகிய
கலநதுரையாடல
ஷேக
##ோள
வழஙகக
##ததுடனும
##ியுளளதால
ஈடுபடடார
##ததாா
யூனிட
இககோவில
##னனார
மெயய
கோயமபேடு
##ணணை
##நான
##ளளதாகவும
விசி
##ககிறாள
மாறறஙகளை
##பபோவதிலலை
வேலமுருகன
தெருககளில
கானகிர
வெஙகடேஷ
மணடு
கணணை
சடடஙகள
தரமானததை
போகிறார
தெபப
ஆனநதன
எஙகளிடம
சடடபபேரவைத
முததையா
##மாகக
##ாததே
உயரவை
பிரபாகர
ஓபன
முளள
புததர
##முர
சரகார
பெறபபடட
கொடுககபபடட
தபபிச
ஆனமக
ராசிககு
லாரியை
பணியிடஙகள
அதிப
காலததின
நாமே
##மைக
சிப
பிஜ
செலலாமல
சநதிபபின
விடுககபபடடுளளது
செயலி
##ிருககினறது
வருவாரகள
படஙகளுககு
இபபோடட
வநதுவிடடது
கரததி
நடடு
##ாவிட
பாரததுவிடடு
வாசிகக
பெருகி
ஐதர
முதலிட
##சாரிகள
பெருநகர
குவிநது
வெடிகக
##பபதோடு
##ததிறக
நேரமையான
ஆழமான
அயல
கவரசசி
சிநதிதது
##ணுமனு
பெஙகளூருவில
அருபபுககோடடை
விகர
##சசியின
ஊரடஙகு
பிறகுதான
ஒளிபபதி
நேரகாணல
செயயபபடடுளளதாக
தரவிலலை
எதிரொலி
இருககக
நாடி
கழுததை
ஹு
செயதியில
பேண
வைததால
குறிஞசி
திருகக
சமநதா
பிடிததுக
பாதிதத
சரியா
அசமபா
யாததிரை
தோழி
விஞஞானி
சடலததை
அயயனார
பிரசு
##தாகத
அடிபபடையாக
மயான
பிராமண
மாரு
வறற
ஹில
புரம
##முறற
செலவதால
பரபரபபாக
முகமமது
எளிமையான
ராஜிவ
பாரததிபன
##ஙகலை
செயகினறன
காலதாம
காரின
பூனை
நிலையததின
வாககுகளை
##ததுவததை
ஆரோககியம
நூறறாணடின
##ாறற
##சசேன
கொணடுவநது
##தாரரகள
இதைச
காடடினார
வானொலி
பேருநதில
திருமணததிறகு
குவிதது
துபபாககியால
முயனறார
ஏடிஎம
விணடோஸ
எடைய
##வியர
தாககததை
அடு
##ுககோ
##ணடியில
##வைதத
கிரை
எடுககபபடடது
இரகசிய
தும
லொ
கழகததில
நேறறுமுன
கழிவறை
செயயுமாறு
##பபானது
சேவைகளை
##கொணடார
##ககூடியது
பஜார
நடுகக
##சசலை
வைககிறார
பதிவான
தினததில
கூறுகிறாரகள
இளநிலை
மணடலததில
மாளிகையில
எதி
##ானே
கொபப
##மைப
பிரை
காரணததினால
தேரநதெடுதது
ஒழ
ரததின
பிரவே
இருநதுளளது
செயதிருககிறார
போராடும
##மாறன
##ளிததனர
முனனு
உருவெ
கொணடிருககினறன
வடியோவை
சுபரமணியன
மேலமுறையடு
எஃப
அருமை
வழிகளில
##டனும
தொலைபேசியில
யாழபபாணததில
சொறபொழிவு
ஜேரமன
செஞச
##தாலும
அடிககும
பஙகுகள
டைம
##ாரரகள
அவலம
இருநதா
மாநிலஙகளுககு
பலலாயிர
உலகிலேயே
கோவிநதராஜ
துய
செயதோம
மகி
இருபபவர
ராமகிருஷண
##தாரண
##பபெறறு
நிராகரிகக
உலகளாவிய
மேற
முனனோ
கடடிக
நிதியாணடில
##விலலைய
##றகாடு
அனைவரின
உயரநதது
பெருமளவு
நிதிஷ
##ஸன
முல
இதழில
##ஙகளிலிருநது
படடபபடி
##ததொகு
தவிதது
மயிலா
வடப
ஆயவின
நிரப
##ுததூர
சநதிரபாபு
ஆதரிகக
ஆசசரியம
கததோல
மரபணு
மககா
##ஆன
கோடியை
நிலபபர
சொகக
படஙகளின
கைததறி
பினனரும
படததிலும
##புரததை
குறுககு
ஒளிபபதிவு
வேபப
புவி
இநதியாவிறகு
தானும
##தேவன
சேமிதது
இளவரசர
விககிரவாணடி
இசு
##ககுணடு
##டியன
திவய
விளஙகு
##ிததன
தறபோதுளள
பகலில
தொலைககாடசியில
திருகோணமலை
ஓச
ஹாககி
##ியாம
சுககிர
செயயபபடுகினறன
சூட
சிறுமியின
##ேடடர
##ஞானம
இதையெலலாம
##ியிலும
##ாசல
செலலலாம
பெயரும
மையததின
முனவைதது
##களான
##வதா
சுனில
துளை
அனநத
##ாபன
கேடடுளளார
திருநஙக
அனனிய
ஈரோடடில
கேச
இனறுவரை
நரததே
அணிவி
அடைககபபடட
கேளவிகளை
எழுநதரு
நிரநதரமாக
ஐமபது
அததோடு
உலை
ஏகா
மளிக
##ணடனை
சமமே
மேறகொளளபபடடது
##ிமலை
எரு
##ெணண
கோலக
##ரியின
பொதுககூடடம
விருநதினராக
அகாடமி
இருவரை
தொய
எதிரபபார
கணவரை
நகரஙகள
வேலைநிறுதத
மதிபபிட
கருததரஙகம
சங
பெஞச
பிரேர
பிபி
##ாககல
தூககில
##பபெரு
##ததுளளதாக
அஜத
அமுல
முகரஜி
மஙகலம
விளி
சுழல
பொருடபடுதத
பரவாய
சடடததர
மகேநதிர
தேரதலின
பாதுகாதது
போடடிகளிலும
விதைகள
அஷ
உடைநத
சது
##எப
தனியா
##ையாகப
தாககும
##பபதுடன
மதிபப
லய
தானாக
மணிநேர
குடுமபஙகளுககு
ஜனநாயகம
கிளாஸ
எவவள
உரிமைகளை
ஜெயலலிதாவுககு
இநதோனேசிய
அநதோணி
அஙகும
பறறு
##பாளையததில
குத
பளளிவாசல
தேவைபபடுகிறது
விளைவுகள
தடவி
மாறுபடட
உயரமடட
சொறகள
##ைககும
##நதே
##நதிருககும
##ஙகாய
##வாசம
##ததியுளளார
##திககொ
அணிகளும
நிறைவேற
உறுதிமொழி
உலகை
புகைபபடததை
அரைதது
ஓயவுபெறற
ஆயுதஙகள
ஏறககுறைய
விழிபபுணரவை
ஆஞசநேயர
ஹாலிவுட
முககியப
பாதுகாபபுத
பெணகளுககான
எணணறற
##விழாவில
வரவேற
நணபரகளுடன
பாராளுமனறததில
அனர
ஷெர
சேமி
தறபொழுது
துறைமுகம
தேவைகளை
##ககபபடடுளளார
திடடமிடபபடடுளளது
ஆவர
சாட
கோஹ
சுறு
அடிகள
தொடஙகு
கூடஙகுளம
##ததிறகே
மனைவிககு
எடுததால
பஙகுசச
சொததுககள
ஈழததமிழ
பளளிககூட
ஜோர
##நகை
##வணணன
##டிபபடையில
##ாளராக
கூறபபடட
முனனணியின
அதுல
குடிந
விறபனையில
விமானப
அடகக
பாரவையிட
##ககொளகிறேன
சமுததிர
கழுதது
##பெருமாள
தொழுகை
##ினாா
புலம
பேக
எனபாரகள
அறிஞரகள
வநதாரகள
##வதுதான
உடனபாடு
கூறுகினறன
சிககலகள
##பகவான
பாகிஸதானின
சேமிகக
உளுநதூர
இபர
##ிரணடு
##ாவைக
##ணிககு
வரபபடட
இருககையில
##ககெனறு
தெருவைச
உணமைதான
பதவியேறற
முழுவதுமாக
ஆகியோா
திடடஙகளுககு
பளளிககல
நிலையிலேயே
சடடபபேரவையில
இனடரந
##வணை
##ழுவி
பெறறால
பதிபபு
விழாவின
போககுவரததுக
கிடைககாது
பழஙகுடி
##வைததார
##வனும
திரடடி
எழுபபு
தாஸ
##பபடுததிக
இதனைக
குமமிடிபபூணடி
இஞசி
##ாவிடடாலும
குகை
கூசசல
சிவர
இடமாக
ராஜகோபால
புலவர
படகுகள
வருஷம
சமாளி
கடைபபிடிகக
ஆணடவர
புலமப
நிறைவேறறி
ஓடடஙகள
சாபபிடும
ஸமித
கததோலிகக
அஜி
சிமப
காலகள
##வெளிய
செயறபடு
விசுவாச
நேறறுமுனதினம
பமப
லா
##ுமு
வாசனை
##லாநதில
அரசர
வைததுககொளள
நாகபபடடினம
ஆணடுகளுககும
அமைநதுளளன
வருகினறனா
##ாரியமமன
சுரே
##ததியா
##வனே
கடடில
சூற
வெளிவரும
தயாரிககபபடட
விடுததனர
ஐநதாம
பதிவிடடுளளார
நிறுவனஙகளை
##லராஜ
##ககோடடையில
முகாமகளில
கவிதா
இடிகக
அலலாமல
சோவிய
மூலிகை
ஆஜராகி
##ததொடரபு
ஒழுஙகுமுறை
இவரும
சககிய
ஷார
##ககடடை
தரபபடும
கடைபிடி
நூலை
அசல
சறறும
எனறோ
வருடததில
பேடஸமேன
##ததிகள
திடடவடட
திறககபபடடது
பேசாமல
குறறசசாடடுகள
சிறுபானமையினர
##பகுதியில
முபபது
வேடடி
##சியும
பாசம
அமோக
காரட
அரசுத
பிடிபடட
தாயின
நெருஙக
வருவாயததுறை
முடிவெடுதது
வலைததளஙகளில
ஸத
திருடு
##னபடடி
உதவியை
நோனபு
தேரதலகள
மொடடை
பகுதிவாசிகள
##ிருககேன
ஆடசியா
நிகழசசிகளை
கயிறு
மாஜிஸதிரேட
சணடி
லதா
##ளளியில
##திபபு
காஜ
இரை
வசதியை
கொளவாரகள
காமன
ஒபபந
பெறுகிறது
பணியாறறினார
ஹைதர
உளை
சஜித
மஙகல
##செலல
அனிதா
##திலிருநது
கைகள
மகசூல
அணிகளுககு
நதிமனறில
பெயரால
அதிரசசியில
வாரததைகளை
முறறிலுமாக
சனனதி
மஜ
பேடடரி
டெபாசிட
##பிரதேச
விணணபபஙகளை
ஊடடசசதது
லுக
##பதது
சிஸடம
எதிரிகள
##ஞசலி
அடிததார
தெருவிளககு
ரசிகரகளின
விளையாடும
அமமாவின
நரிழிவு
படககுழு
கூறலாம
இருககாஙக
சாறு
கனவில
முழுதும
ஓடடுசசாவடி
மஹா
குபபைகளை
ஒடடன
சுபாஷ
ஹஜ
செயற
##ணிடம
பொமம
வகையிலான
##றையால
வைககபபடடுளளன
ஸகேன
##தியுலா
முததுககுமார
எடியூர
##சநதிரன
##ஃபட
##னனும
##பபடவேணடும
விசாரணைகள
##பபோகிறது
கணடுபிடிககபபடடது
வெபபநிலை
##ணடோ
புதின
வசதிககாக
போராடடததிறகு
இடமபெயர
ஆசன
##ியிட
சரான
நரே
நாடடிறகு
மனிதாபி
##ுமல
##ாசனம
அதனுடன
காததிருகக
தியாகராஜன
பகர
ஹன
##ஃபர
##டிககு
இருககவிலலை
பொதுப
##வாரா
வேலாய
வாககாளரகளுககு
##ததபோது
##ருவி
##மபோது
படகில
நேஷனல
காணபபடுகினறது
நமபிய
மனோகர
##திறன
யதாரதத
வெணண
##பபடுவதாகவும
இருநதான
உததரப
நிகழசசியின
குபபையை
ஒபபிடடு
##ளவும
தோணடி
கொணடிருகக
பெயரகளை
அனுபவிதது
புகைபபடஙகளை
அவதிககுளள
செயமுறை
வரமபு
கேஸ
தரையிற
வநதோம
சாவு
கிராமஙகளுககு
##நதமிழ
டிரைவரகள
சுவிடசர
அறநிலையததுறை
சருடை
சாசன
##வுடடில
##ஞசர
விலகிய
சோசலி
ஈடுபடடிருநத
எகிப
கானகிரட
அபட
##சசஙக
##சசியும
போதி
தொறற
வநதிருககிறது
##ததுககுக
வசும
மரததின
##ிருககாஙக
எடுததனர
பாளைய
##பபடையினர
பாடகர
குடுமபததிறகு
அழகர
தாமஸ
சடஙகு
ஆரவலர
நகையை
உளளாக
மாவடடஙகளிலும
கொணடாரகள
மோசம
முதறகடடமாக
ரெட
காலநிலை
பிடு
தேரதலுககான
##ியுளளோம
தலைவரகளின
அடிககல
##தொகை
கடவுளுடைய
சிரிகக
மாசி
##சசிடடு
போரின
இபபடியான
##விடததில
##மனு
##வேளையில
##டையாக
ஆணடாக
மணணெணணெய
##நிலையததில
அறிகுறிகள
நிலவியது
##சசினை
துல
மதுவிலககு
இணையாக
விதிம
ஆடசியின
நனமைகள
பனம
ஆலயததில
புகாரை
முதுகு
ராககெட
குஜராததில
துரோகம
சைய
##பெறறு
விளா
அடிததுக
யாரை
வலியுறுததினார
வாடிககையாளர
செயறபாடுகள
தசை
நலி
வௌ
பொருநத
தேவாலய
##ககடவு
தியேடட
பிரியாணி
கலெகடரிடம
முதும
சமபநதன
வழிவகை
அதிமுகவில
அனுபவிகக
கடடடததில
ஏதுவாக
##தியைப
கோது
##வனுககு
நினறிருநத
துருககி
##யததை
எணணிய
மறறவரகளுககு
மூடிய
எதிரொல
அனில
மூலமே
சதயா
நாடகளுககுள
செயதியாளரகளை
ஆவணம
போனறவறறில
கனரக
ஊககம
கதி
ரகம
பயனபாடடுககு
முழுவதிலும
குமாரபாளையம
##கையும
தொஙக
கோலம
பிஎஸ
கலச
உயரமான
வநதுளளன
##பபேறு
லேபட
##ிபபது
உளளம
##வேலை
பொல
சமைய
இருநதுளளார
பரடச
நாடான
வெளிபபடுததும
எபபொழுதும
மாநகராடசியில
கொரிய
இராணுவததினர
கணகாடசியில
சிறிதளவு
மனபபான
தெரிவிககபபடட
சாததான
கடைகளுககு
சோகம
படமாகக
கிடநதார
எதிரபாரதது
மடததுககு
அறற
##ககுறற
##ுககுடன
கேக
நிறுததததில
அறைகள
புளளிவி
டைரகடர
தநதிர
வரற
முனனோடி
மாணவியை
புதுமை
இரணடரை
சொலகிறேன
திமுகவின
சொநதமாக
மினனஞசல
வேகபபநது
சிரிபபு
சிறுநரக
துளசி
உலகளவில
பாரபடச
பகுதியின
அளிபபது
வகிககும
குழுமம
இநநிகழசசியில
##டகளை
##மடை
##வுககாக
வாததிய
பாரம
##ெயலர
நாறறு
அவரைத
உடைபபு
வாசகர
##ூஸ
##சசன
ஆயவுககு
ஆகியோருடன
தெரிவிககையில
தொடஙகியுளளது
ரனகளில
சாமியார
மாறியுளளது
எயம
நற
##ெதிர
##முறு
சிமம
சமபநதம
##தேசி
##பபைத
##ககலவி
பயனபடுததுகினறனர
நடிததுளளனர
##போதையில
பெடடியில
கடததபபடட
வழஙகவிலலை
தெரிவிததுளளன
ஒனறுதான
இரணடையும
ஊராடசிகளில
போடடிகளை
உலோக
வறணடு
மாரககெடடில
##னியை
##ாபட
துறைகள
பெறாமல
போயவிடடது
யாருமே
##பபொருடகள
பதிகக
##படம
கொளகிறது
குளறு
விரிசல
##ககொணடனர
கனிம
இராஜாஙக
குறறஞசாடட
போனறோர
போராடடததின
பாதுகாபபுடன
பாரககாமல
விமரசனஙகள
சுவிஸ
பாகுபலி
செஙகோடடையன
##ககெலலாம
##ொறறிய
செனறேன
அதிகாரிகளுடன
கடடுபபாடடை
பஙகுனி
வடிவமைகக
மிருக
##தென
ராஜம
முககியக
##கிள
போயவிடும
ரனகளுககு
பததிரமாக
கொலைய
தயில
தடம
##சஙக
குப
போககை
அவரகளைப
பூடட
இவருககும
எடுககாமல
இயககுனரகள
ஏறபடாமல
##வகையான
எழுததுககள
போதைபபொருள
ஐகோரடடில
##ஙகாடு
##குபபம
போறறி
அமிர
கொளகிறாரகள
உடலநலம
வேணடியதிலலை
ஆணடுகளுககுப
முதுகுள
ஆா
##நூறு
காறறின
மூடடு
##னமார
வழககுரை
பளளிபாளையம
படைபப
தேரநதெடுதத
தநதது
##துரு
முதலிடததில
நேராக
விடுஙகள
ஊழியரகளை
மடககி
நகைசசுவ
மாயமான
##விலலையா
தொணடை
திரணட
கருததுக
தினகர
பகுதியிலும
வெளிகக
பரிநதுர
வககலகள
வழஙகுதல
ஜனாதிபதியின
##நாயககனபாளையம
##நிகழ
##டடிறகு
முறு
நிரபபு
கூடடத
தொடஙகினர
சுததமான
கிரிககெடடில
ஜல
##ாடை
##புககில
கலையர
##கொடுதத
இறநதனர
உறுபபினரகளின
விடுதலைபபுல
கைபபறறிய
ஆஜரான
கேடபது
பினவருமாறு
செயலை
போதைப
தொடடியில
அதையே
நிலவரம
தராத
நெலலி
சானற
பொயயான
தூதரக
உலகககோ
சிறுவய
உபகரண
உயிரிழநதுளளனர
தனனாரவ
தேதியனறு
தமிழரகளை
பளளியை
அனைததுத
செனனையின
##ககணும
அயயா
இளவரசி
##ாவிடர
நதவான
ஏநதி
இருககடடும
நினைததுக
##செயத
நடககவிலலை
ஊறற
##பிறகு
##பபாடடில
##குணட
##ாளரிடம
சுறறிய
இடததையும
##ஙகுள
நாறகால
வடடிலேயே
திரைபபடததின
தவறாமல
சிறைசசாலை
கவுரவ
ஏமாறறு
தலையிடடு
##ககடலை
ஒபபிடு
##குடா
##முததிரம
மோத
சொலலுவ
நாடுகளை
அருளம
கடவுளின
மாருதி
அஞசு
ஐஎஸ
வநததாக
##மடட
##டடேன
எனறாா
முதலமுறையாக
ஆகசி
அணிநதிருநத
##பாலன
##ிருககாது
குழநதைகளும
விளைவி
பிலிம
வினாடிககு
கொடியேறறததுடன
##கிறகு
##தியைக
##புள
காலததிறகு
இடததைப
நெடடி
பாதையை
வரையறை
விகரமசிஙக
அதிரசசியடைநத
இணடஸ
ஷூடடிங
குடை
##ிககிழ
பெறறன
கேளவிபபடட
அணணாதுரை
வெஙகடர
சுடடுககொ
வதநதி
உரையாறறிய
##சாமியின
டும
நசு
##ுற
##விவகார
பாககெ
திடடததுககு
விளஙகிய
பிரசசினையை
பாலசுபரமணிய
ஜனனல
உசில
தது
##ஹால
##ேரா
வாழததி
ஈடுபாடு
சொலவாரகள
சஙகராபுரம
யெகோவாவின
##இரு
தயஙக
உறுது
விடடுச
வடிவேல
பாயும
கோடடாபய
தாராபுரம
காடசியை
##ினனு
முளளி
##ரியது
தமிழரசு
##தாகவே
நேரததுககு
##பபிளள
தவறிய
நாடார
##ேசான
சதுரததி
வழிபடு
ஜர
நடா
##வைககும
கிரும
பாலததின
குறறச
தேவைககு
முகாமகள
பகதரகளின
குழாயகள
போதாது
முறைகேடுகள
மிஸரா
குடியேறற
முறறுகையிடடு
டுவிடடரில
மாஜி
பாதது
##வாயநத
நிரவாகததினர
தாயலாநது
ரெடி
சததியமஙகலம
முருஙகை
எயமஸ
லியோ
கேடு
வசதியும
கரணன
எபபடியோ
எணணில
அணுகி
கொளகைகள
காவலதுறையின
கடடுமானப
இபபு
சலி
##ிதம
பாததி
வருண
இனியும
வகிகக
அனுமதிககபபடடார
புரியவிலலை
சினிமாவின
மறைமுகமாக
சிததராம
செலவோர
படடததை
மாறறாக
##குறிதது
சநதிரசேகரன
மசோதாவை
கஷடம
##ததிலுளள
##ாயப
வரமா
##ாவிலும
இவவு
வரைபட
திருமால
ரவிககுமார
மலையக
பிரசனையில
ஐநதாவது
விடைததாள
ஆதிதிராவிடர
பளி
##காரி
##பபிலும
கொளகிறோம
ஸடோர
உடனுககுடன
விளையாடடில
இடைபபடட
ஆளுந
உருக
##ணையில
##வரகளே
நாஙகளும
##பபோடடி
##வரிசையில
ராயல
ஆறாம
##ுது
##தெலலாம
நரின
வனவில
வழிகாடடி
எதிரகொளளும
ஆராயசசியாளரகள
வேலி
##மபம
கேல
இனசூர
ஆயவுக
எதிரபாரககினறனர
ஆபரிகக
கிடைககாததால
##ககொளவது
நடைமுறைககு
தலையிட
பாராடடினர
##நததிலலை
சுறுசு
ஃபிர
##வணடி
தெரிவிததன
நலலூர
எழுதியுளள
உருவாகியுளளது
மாதாநதிர
கணககெடுபபினபடி
முததர
செயவேன
மேனே
இடைவெளியில
ஒதுககபபடடுளளது
ராணுவததினர
கலாநிதி
தவிககும
ஐயபப
ஆரவததுடன
ஒபபநதததை
அனுஷகா
##டததை
பொழி
தேரோடடம
எமம
மனிதநேய
உறவை
சரியல
##வாளன
செயலபடுததி
சேனல
திருசசெஙகோடு
ஊடகம
மானாமதுரை
இழி
இததல
உடமப
கொளகிறார
விறகும
கவனிதத
ஒபபிட
பஙகுகளை
வதிகளில
##மலையில
முழஙக
வானில
பணடைய
பரபபளவு
தருமபுரி
##வதத
இருநததை
உளளான
திவ
சரோ
இணையம
கணணாட
பயணிகளுககு
பிளாட
##ககெதிர
திருவொறறிய
விருமபினால
ரஙகசாமி
##பூரவமான
எலகடரான
##ளளதால
சிலவா
கழுவ
கொளவோம
எனபதைத
அவளின
பயணிகக
நோககிச
இளைஞரகளை
குமபாபிஷேக
உரையாடல
குதிதது
சததிர
தையல
##தனால
##ோப
மககளையும
தெரிவிககிறது
பதிவை
இதுகுறிதத
##பவை
போசசு
##பபடகு
சுகம
மனநல
நதிததுறை
வழிபட
##ததிகை
பாதிககபபடடவரகள
கேமராககள
ஒடிசா
சாவி
பெருநதுறை
உதவியாளரகள
எநதவிதமான
செயறகைககோள
குழியுமாக
மடததுககுளம
##ணய
##ிள
இரடட
##ககிளை
##ஸடின
கிளிக
சநதிரா
மொததததில
பேசசுவாரததையில
##ஙகார
தேவே
அவறறு
மனிதரகளின
அருநது
இடமபெறவு
அறிவிககபபடும
மனறததின
ஈழத
விரிவுர
பிய
##வசமாக
பூநதம
ஆமாம
ஆடமபர
ராமலிஙகம
மனிதரகளை
இயககுநரகள
அபதுலலா
குறறவாளிகளை
காயலபடடினம
பாரலிமெனட
பதினை
விமானததை
##மிர
##ஙகளுககாக
##மபேடடை
பணககார
போனஸ
தலைவரகளை
குவிபபு
பாரவையிடடார
சொததுககளை
##தனம
அநதஸ
##ிதே
செயதிட
##பபெருககு
##நாளில
அவருககும
விவசாயிகளை
அதனபினனர
கனமழ
ஆணடிபடடி
தடுமாறி
சோவியத
##ாளியமமன
தரவை
அமசம
எடுககவேணடும
யாராலும
இயககததை
கடவுளை
அறைககு
வடடிறகுள
மெரசல
விஸவரூபம
பககு
பலா
##புத
அமமைய
சமமன
##ாபதி
சதாராமன
மாரபக
வழிபபறி
சமூகப
மனோஜ
பொறுததவரையில
இததாலி
மூதாடடி
கோதுமை
எததகைய
கவ
பியூ
##மையின
##பவரகளை
பிரின
மேட
துணட
##ினைப
நலனுககாக
திரைபபடஙகளில
பிடியில
வரமணி
ஊதது
ஷெ
##வாணன
அணுமின
விதிததுளளது
புரிநதுணரவு
குடியிருபபில
மாமலலபுரம
##ணடஸ
##வாதததை
அதிகபபடியான
ஆதரவறற
கனக
கடடுபபடுததும
கமு
##ஷடை
எனஜின
விமல
##ிடடே
##ாசிரியை
பூடடு
உயரநிலைப
##கோடி
சோப
நிறுததும
##விரோ
##சிறி
மதர
எனலாம
விலகு
எஸபி
##வாயககால
இயககுந
அவனிடம
பிரதேசஙகளில
குறிபபிடடுளளது
கணடுபிடிபபு
பிளளைகளை
சிரியா
ஏலததில
தககு
##டெல
##சசாலையில
சரகுலை
போடடியாளரகள
விஷயஙகளில
மடகபபடட
##சோலை
##பாடடில
##ாளில
##வாரததில
மூலவர
##தொழில
கலாசசாரம
அவதிபபடடு
மாடுகளை
லடசுமணன
கஸத
ஜடே
##ாடம
வாரஙகளில
தினஙகளில
அகலம
கடசிகளுககு
உததரவிடடனர
விளககினார
##பபறறிய
மாபபிளளை
கோஷடி
இருநதிருநதால
பதிவிறககம
இநநிறுவன
பணவ
போலஸில
எனககுக
வடியோவில
காயசசலால
கடததிச
விதயாலயா
டரை
மூண
திரைககு
இநதியக
பாலததில
கிடைததால
ஒருவராக
குடுமபததினருககு
நடமாடும
வைரலாகி
ஆஷ
கியூ
பலமாக
முதலாக
தாயபபால
ஈரபபு
விணணில
தருணததில
மிரடடிய
விசாக
வயதுககுடபடட
மகாலடசுமி
ஜாகக
நணடு
##ரர
##டுகளை
சேரன
செலவதை
பரவு
பெருமையை
மறுசர
பொயய
வெளியேறினார
பெணமணி
டகள
நககபபடட
ஷேர
முததும
கொடியை
##ஞசின
மடடுமனறி
காவிரியில
##ியினறி
உயிரோடு
##ியானது
கொரியா
உததரவுபபடி
##ககழி
##ளிததுளளார
##மாணம
தவணை
எநதெநத
சுறறுப
கனகராஜ
அமைபபுகளின
##பபுறம
நோயாளிகளுககு
பததிரம
மவுன
##ளர
குடும
கேளவியை
திரைபபடஙகள
மதசசார
மனறததில
இடிதது
வேடபாளரகளை
ஸபெஷல
காரணஙகளுககாக
##நாராயணன
மினதடை
மடம
##ையரகள
முததிர
எணகள
திணட
தலைவரின
##ாவிலிருநது
மாநிலததை
##லுககான
பயஙகரவாதி
ஆளுமை
##ணாமூரததி
நடைபாதை
உநது
யாவும
##வததின
புதிர
##தானா
மனவரகளின
இதுவரையில
ராமமூரததி
பஸகளில
ஏறபடடுளளதாக
நெருககமாக
சுததமாக
செடடில
மேமபடுததும
நடுநிலைப
மொழியை
கடடிடஙகள
மயிலாடுதுறை
இனசூரனஸ
நஙகி
##ாயர
எனறாரகள
பரபபில
இவவ
திருமபு
தாககுதலகள
உலகு
செயினட
அமாவாசை
##ரைத
பகுதியான
ஆதரவுடன
வியர
##தொடரநது
வாலிபரகள
உலல
டானஸ
மியான
வடச
##ாயக
அதான
பாகடர
ரோடடோர
பணியாளரகளுககு
##முடியவிலலை
நெடடிசன
ஒருப
கணககை
செயதவரகள
ஜெகன
இததிடடததின
படடை
##தரம
##வநதது
##ததுகிறது
இலககண
சநதானம
சாதிய
அனுபபினார
தருணம
செயதுளளோம
ஒபபநதததில
ஸபூன
ஆறறிய
செயகிறேன
சுணண
கலவ
மனசு
நடிககிறது
மழைககால
இறுதிகக
அறம
சுவாமிககு
யோசிதது
வாடிககையாளரகளுககு
எயடஸ
தரததை
மாணவா
மருத
மகாலி
பழஙகால
பரிகாரம
மாரியபபன
ராதிகா
வருடஙகளில
அடுததுளள
மாறிவிடடது
உகநத
எவவளவோ
கஸதூரி
ஆடடு
பைககு
##ூடடும
##நதாடட
##றுமபு
பயனபாடடில
தூணட
பொறுபபாளரகள
அழுத
கணிபபு
ரமயா
மேறகததிய
வெளியுறவுததுறை
##மைககும
பினனா
கிரானை
அனுச
அளிததுளளனர
##வருகினறன
வலியுறுததினர
முனனேறி
போடபபடட
ஒழுகக
சுறறுசசூழ
இககூடடததில
ஐசி
தொடு
##வேணடாம
முனு
இலலாதது
ஆரமபிககும
கேடடான
கேடடதறகு
விதிததது
மறைகக
விசய
இராணுவததின
மதுராநத
##ககடடுரைகள
நெலலையில
சிகரெட
சேரநதது
சநதைககு
சரவாதி
தயா
கொளவதறகாக
கபபலில
உததிரம
##னனாக
பாரததது
சிறநது
##நிலைகள
வநதவுடன
ஜிம
போடபபடடுளளது
எனபதறகான
பாததிரததில
##னியின
மெழு
விடடுப
வேணடியிருககும
உணரவை
மருததுவமனைகள
##பபடுததுகிறது
நிவாரணப
கிணறுகள
மாரிமுதது
மஸ
##பபித
தேடிய
போலவும
அரசுககும
பேரன
செயலிழ
காணாத
ஆபஸ
கடித
மதததை
குறைவாகவே
திலலியில
##மபடடியில
##ாரகளா
உணரவுகள
ஜெயலலிதாவை
தினததனறு
##இலககிய
ஏகாதிப
வளிம
குபபு
##குது
இருபுறமும
அனைததிலும
திறமையான
ஆடசிக
தேசியவாத
மேறகிநதிய
வெயிலில
ஹாஙக
##ினோ
குலை
இருததல
அலடசியம
சரக
உணரவுகளை
கதையின
உறுபபினா
##ககாதல
கறறல
தததுவம
நககு
##காடு
இரததம
உடலு
குடுமபததுககு
கொடுககபபடடது
முறறுபபுளளி
எழுபபினார
ஏகபபடட
அததுமறி
##ஙகான
கிஷ
வழககுத
சரிததிர
குளஙகள
எளிமையாக
பரிசோதனைககு
வசதிகளும
கௌதம
வசசாளர
மாணிககம
காஷம
அபபகுதியை
##மாறற
சரழி
திருபபோர
##பேல
பொருடகளுககு
அணுகு
மஹார
பெருமபாலானோர
வாககளிதத
குஷபு
இறகு
சாது
##சநத
விககி
பேரிடம
இபபடியே
சாரா
##பபோடடு
##நோககு
நுழைவுத
லெனின
ஹாட
##மூ
##ெரும
பாரததாலும
வைததுவிடடு
வழிபடடு
பயணிககும
##கொளளும
மூனறில
பினனும
சமரசம
ருசி
பணிபுரிநத
வரிசையாக
அணுகுமுறை
பரவாயிலலை
##ாரை
##விச
போரவெல
மோதின
தலைமைப
##விடுஙகள
பொளளா
திரையுலகில
லிஸ
##வாம
மாதததுககு
வேதாரண
காலனியில
தேரதலகளில
பளளிகளை
##மையனறு
##செயல
இருவரின
காறறழுதத
##வெலத
விழாவையொடடி
தாலுகாவில
பிசிசிஐ
சநது
##தாயம
##டடையை
கோத
எனபதன
கணவனை
##ிருநதாரகள
கடடுககுள
பெறாத
கடலுககு
ராணுவததின
யோசிகக
##ஸதரகள
உனனத
மாநிலஙகளவை
தடிய
##பததில
##ராத
##ிலே
##ஙகளான
##ககுமபடி
அமைதத
##களுககுச
கிரிம
பெணணிடம
விடயததில
பெயரநது
சமூகவலை
கிணதது
பவுடர
வழிமுறைகள
கசசேரி
மநதிரம
##அப
##டடே
##ுவதால
அரககோணம
மேஜ
அமேசான
ரூம
நடிததது
ஆமனி
கோவிலை
சூழநது
ஜெயில
பொறியாளரகள
நியூஸ
பரிமாற
பணியிடஙகளை
##ரணமி
தலம
ஸகோர
விடி
சுதர
முதலமைசச
நமபப
அதைவிட
குடுமபததைச
கடசியைச
கேடடனர
தஙகததின
சநதிததது
கொதிகக
##ததிடடு
##ாணா
செலலவிலலை
இழகக
அமரநதிருநத
##ககொணடது
கொடுஙகள
##ுககெலலாம
##ெழியன
வரப
பிரதோ
விரக
போனறே
எபபடியும
வடடாடசியர
பயணததில
லாரியில
எரிகக
நோர
##டலில
##ததடை
விகார
வேடிகக
##ுமபோதே
கோயிலின
வாஙகுவது
ஈராக
பெறுவதறகாக
அமைநதிருககும
கடினமாக
மசூதி
ஏநதிய
##ூடம
செரி
குறைபபு
பழகு
பெறபபடும
நியமிககபபடடார
துவககததில
முதனமையான
இடதுசாரி
நெயவேலி
அறஙகாவலர
சகா
##வஸ
போலும
தரவுகள
##மனித
பாதிககபபடடுளள
எணணும
அனைவருமே
நூலகளை
விதிககபபடும
டைமஸ
பஙகளி
இபபோதே
பலாதகார
ஐயர
லஙகா
கூரை
வழிகள
முனவநது
கொளக
ஜெயா
மெனம
அடககும
டிராப
கொடுககபபடும
வணாக
மஞசூர
மடபுப
மருமகன
கஙகு
நவராததிரி
வதியுலா
##ாலையை
பாததிரம
பேரணியில
பொருததம
கணடெடுகக
தொடஙகபபடடது
கோலாகல
ஹரோவாக
பொழுதுபோககு
கிரேகக
கனஅடி
##ோகம
புதூர
தொடரநதது
செலபவரகள
செயதவர
பயனபாடடு
##ேஷட
நடததுவதறகு
பிரசாரததில
அபபடியானால
##ெயர
காலபபகுதியில
பொதுஜன
கோரும
திருமணமாகி
துவஙகியுளளது
பூமியின
கொளளையரகள
பலியாகினர
##ததியாக
விரிதது
கராததே
போலசாரின
நடநதால
புதுடெலலி
ஏறபடுததுகிறது
##ாகிராம
பேன
##வியாக
##மையுடன
பஙகேறறார
##ொனறுககு
முயறசியை
கபாலி
டகளஸ
கறு
##ரையில
தரககும
திடடு
கிராணட
இருபபதும
பயனபடுகிறது
வளரசசியில
ஆணகளுககு
துணைச
##மலதா
ஹோடடலில
ஏய
திலலை
வைய
##ாயினும
##பபடுமபோது
பாரதிர
விசாரி
தவிரபபடுதத
புரடசிய
விநாடி
யாகம
லாலு
##றையான
##வெனறு
கரதத
மாதநதோறும
வடிவேலு
கொடுககாமல
வாயபபுகளை
கவிஞ
ஐநதாணடு
அலலாஹவின
ஞாபக
திரளான
குனனூர
ஆதலால
ரலி
முதலை
புணட
பிரயோக
முதலியார
ராமகுமார
சமூகததை
ஆணடை
பிளே
##லோக
##நவன
##துஙக
##ககஙகள
##ையுளள
போககும
தனியே
பேரவையின
முடிவதிலலை
##பபேடடையில
மறல
கிரானைட
பரும
##ணடது
##ாமையில
##பபடததில
தரவேணடும
திடுகக
ராஜசேகர
இருககை
பெரியவர
முகாமி
ஒவவொர
##பபேசி
ரேடியோ
வாலிபரை
போதெலலாம
அறிவுறுததபபடடுளளது
வடகொரியா
தாது
##ிகோ
##ிடடேன
##வதறக
சுயம
திருவே
அவரகளுககும
நேருககு
அனுபபின
வைததுப
செயதிக
சோல
விழுநதார
மருநதுகளை
சாயப
ஏழுமலை
நூறறுககும
அதிகாரபபூரவமாக
எனககூறி
உளுநதூரபேடடை
ஒடடனசததிரம
வேதம
காலவர
சேரககபபடட
பழகி
இபபடிச
துபபாககிசசூ
பஙகளாத
உளளூராடசி
மிதமான
செவிலியர
கையே
##யி
##ததுகள
போகிறாரகள
மேஜர
துாய
கலகக
திராட
பிரதிஷடை
மாரகழி
பாபந
இடஒதுககடு
பிகக
##ஹத
##னைச
மககளே
சடடததிறகு
நரநிலை
வசதிய
நலலாடசி
தனனுடன
அதிமுகவினர
வாயககாலில
இடையூறாக
இககடட
ஏறு
ஸருதி
##ககடன
##ஙகையில
வரையான
##வேபபில
##டராஸ
முதலவருககு
##குமான
##ககொடுகக
விறபனையை
##ாதிரு
பஙகளிபபை
அவதார
வெணகல
கடடுரையில
விவேகானநதர
சரச
திடடககுடி
அரசில
##ிததல
கிடைபபதிலலை
வேலைததிடட
விடடான
நாடுகளிலும
தாககினர
ஜிபி
ஓடடுகள
இசைக
வணிகரகள
கதாபாததிரம
கொளளையடிகக
டா
பறை
##ஜிய
##ஜெய
துஷ
நேரநத
டிஜி
மகாதே
நிலைநாடட
வேடபாளரை
நினைவுகூர
இளைஞரகளின
அலஙகாரததில
மேறகணடவாறு
##ஸதன
##ஜியம
கோபுரம
கலமுனை
எபபோத
காரணததை
தருவது
பாகிஸதானுககு
##றதுககு
அமிதஷா
மிகசசிறநத
##ையாடு
புய
##றறுக
வருவதிலலை
வாடடர
அமைகிறது
வேணடுமெனறால
செயதபோது
அறியாத
சானறிதழகள
நோடடுகளை
மெகசி
புகையிலை
##ஸம
##ககாவல
காரபபரே
செயலமுறை
பளளததில
தினநதோறும
விடுவது
கணகாணிபபில
நணடகால
பரபரபபான
மணமகன
ஒனறிணைநது
ஒபபநததார
##டைநதுளளது
பாசனம
##டையின
சுவாச
கேளவிககுற
மதகு
சமரச
வெறுமனே
யாருடைய
##சசுவையும
##நாக
புறபபடும
தபாவ
விமரசிதது
சிலலறை
மாவடடததைச
உடமபு
பரடசை
பாடலில
போராடடததுககு
ஓடடலில
சிலைகளை
காகித
##கரு
##ததாய
##ாதஙக
கோயிலகள
##ககரையில
கோயமபுததூர
பரமபரை
ஹாரம
சிககு
கொணடுவநத
விஜயலடசுமி
பொதுமககளை
கூடடணிககு
சிதறி
வைததிருநதார
விததியாசமானவையும
##கடிதஙகள
அககம
வஙகக
##ஹாம
விநாயக
##சசமப
##ஞசெய
நேத
பணிகளும
##ககொடுதத
அழைககபபடட
அமைபபுககள
அநநாடடின
சிரமபபடுகினறனர
ஆடடோவில
தோழரகள
சமமதம
கோபபையை
கிறது
செஞசு
வைததே
கைத
விலையும
பெறறவரகளுககு
பணற
வளரககும
நினைததேன
ஜிப
எனனைத
வழஙகுவதறகு
எனனவெனறு
ஒளிபரபபு
சஙகிலி
##ததுககே
முடடு
குனி
தெறக
ஆரயா
தூணடும
பஸகளை
சொலவதை
கொடுககவிலலை
செலுததினார
இருவருமே
அசசததில
மயகக
உமர
##ாதிர
வரபாணடி
மககளவையில
மாதவிட
கலலூரிககு
பாதிரிய
மசாலா
கழுவி
ரிஷப
கவிழநது
அதிருபதியை
சாண
மகளும
வெடக
##றறுப
##பபடுவார
கூடடததுககு
மோதிர
நாஞசில
ஆதரவ
சரியிலலை
மேறபடடவரகள
மூலமாகவும
தெனகிழ
சாபட
##நகைசசுவையும
ஹொ
##ாசு
வெறறில
மறறபடி
எதிராகவும
தூவி
வனபபகுதி
மணிககுள
மகனுககு
அமபாறை
உணடாகக
சமையலஇலககிய
விருநதின
தனிததுவ
திருவிழாவில
உளவுததுறை
ராஜயசபா
##ககடடுரைகளநகைசசுவையும
விததியாசமானவையுமகடிதஙகள
சமையலஇலககியககடடுரைகளநகைசசுவையும
உகக
##மமர
##ஐடி
##ாலயததில
காலிறு
##பெர
##பெற
தெரிவிததும
இனபபடு
##ிருககவிலலை
##பபாதையில
நுரையரல
##லைச
##பபடுததியது
அதேநேரததில
மததியிலும
சமுதாயம
உழைககும
மாமபழ
டோனி
செள
செடடியார
போகிறேன
##வேள
சிறபபுரையா
##விடுவது
பயிரகளை
சேதமடைநது
வயதிலேயே
அரஜுன
##பபோக
##ாலதான
##ஙகிலும
மூணு
கலவெ
இதுபோனறு
ஆகஷன
தேரவாக
தரததம
நேய
வாழவியல
படடின
முகபபு
அதேபோனறு
தேவைகள
திருமணததை
கொளகைகளை
ஏழாம
##ததிலே
வேனில
எனபவருககு
கொணடுதான
தொழிலதுறை
ரயிலகளில
எணணு
தெரிவிககவிலலை
மகாபார
இனபம
சநதரபபம
முடிவடைநத
##ேநதி
##வையே
வரக
அரஙகம
சிறைத
போலச
காரணி
ஆரததி
மகபபேறு
வளரதத
##ாவைத
##பபோககு
விழுககாடு
வியட
கொரோன
மேறகோள
ஏழுமல
திருககோவிலூர
காமனவெலத
எடியூரபபா
சவூ
தறகா
ஹசார
##பய
##வரரகள
செயததில
நினைவுகள
திருவாட
பெணணும
பலலா
ஹைடரோ
காததிருநது
##பபவரகளுககு
நிலைகள
கருவேல
செலலபபடட
கரையை
மாரடைபபு
வாகனஙகளுககு
சதவதமும
விளைநில
ரசிகக
தைரியம
சரகேடு
மயிலாபபூர
##கணட
##லன
##ிருநததால
பேஙக
காலக
பினபுற
தவான
நடவடிககையாக
அனுபபினர
இணையான
பைபாஸ
செனனையிலிருநது
அணைதது
அமமாள
தொலகா
அலக
பஙகா
##பாவ
##ிராமி
அவவழியாக
பயனபாடட
அறிவிததுளள
##ஜிங
தடய
தழுவிய
ஸதல
##ஃபா
நகரநது
பூசி
##வெறி
மனனிகக
ஒருஙகிணைபபு
அஜய
ரகசியமாக
தத
பரிய
##சிஙகம
பொனனு
வழஙகவும
கொணடவை
குறறபபததிர
கடிதது
ஆலோசனைகள
துரைசாமி
மலையாளம
நிபநதன
அலம
எக
##ினல
கேவல
##பரணி
கூடடமாக
கூடததில
விடுவார
நினைவாக
சிகஸ
பிடிததார
பிரதமருககு
பாதுகாபபுககு
தளஙகளில
காடசிகளில
சுமை
இழுப
முனவைகக
வணடியில
வேணுகோபால
##துதான
##லலோ
முனனாடி
பொருததி
பரபபி
##வுககுள
வெளிமாநில
ஆசர
அபபடிச
இஸலா
பணடிகையை
முறறுகையிடடனர
சிலிணட
தாட
ஸதிர
##சசாம
##பபடவுளள
நிாவாக
அமைசசரும
தினஙகளாக
இறைய
பாதுகாபபுச
##களாகவும
டாகட
அடிபபடையிலான
ஜனாதிபதித
அனுமதிககபபடடு
ரேவதி
கிறிஸதவரகள
ஆககிரமிபபுகள
கனடாவில
டொனாலட
இததக
டயர
தாஜ
##ிலா
##கிறாய
டிவிடடர
கருமப
மெககான
கதைகளை
##ககொணடிருககும
படுததி
விககெடடுகள
கடடியெழு
மௌன
பலலாயிரககணககான
##ஸடன
##ககடசி
எனனம
##பெறும
கூடடணியின
குடகா
உறவுகளை
பெருகக
புரொ
விரிவுபடுதத
தோறறுவி
முகாமிடடு
உரும
எமப
எநதிர
வததல
##மைகளை
தொடுதத
##ாவிறகும
அரவி
##ோமோ
##ககமாடட
கூடடஙகள
மாணவரகளிடம
களைய
##பபுமிகக
உறுபபினரகளும
##வழியில
சுதநதிரமாக
ஜானசன
வாரியததின
பாராடடினார
மோதலில
கடடுபபாடுகள
வரதடச
லேபடாப
##மணட
வழிய
மாவடடஙகளுககு
இருபபேன
அழகை
போயஸ
மலரகள
##ததிருநதால
வரலாறற
விருமபாத
பிறநதவர
நதிபதியாக
பதவியேறபு
நிமமதி
ஆலம
நவாஸ
தொணடர
தமிழை
இலாப
விரடடிய
வாழக
##களினால
பததிரிககை
வாரடுகளில
##பூஜை
செயலபாடுகளை
திரிபுர
விலையிலலா
அனறாடம
##ணப
##சசடடு
புதியதாக
மாணவரகளுககும
உததரவில
ஸடான
வேலும
ஆடைகள
ஈஸவரன
எதிலும
ஆயுர
கணககான
அமைசசகததின
மததியப
நடநதே
நொய
காணபிகக
பஙகளாதேஷ
அவிழ
மாமி
ரனன
லாடட
முள
##ரமதி
பேரவையில
##ஞசும
##போனை
செனறிருநத
நடததபபடடன
தேவகோடடை
பாதிபபும
சொனனாலும
இடமிலலை
காமாடசி
##எஸபி
செனசார
நெறிமுறை
நடபபதாக
முதலவரும
##காநதன
எனனையும
உரையில
##ொனறும
##பாடும
##தலில
வாநதி
படசம
ஏறபடுததிக
விளைவிககும
நரசிமம
அரஜுனன
##ிணட
##ிகளாக
முதலவா
மககளுககான
போடடியாக
சஙகட
போலசாரும
இடைத
மாறன
எலலைககுள
##கொர
##னையாக
##பபணம
##விபபு
போகிறோம
##ாயத
கிராமஙகளை
அழிய
மழைககு
காடடிக
நமககுத
சாதனைகளை
##முடியாமல
சோழன
அஙககரிகக
பததா
##ககழிவு
##ளளே
மேகம
திருடன
தேரவாண
எதிரகொணடு
கருகி
கடடை
கடடணமாக
நெஞசு
வெளிபபடுததி
ஆசிரியராக
##ிபோர
எலலைப
அடடவணை
இறைவனின
சாடசிகள
ஹவுஸ
மேறபாரவையாளர
துாததுககு
குளறுபடி
டசர
லடசிய
ஸதாப
செழி
குஙகும
##ரிடையே
##ாயமாக
இருநதிருககும
நமபுவ
குழநதைகளுடன
மணணின
##சிறநத
மாததிரமே
ஃபை
ஈடட
ஏறிய
##சரகள
##ாதிரிய
எதிரக
ஆலையை
கலலுாரிகள
மலேசியாவில
##ிககொளளும
பிரபஞச
சாபபிடடால
கென
##ததபடி
காப
வெளிபபடுததிய
நிறைநது
சொனனாள
விணணபபத
யாததிர
துரைமுருகன
வளரசசித
அரசசனை
##தினர
##னறும
##டியாகக
பயிரி
குறிபபில
வனசசர
நிமிதத
வெடிததது
##சகரகள
ஊககுவிககும
நனகொடை
##நககம
##நதாள
##ககுட
விஜயயின
கிருஷணராய
##ாசிரியரகள
வாசிதது
##கூடாது
டைடடில
தேசததின
எழுதுகிறார
அதிகபடசம
நிழறகு
ஆனமிகம
ஓடடை
##ாரதத
பாவி
அவரதான
பயினறு
காலேஜ
தானா
இபபோதைய
சூள
அமைசசரின
உணமையாக
விடயஙகளை
உதயநிதி
உணணாவிரத
அரவககுறிசசி
ஈஸவர
##லைன
புதர
தமிழம
தெரிவிததிருககிறார
பொருளாக
கிளபப
மையததை
காலததிலும
தொழிலநுடபக
குறறசசாடடை
குறிபபிடடுளள
தபாவளிககு
சமமநதபபடட
திருவொறறியூர
ஏசி
##ஜார
##ிடைய
குறிவைதது
கேடச
மனபிடிகக
நாளகளில
##ியாகி
கிடைககினறன
இருககேன
திறககபபடும
நுணு
டெஸ
கணடது
நபருககு
வேளைகளில
##ககிராம
##வரே
உளளவரகளுககு
அதிச
முடிததார
மகேஸவரி
சாஹ
நடவடிககைககு
ஆரமபமாக
அபூரவ
வரரகளும
தரிஷா
துரததி
இருககிறான
மாறறியமை
கிணததுககடவு
இததுடன
பினர
ராச
##ேடட
##நே
##ஜான
##ஙகளோ
வராததால
கலாய
பகுஜன
##களாகும
நோயாளி
அடககி
வடடிலிருநது
கமபன
குறுநத
உறுபபினரகளாக
ஏறபடாது
இககால
டைப
##பரி
##ஜோதி
##சிகா
பிசின
இடமும
இரயில
சிலரை
##ியாஸ
விஜயா
இளநர
விலைவாசி
இடைநிலை
வாசிபபு
கூறறு
பாரபபதறகு
வழஙகபபடுகினறன
செயலகம
##ருககுள
பிரிநத
##தாரததம
உறவில
செயயபபடடிருநதது
நிறைவேறறபபடட
சிஙகபபூரில
பிளளைகளின
விகித
மகிழசசியுடன
அதுமடடுமலல
நஞச
##ாமில
குஞசு
தனித
செலவதறகாக
மணிமே
சமபகாலமாக
முறைகளை
அடல
விருதுகளை
பெறுவதறகான
நாடுகளுககும
ஆறாவது
பதிவாகியுளளது
அனனுார
##ககுர
##சசெ
##சசலம
மாயம
இநதியில
தலைவரை
சொலலுஙக
பஸசை
கதறி
அபிராமி
நொடி
பாணடியராஜன
கொலமப
உயிரிழநதுளளார
பினதஙகிய
பளளிககலவி
பூநதமலலி
ஒவவொருவ
##விங
##வரகளையும
கடமப
படமான
தானாகவே
இவையெலலாம
போதுமானது
மெடராஸ
வழிமறி
மறைவுககு
சொநதம
திணடுககலலில
கொடுஙக
ஒலிபர
##பபிரமணி
பநதல
ஆபி
கலவை
உளநாடடில
பெணகளிடம
கொடுககலாம
பறிகக
பாஜகவுககு
சைபர
முடகக
எடுபபதாக
##டைநதுளள
வெடடிய
அவவள
பாரு
பேரம
கரூரில
இணைபபுகள
கொளவதறகு
ஒருவரிடம
திருமணமான
ஓவியஙகள
பாரவைககு
சமமதி
ஸபெகடர
ஜடேஜா
நயும
##ளவிறகு
##ஷியல
##ியஸ
##சியஸ
##கரிய
பாரததனர
வநதா
விளககும
கடடுபபடுதது
போடடித
அலைபேசி
விழுபபுரததில
தஙகமணி
அதுமடடுமினறி
நலலிணகக
வியடநாம
கவரும
##வேமபு
அதெலலாம
மூடு
கலக
ஆரஞசு
கொணடுவரு
அரசியலமை
ஆசிரியரகளை
அழகா
ஓரததில
கொடுததுளளனர
யோகம
பெறறோரிடம
ஆதிதய
தவிககினறனர
கறகளை
முனுசாமி
மிலலி
ஸடு
குளள
தலைவலி
காலகளை
காலாணடில
செனறவர
கிராமததிறகு
நுணணு
சோறு
சுறறுசசுவர
கறறுககொளள
புருஷ
சமபாதிகக
பகிரஙகமாக
தாரம
##ளே
தேஙகிய
##வானை
திருமபவும
பறிபபு
உறுபபினரகளுககு
நியமிககபபடடுளளனர
வணிகம
தபிகா
வழஙகுவதில
பொதுபபணித
இலலையெனில
அறிககையின
பாககியம
தணடு
##டரா
இலககாக
தோசை
உததரபபிரதேச
பதிலை
கவனததிறகு
எபபடிப
இருதரபபு
மளிகை
ஹம
##சலில
##ஙகாக
அநதவகையில
மாணவாகள
பனமுக
வணிகர
தடுபபுச
நாயகனாக
ரோகித
வருக
பொனம
நிலையும
வைண
ஆயவக
##களுககுக
கணணி
##ஙகிப
நிலைபபாடடை
வடமாநில
கேடடறி
##தததிலலை
நெருபபு
போடடியிலும
கணடிததும
எஙகோ
பலனகள
புததிசால
ராப
வதை
##ூடடு
##வரட
##பபடடாலும
பிராட
செனறான
##நாதபுரம
மிஷன
ஜெனம
காமெ
##விருககிறது
வாககுமூல
##பபெருமாள
##ுதது
##ணடால
##ாமபடடி
இதறகும
இருககா
வெளிவிவகார
கடைபபிடி
நாடடைச
நாகரி
ஏறறுககொள
உருவாகிய
உருவாகியுளள
நபரகளுககு
களளககாதல
அனபுடன
மெரினா
தழை
##றில
##றறொ
##ஙகளாம
##ிடஜ
எனபதாக
இனஙகள
பகுதியிலுளள
குழநதைகளுககான
இதேபோனறு
சகோத
கொளளையடிதது
ஒரக
விருமபுவோர
மாததிரைகள
வேதி
படககுழுவினர
செலவதாக
நிகழதத
கோரியும
பேசவிலலை
ராபரட
கவுனசிலிங
டாலரகள
பெருமபானமையான
லலிதா
தநதார
தபபினர
தணணி
ராசா
##மடடும
##ேரூர
##மபோ
மேலூர
கழிகக
விடபபடடது
பெயரி
வனிதா
ரோடடின
பககஙகள
சாமான
வைரலாக
##ாளையததை
##ாஷடிர
கொஞசமாக
ஆடடி
##ஜய
##மானி
மனா
இநதியாவும
செயலரகள
வநதிருநதார
திறககபபடட
நாடடிய
ஆதரவாளர
இணையும
##ணரசசி
ஜெனி
மறைவு
கிழஙகு
பாரததசார
தொகுதியை
சநதோஷமாக
சஙகரனகோவில
ஊன
மேத
பொஙக
செலபோனில
விளையும
தாணடு
ராஜாஜி
ஒனறினை
கிராமதது
பதடட
தநதையை
எஙகளால
##ஙகலததில
தனனால
மடடததில
வழிததடததில
எகிபது
கொநதளி
கிய
சதை
##வரகளா
கடமையை
##சுநதர
##வாதததில
துரிய
பாரிஸ
அமைசசருமான
அடுததகடட
குடிநரை
விவகாரததை
அதிபராக
மினசாரததை
உணடா
இபபோதைககு
அயோததி
சூதாடட
எந
##சசியுடன
##பபடடுக
சூடடில
ஸடிர
அடையாறு
வைததிருககிறார
கிருஷணராயபுரம
அததன
லைச
##இநத
செயலகளை
இதிலிருநது
வாககுப
##வணணம
காளை
பயிறசியை
ஆகிவிடடது
கொலகதத
அரேபியா
சவுநதரராஜன
இததொ
ஜப
பஞசு
மகளின
வனப
ஹாரி
வெப
சுதா
படடன
இனச
துறைகளிலும
அசததல
பிரசசினைககு
விசால
அனனா
கொசுககள
திருடிச
##ானநதம
##லலாத
வேலுார
அணிககாக
உயரிய
செனறுளள
ஆசிரியரகளின
கிடககினறன
நாடாளுமனறம
தொழிலாளரகளை
விளககமறிய
ரேஸ
விளமபரஙகள
சாகல
திகழகிறது
சசனில
பிரிததானியா
##ளும
##ததோட
##ாகா
##ஙகட
செதது
##ோரா
கூறிவிடடு
வினாததாள
ஒறறையர
செஸ
##வுடைய
பொதி
திடடஙகளில
ஜோன
எலலோரையும
கருதுகினறனர
இயேசுவின
அநு
##ிரும
##ரிதத
##ையிலலை
##கரமாக
நிலுவை
தலைகழ
போலசாரை
தகவலும
முகேஷ
##ுததாககல
##ரேசன
நோயை
வனமுறையை
##மபிடி
வானூர
வகைகளை
நோககததில
ஏககள
கமர
பசிய
குவாரி
மாவை
கலி
##வாகவும
தலைவராகவும
தொடஙகபபடட
ஊடகஙகளுககு
ஆயுதபபடை
நடசததிரஙகள
நைஜ
இபபோடடியில
எள
##தலும
கோணததில
முனனெடுதத
##குமாா
வாரததிறகு
கரததர
அனைததுமே
கடடுபபாடட
பயனபடுததபபடட
பககவா
மரமமான
ரொமபவே
##ககுழுவில
வாழைபபழ
போககில
##ுவா
அருமப
பிராணட
##புதுார
பயணமாக
ஸடாப
குடியிருபப
பிளான
ஆதாரமாக
தவறுகள
##தாபாத
வசதிகளுடன
ஆயுதஙகளை
தலிபான
ஓமலூர
ஒகேன
பாபநாசம
இஙகும
ஊரு
ஏவ
##சசூர
##ிகளால
##ததுககுத
டிவியில
நிகழவுகளை
தகபபன
எலலாருககும
கலலரல
உததரவாதம
ஆனடி
நாகரிக
எதுககு
அரசாஙகததை
##ியரஸ
##ததேரவில
கமயூனிஸ
ஏறறிச
பரிமாறறம
உயிரினஙகள
சளி
##காடட
##ிடை
##சாரம
பூசசிகள
ராஜு
இநநிறுவனம
##பபடுததினார
கனவுகள
சுமதத
அறுதது
மேறகொணடுளளனர
சாதனைகள
##ிருககிறான
டெகனால
படிய
ஸபோர
போனை
கொடடும
வெர
தெறகா
வழததிய
##பபடுததல
சோலார
மைசூர
மிரடடு
எடையை
வெடடிக
விகனேஸவரன
மககாசசோ
திருபபோரூர
##மிக
##றறுககும
தொடரபபடட
அமமுக
சேவா
சடடத
பெறறிருகக
படிபபுகள
ஆடகளை
எடுததுககொணட
நிரவாகததிடம
குடிபோதையில
கடிதஙகள
பணிகளுககாக
உணணாவிரதப
ஒடடுமொததமாக
நாளிதழில
அவுஸதிரேலிய
##ோசி
வெட
##றபோல
##காபபு
அரசுடன
கடடபபடும
செயதனா
எலலாப
கரண
மெஷின
நாயர
பொருளாதாரததில
வேணடாமா
டேடடா
செயலபடுகினறன
புறககணிதது
இனஸடாகிராம
டியூ
##பபறறு
##டைவில
மறறவரகளை
அலெகஸ
வெளிநட
வைககலாம
தனனமபிககை
புகைய
எரிசகதி
அறிவிககபபடடு
இநநூல
முனனேறறக
விறபனையாக
ஆலோசிதது
லிமிட
திராடசை
ரகுமான
தரவரிசை
நெறற
விடுபபு
சொனனா
யோசன
யுக
வடடும
##ராமன
##ுமே
##றபநது
##விலை
சிறபபம
கலிபோர
நேரமாக
நிரவ
வாஙகித
வாககுச
##மபிள
கையொ
வெளியாகின
கைலாச
முதலாளிததுவ
பயணியர
உசிலமபடடி
ஏழுமலையான
வெநத
வழியினறி
##ிடடா
துளள
வாகனஙகளின
சாதனஙகள
அபபோதே
சுபபையா
ஆடும
##மபாககததில
கூடடாக
வநதுவிடும
##ியாறு
அனுபபபபடடுளளது
ஆடடோம
சூரய
கொலலபபடடார
திருததச
சுரேஷகுமார
போடுவது
முனிவர
இடுபபு
கமபு
முலை
##சிகி
காபபி
அதிபரகள
தமமுடைய
பித
மணிவணணன
இருபபின
கடலூரில
நபிகள
விதயாச
செயதிககுறிபபு
இழிவு
ஹெட
##உளளது
##விதி
தேஜ
சுகுமார
அறிவை
இபபணி
நெதர
உலகெஙகும
பிடிததுளளது
இழநதது
ரகசியம
அறிவுறுததல
பாரதிதாசன
மெழுகு
எவன
ஐஏ
சலம
##னான
பிரதப
மாநிலஙகளின
இருபபதறகு
பழகிய
இணைபபை
அணமை
##பபரேஷன
##ாகுளம
பெருககெ
உறுதுணையாக
சிததராமையா
இடர
##சரம
##செகஸ
##ினமை
##ளளேயே
##வுத
கொசசி
தேவராஜ
படஙகளும
இருநதோம
டிப
மொய
தாககபபடட
முழுவதையும
கேடடுககொணடு
ஆழம
ஏரிகள
திலப
காஜல
##ிதி
நானதான
கடடபபடடுளள
கூடடணியை
சொலலபபடும
அடுததபடியாக
அழகி
காதலர
மகிழசசியில
ஓயவெ
முழுமை
ஐரோபபா
நெரிசலை
உரையாறற
சொலலியிருககிறார
கயிற
சபர
டிய
வதிகள
வருவோர
முதலவரகள
எனபதாகும
சமமான
செலலவும
இறுதிககுள
எனபவரது
கொணடிருநதேன
அதிகமானோர
ஆஸதிரேலியாவில
முடிததுவிடடு
சவாலாக
வாககெடு
புடவை
ஏகாதிபததிய
அசிஙக
டாம
##டெ
பெதத
பேரவைத
சாரலஸ
காணொளி
கொளவதாக
அணணாநகர
உடகாரநத
##ராயடு
ஆபரேஷன
ஸரவிலலிபுததூர
உஷார
பவி
மடிய
##டராக
பினனி
அருகாமையில
மாறறபபடடு
போனேன
கொணடிருநதபோது
புகழநது
##ையொனற
##சபாவில
ரிஷி
##ஒரு
##வுப
செயததால
காஞச
அபபெண
முனையில
##லிலும
மாறறபபடடது
காலநடைகள
தலையடு
உடனபடிகக
ஹசாரே
லோடு
##மபலம
முதலவரை
முதலாளிகள
கிடைபபது
இருபபதிலலை
##ககினறார
##பபோனால
##தினால
அடகு
மடகும
அதிகமாகும
உறசவ
குழாயில
சிககலான
பொறுபபேறக
சுபபிரமணியம
முறறாக
திருநாவுககரசர
பிரசாநத
அபபு
திலல
தபபிய
ரஞசன
செயதான
கூரம
வாககிய
##ஙகுபபம
மேலிட
முனனிறு
கொளளளவு
எலலார
விடுகினறன
பதிவுகளை
பாதிபபடை
இநநிகழவில
சிரியாவில
பிரமமோறச
புவியியல
நடபபாணடு
மாதவிடாய
##யார
வேநதர
##ுவதை
பளளிகளின
மாநிலஙகளிலும
##போடடு
இருபபிட
படைதது
நிறுவனமும
வகைகளில
நுழைவாயில
குணடுகள
செயலபடுததபபடும
பநதலுார
காறறாலை
மாமனார
சஙகு
தொடடிகள
##ிககபபடடு
அதவானி
காசோலை
பயமுறு
சடடததுககு
வாரமாக
##தேசச
சூன
இனஜி
தொலைததொடரபு
வாயபபுளளதாக
அவருககுப
ஏராளம
உணணும
வளளுவர
நிதின
லலித
சாடடு
##பிரி
##றபடட
வரபபடடது
நிவரததி
நாளடைவில
##ஙகளுககுப
முகநூல
மேறகொணடிரு
##பாரதி
கருததுத
கழிபபிடம
கணணதாசன
பெறறோருககு
ஆதாரஙகளை
தியாகராஜ
கருததரஙகில
##மாவடட
##ாளு
பிரேக
அபபகு
##பபிலிருநது
விடுவோம
எடுககபபடவிலலை
##ஸடார
##பபோடடியில
போககுவரததை
கிருஷணசாமி
தருமாறு
விறகபபடுகிறது
வருகினறார
உசேன
##ககோடு
ஒருவித
பிரஜ
அணுசகதி
பிடிககவிலலை
மூழகிய
வெலலும
போனாலும
துபாயில
வேணடுமெனறே
சகர
பதாக
பைப
##பபரு
நிலசசரி
சேரதத
##ினைக
பூடடை
பணிமனை
மனிதவள
வேணடியிருககிறது
அலுவலகததின
பொருடகளும
எணணஙகள
தணடனையும
ஆரவமாக
ஜாமனில
##கிறரகளா
ஸவாமி
ஒபபிடுகையில
திவயா
மகளுககு
##கலா
##ெணடு
கோடு
அவவாறே
கிரன
வாரஙகளாக
ரோஸ
இயககுனராக
சைல
சிபிசிஐ
மூணாறு
##ககொருவர
தேரர
திபெ
##பிஷேகம
##கொல
கழககரை
கிராமததின
##பபதையும
கூடுதலான
வகிககிறது
ராசியில
கடடடததை
சாபபிடலாம
அனுபவததை
தனிததனி
கருணாக
ஆககபபடட
கஸ
தேதியை
கலபபு
பரிணாம
பாடும
அசாதார
வருடததிறகு
வெளியாகிய
சமபளததை
சாமபியனஷிப
பிறபடுததபபடடோர
துஷபிர
களி
##ாததை
##ானனு
பயனர
சிறபபி
எதிரானது
##ருககுப
மிகத
வாரஙகள
நுஙக
கிடைககுமா
சுமதி
பினனாளில
எஙகிருநது
சுவரில
##சங
இருஙகள
##தலின
பிரத
பாரவ
##ாருககான
சாரஜ
##விடவும
ஆலையில
##ககோல
இயககபபடுகினறன
கபபலகள
ஆணைககுழுவின
எனபதனை
ஏறபடுகினறன
##டிககொணடு
##சாமியை
தெளிவுபடுதத
முஹமமது
நாறபது
ஆககி
செயகிற
வெசசு
வாாடு
நாளனறு
மனிதனுககு
உடலகள
பெறவும
தாயமாரகள
தொழிறசாலையில
வசனஙகள
உளுநது
மனமுடைநத
கோஹலி
##துடன
##னனே
கலப
பாடததில
நலத
சுவாசி
செயறபடடு
பெணணாக
கைபபறறியது
அஸஸ
##ிககிறாரகள
உததியோகதத
வலலுநரகள
அஙககரிககபபடட
வழிபடடனர
அதறகேறப
அபடேட
ஐபோன
பையில
ரிஸ
##பபடடவரகள
பாரததான
எதிரகொணட
திவாக
கைவினை
##வெழு
பாலககாடு
ஜெயின
வேறுபடட
திருமபிப
சாதம
பேசசில
தஞசாவ
தியாகம
அகிலேஷ
உரையாறறினார
நுழையும
ஊடகவியலாளரகள
படடதாரிகள
உததி
ஒணணு
சவாரி
வு
##ததளம
கலால
##காஸ
வாரடுகள
##வானநதா
குடல
##லுககாக
திருமபினர
வடடிலும
இதறகுப
தனனிசச
நகராடசிககு
சிதற
இணடர
காலததுககு
செயலில
அருநதி
##பபோககில
நேரததிலும
தேரதலிலும
கைபபறறினர
உதிரி
பதினைநது
ஐடியா
##சசியார
காலியிட
அறிவால
கூறபபடுகினறது
உதவே
##ிததான
வேலைககுச
இணைததுக
துணைப
அதறகுரிய
எணணததில
வடடுக
##விடுகிறாரகள
கணிசமாக
பாவனை
வாலாஜ
தரபபாய
கூரநது
##நெறி
##ளைப
டிசைன
##கிடடு
பேசினோம
அமபததூர
ஒருமை
பதமந
குளிதது
ஆலைகள
துறைமுகததில
பதிவேறறம
வாரததையை
இபபிரசனை
வேதாரணயம
வெளிநடபபு
##ணையை
வரணி
அவவாறான
கலகல
கிருமி
கூடடாளிகள
ஸடவ
##ியானா
ஊராடசித
செயறபாடட
##பபூரவமான
ஜெடலி
அஹ
சிய
சறு
##நேரி
##சசது
வேறறும
வெறிய
இதைய
##டரஸ
பாரககிங
பாராயணம
சமசசர
கைககு
பொதுததேரவு
வசதியில
அறைககுள
படிததேன
வடமதுரை
விசைபபடகு
எடுததுககாடடாக
காரபபரேட
ஆதன
##ஷனஸ
படடய
சாஸ
கடடுவதறகு
கொடுததுவிடடு
சாயநது
##செயயும
லிடடருககு
##செடடி
##விரோதம
ஹாரமோன
நேதாஜி
இவா
உஙகளைப
புகல
வருது
உததரபிரதேச
பேசினால
போககுவரததுககு
அசசிட
வரரான
தயாரிககபபடும
நமபிககையுடன
தூககிடடு
நாசா
கடமையா
சமஸகிரு
பலகலையில
சுறுசுறு
வதியை
##ிழை
அனைததுலக
அளிததும
வெளளிய
இலஙகையை
விபததுககள
அனுமதிககபபடடுளளார
பாதிபபுகளை
நிதியுத
எழுதுவது
நிமமதியாக
ஸகூல
முறியடி
திருவாடானை
அறபு
##ியாவை
##நதையில
விணம
##ாமம
##ாமர
##பபைச
கொடுததேன
பிலிபபை
சாகச
புகாரினபேரில
தடியடி
லாடடரி
ஸரம
செழ
காலாணடு
##நிலையம
திருவி
மககளதொகை
நாளே
மாநிலச
கிராமிய
பகுதியிலிருநது
குறறப
கோவிலின
விஜயகா
சினனசே
இநதியாவிலேயே
அயயபபன
ஆளுஙகடசி
கோலாகலமாக
ஸபெகடரம
ஏறறம
டவட
##ததரு
உளளுர
கலநதால
##பபடுவத
கிணடி
வநதாள
கைகொ
வாயை
தேவைககாக
கணணகி
தடைகள
கவரநத
மழையின
##செயயபபடட
அடடைகள
உறசாகமாக
ஏகாத
ஐயம
சிரு
##ிறாரகள
போலியான
அனவர
இறநதது
##பபுகளையும
உனது
விறபனையாளரகள
ரெயடு
கோடிககணககான
பாததிமா
ஊடடியில
ஓரம
சமைகக
வனனி
பெபரவரி
சமண
எடுககவும
சோலை
மைச
தனனமபிகக
சமாஜவாதி
மியானமர
துரியோத
##சசனை
தொடரசசியான
சேவைய
நிரவாகக
சாரதி
##பதிவு
தவிரமான
கெர
பிரசசனையை
பழிவா
உலு
டில
##றத
##ோவின
விவரி
##ேரியா
பிரஸ
கோபபு
பிதத
சமன
மாணப
விலலி
மலைபபகுதியில
அனனதான
##பபாலம
சுருககமாக
நநதினி
ஸடுடியோ
##பவரகளின
##ஷினி
செயவதும
வேடச
செலவை
நிரநதரம
நிகழததிய
பழனிய
அடைநதுளளது
பஙகேற
பெரமுன
அளிககவிலலை
சமபவஙகளை
பெறுகினறனர
விளைவுகளை
தனனைப
பகிரநத
அறிநதுகொளள
வாலிபால
காதர
அததியாய
பதிவாகி
செமமர
தோறகடி
ரமேக
காலதாமதம
சபபா
பருக
##ெடுபபு
##ாதிகக
##நதையாக
##சசித
##சசககர
அமைததல
அமைபபான
மனுததாககல
தராமல
##பிளளை
உணவாக
சாததூர
அளிபபதாக
##ததுபவர
உஙகளுககுத
வளளலார
அரவணை
பயனுளளதாக
நிரமாணி
மனிதாபிமான
ஊரகளில
##தலாம
புதல
தலைககு
தலைசிறநத
அவையில
தகாத
கோயிலை
ஆளாகி
நோயாள
விழாககள
மகனின
வாககுசசாவடி
##விடுவோம
பிரசனன
##கொளவது
பிரசசனைகளை
ஊககுவிகக
நெசவாளரகள
பொளளாசசியில
தெறகாசிய
லின
##ககரகள
ஆரணி
ஒனறையும
##கோல
மாநகரில
தேடிக
லைட
கலநதாய
ஒருவருககொருவர
ஐஏஎஸ
##ளனம
கொததம
அரைச
நாளைய
இவவா
நரவள
கணடதும
பொருளாதாரததை
வாஙகிச
பததிரிகைகள
கலவியியல
பிரானசிஸ
மதுராநதகம
மிலல
##றஙக
##ஙகிற
##ாவதறகு
சிபக
கூடார
களும
அளவிலும
சகதியாக
திருமபவிலலை
அனுபபபபடும
புரடடா
அககறைய
அனபான
##ாபிஷேகம
வாககளி
விணகல
லாரிகளில
நாசம
சுடடிககாடடினார
புஷபா
பிரதிநிதிததுவ
நககும
பைகள
ரபபர
##வாணி
எஸசி
மாறறமும
##பேட
தொடரபாகவும
தஙகவேல
ஆழமாக
##ேடலி
##தததோடு
முதனமுதலாக
சஙககிரி
உளைசசல
ரதன
##ுரை
##ளளான
கோழிகக
தேககம
வேணடுமே
படததைப
கொணடுளளன
நகரமனற
நிலைகளில
##நகரம
பாகஙகள
ஆணடிறகான
சொலவத
மாணவியின
காபபாறறி
கருதுகிறேன
சுலபமாக
வளிமணடல
##தகக
முதலுதவி
மனனரகள
தரவாக
##ததிருககலாம
உயிரகள
மனைவியுடன
மிசசம
வெளியிடடுளளனர
அனுபபிவை
வெலலம
அமலில
கருததுககு
செலவாகும
##லகார
##ததிறகுச
அடிததள
எபபவும
கூறியதாக
கலைக
தனிமனித
ஈடுபடடிருநதனர
தொகுதிகளைக
பரிசளிபபு
இயலவிலலை
சிரேஷட
லாரனஸ
உரையாறறு
கொடூரமாக
கஞசி
##ஜியின
பெருககு
எனறது
முனனணியில
மணிவரை
##வெள
பொதுககூடடததில
மினவெடடு
ஓராணட
சைதா
அனுமதிககபபடடுளளனர
செனசெகஸ
இனஸபெகடரகள
இலைகள
பதவியிலிருநது
லாவ
##ெடுபப
##சசநதிர
##ிககா
வழதத
மறறர
##வினறி
ரயிலை
குறிபபிடடிருநதார
கேடகவிலலை
கணகாடசியை
ரவுணட
வரவழைதது
அசோககுமார
ஓவரகள
##ிருநதான
##விடடாள
நெறப
அதிகரிககிறது
டிரஸட
வழககறிஞ
##ாறன
கசிவு
எழுநதருளி
துாயமை
திய
துமப
##பபிற
##ையாத
காடுகள
எனறதும
பலரை
##டடிவ
அநதமான
##வனததில
முடிததுக
மருநதை
பொருதது
உயரதர
லடசததில
வெளிபபாடு
தேசியப
மருததுவமனையின
கேடடுககொணடார
பாதர
அமெரிககாவுககு
சிகிசசைப
விரோதமாக
வேடடையாட
லிமிடெட
அககால
##ஷத
தேநர
நிலததின
##காது
காரல
பரிகார
அறிவிததுளளனர
இதறகுக
மகளகள
இணையததள
அபிந
கொணடிருநதான
சததஸகர
இரடடையர
தடி
##ொடடி
குவா
பேணி
எனபவரும
##ாககை
##ாமலேயே
எழுதிக
##வெடடி
##ேயா
வெறறிப
இபபடிப
காடடியது
##பபாளராக
மேறகொணடுளள
ஏறபடுவது
##கிறதோ
நிலவேமபு
மேலுார
பூணடி
தொழிலகள
##ெனவும
வயதை
தூஙகி
கேடடதும
திமுகவினர
பிரிவுகளின
எதிரபபுத
பததிரிகையில
##சாகர
##ஙகுறி
அநதியூர
இலலையோ
பலகலைகழ
சநதேகததின
##பினனர
காடடுமனனார
கவலைய
விசைததறி
ஓடியது
ரவநதிர
எதிரொலியாக
ஆததிர
ஆசசார
ஏது
##டையை
##ரோடு
##ிராய
செது
குறிககிறது
சேரம
மாவடடததிறகு
முடியாதது
பூபதி
போடடார
மொபை
லடசததுககும
செயதிததாள
அனுபபபபடட
தொடஙகின
ரதியாகவும
வேறுபாடுகள
எடுததுககாடடு
லகனோ
சிறுவயதில
ஒரி
ஒடுககும
ஓஙகி
##பூரில
##மபே
மாவடடஙகளை
கூறவிலலை
##வியா
சநதப
கரடி
பிரிவை
வேணடியிருநதது
மிது
மிசச
தஙகப
முஸலிமகளின
இயககுநராக
செலுததபபடடது
தொடககப
வறடசியால
செஙகோடடை
வரண
மறறுமொரு
தெரிநதால
மனுவ
##லாநதின
எநதச
பணியும
ஒதுககு
மதததின
திணறி
துலலியமாக
கஞச
டொல
##முய
ஏறபாடடில
##கைகள
##சசிககு
##சேகா
குமபகோ
தெனகொர
முததுசாமி
##ததூள
##ையடி
புளி
##லிஸ
சேரககபபடடார
இநதியர
வநதிருககும
வசதியுடன
இறஙகும
எடுததுளளார
வலய
பிரதமரை
சாமிநாதன
தொறறுநோய
பாணடே
தொழிலதிபரகள
ஊததுககோடடை
##பபிறகாக
##ாயண
பலவகை
போலியோ
உயரதது
வெளிவநது
பணியிடம
##ககினறோம
பெயருககு
##ககெடு
கொடுததுளளது
வேளசசேரி
நிமிஷ
நடைமுறைகள
முறையடு
ராகவன
அடரநத
நெஞசில
லேசாக
நடடிபபு
ஆசார
ஹெகட
தலைவருககு
பிநத
கேமப
##சாரநத
மனத
தரக
கடடம
பணததில
முறைககு
கேரட
தொடஙகுவ
கிணறறு
ஆதஙக
அவவளவுதான
##நாயககனபடடி
செயதிககுறிபபில
##தததையும
நடும
சிவம
வைகுணட
வழஙகபபடடுளளன
சாரல
நரஸ
அறிவிககும
ஸடூ
மலைப
இயறகையான
வருமானததை
நிரணயிதது
மலலையா
##பபூரவமாக
சததியமூரததி
ஒனபதாம
உலலாச
ஷாட
##வளம
செயததை
அதிநவன
சிவராஜ
அடிப
நிகழநதது
ஜனவரியில
தொகுதிகளை
தொகுதியின
டிவிஷன
வணணார
இடமபெறறுளளன
அவசியமான
ஒளிபரபப
கிரிககட
இஙகிலாநதின
பாககெட
திருககலயாண
குணடுவெடிபபு
பாகடரியா
சவூதி
அஹம
ஸடப
##ககததின
##விழி
##சசிகர
##சுகி
அமைததுக
பிஹார
காரகளை
நுவர
குறள
முனனதாகவே
அவதாரம
நிதயான
ஏலககாய
ஆடசேப
திருநஙகைகள
##ததுறையை
முநதிரி
##சிகள
##ாவான
##ாடடிய
அடிமையாக
மரததை
முகமை
விடபபடடுளளது
வெறறிவேல
அவசியமிலலை
விலலியன
பஙகேறகினறனர
வழஙகுவதாக
அனுபவஙகள
சோகததை
சிலலரை
சுதாகர
கருணாகரன
ததது
ஹேர
##செனட
##அத
##டிவ
கிடைததன
மூலவருககு
உருவாககபபடடுளளது
காஞசிபுரததில
அனறே
குறறசசாடடுகளை
இடமபெறறுளள
புஷப
##ிககொணடிருநத
வணடியை
செவிலியரகள
##விடப
செயவதன
போறறு
அமைபபும
காரடுகள
நிரபபி
##கொட
வாரனர
விடுதிகள
ஆளான
##ியுளளதாகவும
வாககுவாதததில
அனுபபியது
திரைபபடததை
உறுபபினரும
பராமரிதது
உருவாகிறது
திறநதவெளி
சடலமாக
ஆடடமிழநதார
தொகையாக
கிரணபே
கபபர
##விலிருநது
பலமான
##ிருநதா
##ககூடம
இனறியம
அமைபபுகளும
போலஸாருககு
ஆகியவறறுககு
நமமில
அலைநது
ஒரேய
இருமுறை
நாயகியாக
ஆணி
யூக
##மபடி
##மாககு
சாரதா
##சனின
கழறறி
போராடடஙகளில
வெளளபபெருககு
ஏரடெல
வரததகததில
சிகிசசைகள
முயறசியால
வெளியுறவுத
வசுகிறது
விறுவிறுபபாக
பாரததசாரதி
அவாகள
##கடை
##எனப
##ஷடர
அனிருத
சமமாக
கூடடததின
நாடும
பிறகாலததில
##களினபடி
சதயராஜ
ஆணகளின
எளிதான
சலசல
கதிரவன
ஜபபானில
வெயிலின
தாமிரபரணி
ஒணணும
##ிச
##ரகளையும
பகுதிய
வழஙகியுளளார
முடிசசு
கடடபபடடுளளது
அனுதாப
கடசிகளை
வடடததில
##ாகிவிடடது
அனுபபியுளளது
அலைகள
ஓவியா
கையெழுததிடட
ஆடைகளை
திகழும
வசசில
##சசெலவி
வியாபாரததில
காணிககை
போடடியிடுகிறார
கிரிமினல
பிரமி
செயயககூடிய
சடடெனறு
சிறபபுக
மாதமும
தருகிறார
ரிசசர
செலவழி
இததிடடததில
சிறிலஙக
தாராளமாக
சடடததரணி
முளளிவாயககால
புரடடாசி
மகக
மேர
##தநதிர
##சாஸ
பிரவன
##னாலும
படையில
ஆகியும
போரை
கொளளு
நரபப
கடசியாக
கொடுககபபடடுளளது
சமபவஙகளில
ஆடடததின
##விடுவேன
ஜானகி
பஜனை
நறசெய
ஈடடி
##தவு
##ானின
##ததுககள
குநத
தொன
தாஙகிய
##ததிருககிறேன
கோவிலகள
பஸஸட
அமரவில
மாகாணததின
திருநஙகை
புகழேநதி
வலலமை
வாழததுகள
படடமளிபபு
இககிராம
குழுமததின
அவமதிபபு
சிததாரத
சகி
பிரு
ராடச
கிரா
பூஞச
இவவகை
##போட
சூளை
உளவாஙக
கணடேன
காஙகிரஸின
பருவநிலை
முறைகேடாக
விமரசனஙகளை
ஜனாதிபதியாக
பெருகும
சாபடவேர
துாததுககுடி
ஸபோரடஸ
கொடுததும
##டியம
ஆயவாள
அலெக
கடடஙகளாக
ராஜேஸவரி
பதிலுககு
சூழநத
ஓரளவுககு
##வுடனான
பாதிபபுககு
சிரமததிறகு
திடடமிடடுளளனர
உலகககோபபை
கஙகுலி
வேலுமணி
##பாடடை
##ிலேயே
##ததப
முதலாளி
##ளிததுளளது
காலபபோககில
கேஜரிவால
திருககழ
##ோமா
மருது
##காரட
நிரவாண
##விடடதாகவும
##பாணட
வேலைகளில
நமபக
கெடடு
மாவடடததிலுளள
##நோககி
கிறிதத
அனபை
##செலவன
##பொருடகள
அணிவகுபபு
நிதானமாக
##ஞசியில
##ாவாரி
##தலாக
##பபடடின
செலவர
கொணடாள
##ததிருவிழா
கமமா
கமலா
##ெலியா
அககமப
அனுமதிககபபடடனர
குளிரநத
நளினி
ருதர
அவறறைப
ஏடடு
##ளளாக
##ரியாத
##ததியர
தவறை
திடடப
செனறாலும
இவரிடம
ஈரபப
ஒதுஙகி
பைககை
குமபலை
சுயநல
மேறகூரை
நிரணயிககபபடட
தாககியதில
ஜெயராம
தடையாக
கறிவேபபில
லயனஸ
பாரபடசம
இறுதிககடட
பிரதோஷ
ஃபோர
மைக
##எச
##பபவன
##ுவல
புததகக
கடககும
பிரகாரம
எனபார
ஆகாய
##திலல
##வியலில
சமபிர
சூததிர
விடுகிறாரகள
தெரிவிககலாம
##ேஷனல
##பிரகாஷ
பாமபன
கவுணட
வலியுறுததியும
மனனாரகுடி
##ககுழநத
தடசிணாமூரததி
புரோகிராம
சரவாதிகார
ஓலை
##டசியில
##ுதம
##றினார
##தததும
##வரததன
மாவரர
##ணடுல
கூழ
செலலபபடடு
போனறது
தூத
யாரிடமும
மறுபுறம
கலைகக
தாயை
நாயககர
புராணம
##விடுகினறன
##வநதான
தொடரபிலான
தாரை
இததிடடததை
வதநத
ஆபபிரிககா
சொறபொழி
ஒளிபபதிவாளர
யுவன
##தெய
பகுதத
கருதிய
நடிததிருககிறார
தெரியவரும
விடுபட
திருபபததூர
மூலதன
##சசெயலர
சமுதாயததில
வளைதது
அமிதாப
காபபக
அசாதாரண
திருககழுககு
கதது
##டடாஙக
சநதான
பாதிககபபடுகினறனர
சிககிக
தாமோ
எரிதது
சுமநதிரன
ஏழாவது
மலையாளததில
முனமொழி
அணுகுமு
வரவேறறனர
சிபாரி
ஏறும
##ததனறு
##ாவன
##ேனி
கூறினேன
சிலவறறை
சொலலபபடட
ஒனறிறகு
விடககூடாது
சுறறுககு
ஆணடிறகு
நிகழசசியும
புரடடி
அசோகன
ஊருககுள
நாலவர
தோறகடிகக
பயனபெற
டிஜிபி
டச
ஷாக
##றியில
முககால
கொலு
##மபூ
ஒருததர
இதையே
தனிய
போரக
பரநது
ராமநாதன
கடசியான
வடாக
அணியுடன
##மையையும
பாரவையறற
இசையை
பிறநதநாளை
எதறகும
கததியை
எடடிய
சுனன
அவசரம
##ாககின
சமகால
##காரரகள
நிகழநது
விடடதாகவும
அருந
போயி
அருகிலேயே
உணடாககும
தெனனிநத
பானு
பிளளைகளுககு
தேவையிலலாத
கடுகு
மைகரோச
பாலசுபபிரமணியன
பினராயி
அபபடட
அததை
தஙகக
லாட
ஹென
##கிட
##நதவரகள
##ிகளுடன
##ாடுகள
பெறறதாக
கடசிககும
போராடடககாரரகள
எதிரபாரபபை
ஈடுபடடதாக
தஙகராஜ
அதிகமாகி
பணணு
பாரவையிடடனர
விததியாசமாக
##ுககென
சிறுவனை
அமிலம
ஆவலுடன
முனனோரகள
நிமிரநது
பாதுகாவல
கமுதி
இனனை
ஊறறு
எழுவ
கவச
கணடிரு
##டடையும
குணா
பிரதாப
பாபபா
##மாககும
போரககுறற
அடிபடடு
கோரு
வயலில
பகவத
அணையிலிருநது
##எஸஎஸ
இயலப
பரிசுதத
வளைகுடா
ஈடுபடுகினறனர
முலலைப
அறிககைகள
அவுஸதிரேலியா
சுககிரன
ஒவவொருவருககும
ஃபோ
ஹோல
வழு
அமைபபதறகு
எனபவருககும
சரகா
திடடி
கூடடஙகளில
செனறோம
எலலையை
##விடாது
உறஙக
அதறகுக
மிஷ
வேலைய
மேறகொளளபபடடுளளது
கரநாடகம
பாதிககபபடடவரகளுககு
கவலைபபட
அடடவண
துனபம
சோசலிச
அபே
அடுககி
இடியுடன
ஊதத
##ஙகூர
தரவரிசையில
பதிவிடட
முழககம
##பாரம
விடுதலைச
மலைவாழ
கணவரின
முதனம
புறபபடடுச
நெடடிசனகள
எதன
டேர
##னிக
##பபடடவர
##ிககே
பாரககிறேன
வைகாசி
அலு
தோவு
காயநது
வஙகிகளின
சுவாமிநாதன
அழிககும
பயணததின
கிளமபிய
குறிபபிடுகிறார
சிபிசிஐடி
இடட
பம
##ஜு
##ிலால
##டிஸ
படததுல
போரட
திறமப
அடையாளமாக
அரிசியை
நியூஸில
நிரவாகிகளை
ஜாரககணட
பிரேமதாச
உறுபபினரகளைத
குறுமபட
பேரறிவாளன
காலவரையறற
##விதத
##பபடுவதும
புகாரகளை
ரோல
பாதிபபுககுளள
சிஙகார
நைட
தோளில
நடராஜர
திருநாவுககரசு
தேவேநதிர
நரும
பும
##தயா
##ாபு
தலைவரகளுககு
நேரநதது
நிரவா
போடடது
செனறன
மனிதரகளுககு
பெறபபடடது
##தியாகும
இமயம
##யினஸ
காரியஙகள
சுழறபநது
பாரதிராஜா
##வசசு
முடடி
மேள
சுடர
எனபர
அவரகளைக
வயசு
கலலறை
இபபோதுதான
பாரககவும
தெருககள
ஏறறுககொணடு
பிரதிபல
##வேலியில
செயறபடட
செலவகுமார
குடுமபததினருடன
பாகுபாடு
பைய
##லியா
##சமுததிரம
##பபததில
விடக
மேகஸ
##ககிறதா
##ிதர
##ஙகளுககுள
பாதுகாபபில
##டுபவரகள
கொணடிருககிறோம
தாககியது
சிறுபானம
இயககஙகள
எவவாற
வஙகதேசம
##ததுளளோம
அறிமுகமாக
காததிருககினறனர
சினனசேலம
ஐநா
ஜுன
##ககுல
##ககுடிய
அரஙகு
மனவரகளுககு
தவிரககும
மெனமையான
தஙகளிடம
எணணததை
அமபானி
கனனடம
சிவகாமி
அடடையை
திருவணணாமல
தினததையொடடி
விசிததிர
ஆரு
வுடன
##ோச
##ினட
முடுககி
##ாவணி
##ிடடான
அவறறுககு
##ையினபோது
இருககணும
தவிரவா
உயிரதத
##பபெருமான
இணஙக
இறுதிச
திருமணததுககு
திறநதுவிட
ஹேம
உததிரமேரூர
நதியை
தேககி
பலவிதமான
##ாடடா
பாரவையை
அரசுகளின
தாறும
பொதுககூடட
தொடாபாக
நிறுவனததிடம
##ையமமன
பெருமூ
வழிசசாலை
மூலையில
தளஙகள
ஓடடஙகளை
சாமராஜ
சாமசங
##நோயாளிகள
முதலமைசசராக
கிடடும
மாலிக
தடடிக
தடையினறி
கையகபபடுதத
ஆமா
##ேறற
தேவா
செயயககூடாது
பெருமிதம
யாரிடம
வலைய
தயாராகும
நிறைவேறும
இலலாதவரகள
தரவுகளை
தேரநதெடுககினறனர
எழுபபியுளளார
வலுவாக
புறமபோககு
முதனமுதலில
சுஜாதா
பிரேரணை
வரதடசணை
ஜேடலி
##மரம
##வநதனர
##எனறு
வெணணெய
வருமா
வாரணா
பணமும
போககுவரததுத
##ககொளளலாம
சோதனைகள
தொகைககு
##பபதைப
ஸடேஷனுககு
கணடறியும
ஒலிகக
பயனபெறும
ஆவேசம
அதிவேக
லும
##நலக
விடைய
இதுககு
வழஙகாமல
கைரே
படிவம
காவிய
உளகடடமைபபு
புறபபாடு
மேறகொளளபபட
நிறைவேறறும
##ெனறே
அணைகள
மொழியின
வடியோககள
பணணிய
ஆரமபிததேன
கொடூரமான
##சசொலல
உருளைககிழ
##சிகிசசை
தணடி
##டடியின
##சசொல
காலசியம
அறிவ
அபபலலோ
தோஷ
இனவாத
##பபதுதான
அனுமதியை
காயநத
கெஙக
தேரவுத
ஜனத
##ததாககுதல
##கடடததில
நடைபெறுகினறன
வேகததை
காநதியை
இவவழககில
மருமகள
புழககததில
உணவகம
ஊறு
தசர
ஸபை
##மென
##ககுடியில
கடையின
சிசு
செனறதால
தெரியல
நிரவாகததை
குறிபபிடும
அரசாஙகததிறகு
வஙகிககு
சுமூக
மூனறாணடு
உருவாககினார
கருணாநிதிககு
மிகபபெரும
காளியமமன
##ததோபபு
ஒடுககபபடட
##ினன
வழியை
பலததை
##லிடடு
அகபர
செனறுவிடடார
இறஙகு
##நதரா
தேவைபபடடால
மானுட
ஆசிரியரகளும
படடுககோடடை
தமபிதுரை
தாகூர
##சாலி
வரபபன
##ாடடும
கைகோர
##குமாரி
மாநிலமாக
அழைததார
ஏனோ
பயணிதது
காலததிலேயே
பனியன
குருவி
தரபபுககு
சுழற
ஜாமப
நிதயா
செமமொழி
லைசெனஸ
சமபிரதாய
களளி
##செட
##பபதிலும
கோகுல
தேவரகள
துகக
காலதது
##ாககபபடட
##மாறறம
##னிஸ
பரவச
##ிரியின
அகதி
எனவேதான
##வாலா
##ககழக
உருவாககபபடும
வாழககைககு
கொணடிருநதாரகள
இராணுவத
தைபபூ
தெயவக
சாடசியம
தனனாரவல
உணடியல
எதிரமறை
ஃபே
ரஜ
திரவிய
இருககுமா
பாடஙகளை
கலநதுகொள
நதிமனறததை
##பபெணண
வடிவததில
ஆணையததில
மூடபபடட
உடபடடதாகும
படபபிடிபபில
இதுதொடரபான
##லலிககே
ஏரியின
நாசர
இனனிஙஸ
சாஸதிரி
சமமேளன
ஹிஸ
செலவழ
மதுசூ
எனபதுடன
இருபபதாகக
வாயநதது
பயனபடு
ஊரான
காரணமாகும
சாமர
##ககொணடேன
ஒழுககம
விவாதததில
சலுகைகளை
மகாலிஙகம
##ாதிரியான
இருந
வாணிய
துணிய
##காசியில
##ோகஸ
நிறுவனததுடன
டெகஸ
இளையோர
##ஷடிர
சாமபார
##ளிககபபடடது
தனனைத
பணியாளரகளை
தபபிதது
பிரமமா
குறைபாடுகள
ஜெயராஜ
மதிககததகக
கொபபரை
இமான
உகரை
##ாலததில
பாணடு
அமலா
தூணடிய
வரிகளை
அவைகள
இயறகையின
ஆசியா
புறககணிகக
தைரியமாக
பலியாகி
தானியஙகி
ஜிபமர
##ததரும
##பபயிறசி
பேரழி
தினமான
தேசியம
சுறறுச
இசசெய
நடிகையாக
நளமான
##ாறாக
சிமெணட
ஹரஷ
கருபபசாமி
ஓரிட
மதில
##பபாளையததில
##ாமிகள
சுச
கலஙக
கூறபபடடு
அகஷய
##ககோழி
டெகன
கணடார
வனமுறையில
தாயும
மாகாணம
நபரின
ஆரோககியமாக
ஒழிய
ஐசிசி
ஏஞச
ஐத
##பபக
##நதாலும
##வரான
##பபுரம
##ிடடாஙக
பொககி
குறிபபி
வநதிருநதனர
செலவாக
போரககள
நிரவாகததில
அழைததுக
சுறறுலாத
வேலூரில
எரிமலை
மனைவியிடம
கூடுவா
வழிவகுககும
வைபவம
கோவிநதன
துயரம
நெலலிககுபபம
அஙகா
ளது
மேலை
இதுல
இராச
கொணடனா
மதுபாடடில
வரைநது
ராஜகோ
உளநோ
தாயகம
இளமை
பாரததோம
பணணுவ
ரததததில
அசோசிய
விவாதஙகள
கமபெனியில
விபததுககுளளான
##ளளம
மாயா
##சியல
காததுக
தெரிஞச
சடடஙகளை
செலலபபடடது
கொளவன
காரணஙகளை
கேடடாள
மைதரி
மொழிய
முததுராம
மலலிகை
##ககோர
##ககணணன
கூணடு
வரிய
செயயுமபடி
கேநதிர
அலஙகா
நகரததின
கிராமப
பரமததி
முதுகில
இடிபாடு
தேனியில
ஆதாயம
அவசியமாகும
சானறுகள
##ெடிட
வாலபாறையில
திருபபுவனம
சகோதரிகள
சுவாரசிய
பழுதடைநத
சஞ
ஹெக
##படடில
##ானநத
எனகினற
அவரகளுககான
விசாரிககும
அமைசசரகளும
பாடஙகள
அவனும
பதிலளி
அதிகரிதத
ஆபததை
திருவலலிககே
வணஙகு
முனபாகவே
மொழியாக
##படடுளளது
உழைதது
அறிவுறுததிய
ஏரிககு
##வேணடியது
பூமிககு
கிராமபபுறஙகளில
தலைமறைவான
இபராஹ
அகரம
##றோம
##சசலில
புததிர
தமிழுககு
முதலடுகள
படடேல
உளளிடடோா
##பபதாகக
##சலன
மூலிக
##ககூடியதாக
நிறுததிவிடடு
லேப
குபதா
மறைய
ஷரமா
##ுடி
##வறறின
##ொட
##னரை
பாபர
பாலததை
##ணடியன
ஸடெ
உலகததின
தாககரே
மனிதனை
விவசாயிகளும
தநதையும
வானியல
விலலனாக
நிதய
சசிகுமார
திருககோவிலுார
மலம
##கச
பெள
மாநாடடை
சரககர
வெளிபபடும
செயயபபடடதாக
விமானததின
போயக
##ஙகளினால
வகுபப
அவளிடம
தொகுதிகளுககு
விவகாரஙகள
பிரசாரததை
##நிறை
சடடசபைத
முடஙகி
வளைவு
கோபாலகிருஷணன
தாவரவியல
மொழிபெயரபபு
முரளிதரன
மேலமுறையடடு
ஒவவொனறும
டவர
மமம
ராட
##ெரு
##பறறிய
##வியு
##வரிடம
வாழபபாடி
தோபபு
போடடால
##நததா
வருவாயத
கணககுகள
விதைகளை
ஒபபநதஙகள
புளளிகளுடன
கருணாநிதியை
காபபகததில
விதிமறல
மடியில
##காடசி
ஆஙகிலேயர
##ளிப
சடடர
##வாயல
அரசியலவா
ஊழலை
களையும
கிடஙகு
##ுமிகு
கிழிதது
மானாவாரி
ஆறறலை
கஷடபபடடு
சுபரமணியம
##ிரதனம
இபபடியொரு
பைசா
மணிமேகலை
மிடட
##ஸதர
வரமப
தேதியும
நிறபது
இருநதாள
இவறறு
##போகும
உயா
இணைககபபடட
தாககுதலகளை
கவிஞரகள
கேடகிறார
மழையும
புரியாத
பிரசசினையில
மரககனறுகளை
பமன
ஹசன
##கடல
##ாகவோ
##ததுககொணடு
##சசடட
மாததது
கோமதி
சநதனம
##மாணிககம
நிஷ
செலலாத
விடுகிறார
ஆணகளும
வாகனஙகளும
##ுளளன
இவரகளிடம
புரிநதது
ஒனறியததின
குருககள
##முடிகிறது
இனனிஙஸில
ஜெயமோகன
##நிறுததம
போலஸகாரர
திடடவடடமாக
பிலிபபைனஸ
##றுதி
புஜ
காலமும
பிசச
திரவ
குறிததுப
எடுககபபட
கொளவார
சுவாதி
திமுகவில
குருதி
ஏறபடாத
டிசமபரில
ஏழைகள
மயிலம
கோபிநாத
பிறபபிததுளளது
திரையரஙகுகளில
சூறாவளி
ஜமன
##ஹித
இருபபோம
முககியததுவததை
சோன
பெரேரா
திரைககத
லோகபால
ரேணு
நிராகரிதது
அறககடடள
வாழவாதாரம
சுயேசசை
முடிவடைநதது
மாது
##ிருநதோம
எமமை
சாதத
யாரேனும
அபபோதும
விவசாயிகளிடம
காமிகஸ
பரிசுகளை
மசாஜ
டேஙக
ரஜினிககு
கடடணததில
ஒளிபரபபாக
தொழிறசஙகஙகள
அனரதத
பததாணடு
அதிசயம
விளககமறியலில
சிபகாட
##பபாளா
##டுஙக
##ணடாய
பேடி
கலகி
பரணி
நினைததுப
ஆகியோரிடம
காயஙகள
நூதன
பயனபடுததபபடடு
திருபபணி
சொனனதை
மொததமுளள
வைததிருககிறது
கறபிகக
முறபோ
முமமுர
நிரணயிககபபடடுளளது
ரசது
படடபபடிபபு
யிடம
குடம
பலியாய
சிஸட
தொடரபபடடது
விலககி
உளளிடடவறறை
மாரபு
தனிமையில
எழுதியிருககிறார
சிறிதும
அழிவு
தவறுகளை
அலஙகரிகக
ஆயுதப
##பபிரிவில
சுடடிககாடடி
பழுதான
சாயபாபா
லட
வஞசி
##ேபி
விதிகளின
##குழு
அவரகளைத
எழுகிறது
##வதுபோல
##ாபவே
நாளகளுககு
பழஙகளை
மினவிளககு
நுாறறு
விபததை
மருததுவககலலூரி
முயறசிதது
கையாளும
கமபிகள
ரொககம
பிகில
வைததியநாதன
சரமைதது
மகாராஷடிராவில
இழுபறி
கையொபபம
எஜ
##கடடு
##ிககில
பொடடா
அநதி
சமாதி
நரவழ
வெளிபபுற
கொணடிருநதன
திருமபத
வேளவி
வறணட
சிறுமிகள
சிறுவனின
பொறுமை
##வேஸ
##ோரம
##சுகள
கூறபபடடுளள
##லாமே
மிகை
##கொடுதது
மொட
உதவிப
விழுநததில
##விடுகிறார
உலகிறகு
##றிதழ
##பிளயூ
பநதய
கேபடனாக
##கொணடிருககும
துரிதமாக
யூரோ
குபபுசாமி
எரியும
நதியில
நறும
##பபகுதியை
மேலோ
நதிவான
நாடகளை
சஙகதா
##பபாகவும
##ததாககு
பெறறோரின
சதுரஙக
##கிரியில
##ததனமையை
பரிசலிகக
வினியோகிகக
கருவூல
டெனஷன
மதசசாரபறற
எஞசின
தபபிடிதது
பவள
பாளை
##ிகார
##வேதா
செயதுகொணடு
நானோ
நாளையும
விசாரிததார
பகதா
மறுவாழவு
சோள
##ாகிப
மூலககூறு
நெருககம
உரிமைச
விவரிகக
கதர
வடை
##பொழுது
##ஹாரம
##ாளியாக
புனி
பாணி
செனறுளளது
##விடடுப
ஏறபடடதாக
மணிரதனம
முயறசிகளில
உறுபபினருமான
காயமடைநது
வாசிததார
வாககுறுதிகளை
ஆபரண
சககரம
அரிவாளால
சுபபிரமணி
சிறறு
தரணா
இயஙகுகிறது
##மாஸ
இபபடியாக
##ேயின
செலலு
பாடப
பதவிகளை
அபளிக
வாழததுககளை
காலநடைகளுககு
வாககளிதது
சுடடிககாடடியுளளார
ஷாபபிங
நிரமல
நடுநிலைபபளளி
கனமழையால
வடடுமனை
கமமாபுரம
சஷடி
##சேக
##சுபபிரமணிய
##வாசன
தனலடசுமி
##பெய
பேரரசு
முடிநதால
##பபடுததினர
காணபது
வைததும
நடவடிககைகளுககு
திறககும
மதிபபை
##வதறகுள
##பபெடடி
போனதால
விசிற
கோலால
இதனபின
அனுபவஙகளை
தலைவாசல
கலலுாரிகளில
துாரவார
வெறறிபெற
கினனஸ
##பகுதி
##ஹோ
##ாருககு
அமைதியை
பயறு
அவரகளிடமிருநது
முடியல
தமிழகததைச
வளரமதி
அமைசசா
இதனாலதான
காணக
படிததால
வெளிபபடை
ஊராடசிககு
தடுககவும
ஏமாறறிய
ஜபபானிய
##சாலையின
இனஜினியர
செருபபு
ஆசசரய
உமது
வோ
##தனை
##ாசசு
##வேயிலலை
இதையும
சேரககபபடடு
எதிரததுப
விளாச
அழைபபித
வலையில
செயலாளரும
கொலைகள
கொடுததுளள
உசசம
ஓடடததில
அதனபேரில
ராணுவததில
தேரநதெடு
அலுவலரகளுககு
வைககபபடடன
மலலிகா
சிநதனைகள
மேறபாரவையில
தூதுவர
ஏஜென
இனடரநெட
ஆகரோ
களிம
##ாவதை
நடபபதால
தமனனா
பொழ
வநதிருகக
மடடுமிலலாமல
செயதன
நிலையிலதான
ஈடுபடடது
இரணடாமிடம
இருளில
பவனி
முறியடிகக
ஃபில
கயூ
டேக
##ிா
##ெனனை
##ழுமபு
##டுக
தொடுகக
அபபாவின
உடையில
உடகொளள
அடிககு
நலவாழவு
தடைகளை
ஒதுககிய
அவருககுத
இனறளவும
உளளடகக
ஸடாரட
தடுபபது
மேறபாரவை
காசநோய
பதிபபகம
டேனியல
அறபுதம
ஓகே
சாரு
##ூடடம
##வணண
##பபண
##ரகளிடம
##ாடாக
##மானவை
வைஷண
உடமபில
செனறடைய
நினைபபது
விடபபடட
இயககுநா
இழபபை
அனுபபியுளளார
பெறறோரை
மஹி
குளிரபான
முகாமைததுவ
பலியாயினர
எறிய
##ேடடில
##லூரில
##ினபடி
செநதமிழ
##குடம
##றபோது
அவதிய
பிமப
போலசுககு
தரததில
நாடகளும
அனுகூ
பரிசை
நினைககிற
ஆணகளை
பறறிச
பலரது
பலரின
இறுதிக
கறறுத
சினிமாவை
இளையராஜ
கோபததில
உழவு
முகவரிககு
வெளிவநதது
விரோதிகள
டேய
பலனை
முடியாததால
வாழகினறனர
இவவிட
சொலலப
பரிவார
ஸடா
பயனபடுததினால
தளததை
மாணவிகளை
தோலவியில
பெணணாடம
தரமம
அறிமுகபபடுததிய
எதிரககடசிய
பிரசாதம
உபயோகிகக
அருஙகாடசியகம
பதர
##பாகக
விவசாயததை
சூழநில
சூழநிலையை
சாலைகளை
புறவழி
பாரககவிலலை
எனபதாலும
இலககியப
சககரவரததி
அரஜூன
சௌநதர
எரண
முதலகடடமாக
கிஷோர
யம
##ஆய
கூசச
நிலா
தமிழசசெலவன
அமைபபதறகான
காலாவ
கூறினால
நடிபபது
##போஸ
சொலலித
தொடரு
##விடககூடாது
பிரசசன
நியமிதத
அனுபபபபடடது
சாமுவேல
பிரேமலதா
ஜூஸ
நடைபெறவிலலை
அபதுலக
##ிககிறேன
திணைககளததின
புரடசிகர
அதிருபதியில
அரேபிய
தனபாலு
பரிசலிதது
அருளமிகு
வனவிலஙகு
இனபபடுகொலை
வஞச
##றககு
##ககடி
##ககாகக
##வராய
செயவதிலலை
காணட
##ாடடேன
இரசாய
கருததிய
கிரெடிட
டிசை
உறுபபுகள
வகுதது
பைல
கடனகள
கடனகளை
பிரபலமாக
வழஙகுமாறு
நடததுகினறனர
படிககினறனர
##சூரிய
நெடுஞசாலைத
சமுதாயததின
ஒடடியுளள
துணையாக
துடுபபாடடககாரர
##ககுறைவு
தபபியோடிய
ஹிநத
##நதுளளனர
மாடடி
##சுப
பூசை
பகுதிககுள
கணணோடட
செனனையைச
ஆஸகர
கரநாடகததில
அரிமா
இமாம
மேறகொணடுளளது
பாமப
ரசிதது
ஏரியை
இருமல
ஹரியானா
கிரைணடர
மைகரோசாபட
ககளை
செயவர
பிராண
பேறு
வழஙகபபடடுளள
சிகன
சரிததிரம
நிறுததபபடடு
நூலின
தேரநதெடுககபபடடார
ரதனா
ஸரபெருமபுதூர
ஆஸபததிரிககு
நெறபயிர
##ணடுலகர
டபபிங
தமை
குலம
##சசால
போறறும
கொமபு
வழததினார
வருவதும
தொடரபும
##பபடுததவும
எடுததுககொள
பேசினேன
சோளம
சகதியும
பதவிககாலம
பெருவிழா
கிழககுப
கிடைககப
ஆலோசனைகளை
பிரதேசததின
திகில
##வழியே
ஒருஙகிணைநது
சபைககு
முடிநதவுடன
பருவமழ
அடியோடு
இலலாவிடடாலும
வலிமையான
புளளிவிவர
ஃபி
டவு
##பபாளி
விழை
##ரிப
##வேட
##வதாலும
வருவேன
##மானிய
##ததினாரகள
பாரடடி
இரககம
சாராய
ஜெயகாநதன
விஜயர
கேளுஙகள
சகாயம
அடிபபடையிலேயே
##பபாககததில
தொழிலநுடபததை
ஆளுனர
கிளைகள
சானறிதழகளை
##ததேரதலில
சதவதததை
அடைககலம
நரசிமமர
முகவரியில
விரிவுரையாளர
##ிழபபு
முதலாவதாக
தெரிஞசு
##டிககல
மககளுடன
அநதரஙக
கொணடோம
##ாசகதி
சொலலபபோனால
நதிமனறததுககு
மாணவிகளின
செயதிருககிறது
மாகாணஙகளில
குவிநத
நெருககடியில
சுறறிவளை
உலகமே
அமைநதிருககிறது
சணடையில
எணணிககையும
உதி
##ேநதர
##லாய
##கிறவரகள
##ிகிராம
##சியான
மணிததியால
திறககபபடடு
மருததுவமனையை
##ககினறாரகள
வடுகளின
##ைககுரிய
வடககே
அவைத
வைததிருககிறாரகள
வெஙகடாசலம
வருடமும
வெளிநாடுகளுககு
பெயதுளளது
காஙகிரசு
மாறறுததிறனாளி
பிராநதியததில
சசிகலாவின
சசிகலாவை
இஷ
நககிய
##ூதி
விகட
செயவோர
அரண
காறறை
வாஙகியது
பேபி
கலககும
முனஜ
திடடமும
தலைமைக
கூறியதை
குடியர
##ாணடர
ரஜினியை
செயதிருகக
யுன
சிததரி
காடடுமனனாரகோவில
ஆயர
ஆமபூர
##ிநது
கூபபிடட
உடநதையாக
தோஷம
நதிநர
பாலில
மினம
எடுககலாம
நினைவூ
காரணமாகவும
கவனததுககு
உடைகக
தவிபபு
ஆடடோககள
பஙகளா
உயரததபபடடுளளது
இலலையேல
வெறறிலை
நாகரிகம
ஆமப
ஆறகாடு
ஜங
##தனன
##தமபி
##வஙகளை
##பபாஙக
##சித
வரவும
எனறொரு
##ாககோ
அலைய
மகாம
இணைநதார
ஜெப
அவரைச
தாழவான
யாகசாலை
படுககையில
அதிவேகமாக
கூடைபபநது
சிறுபானமையின
டயல
படுததும
மணடி
##காடடி
##ாரநத
செநத
##வுணடர
அளவடு
பொருளியல
உணப
விலகும
பதிவானது
அழைபபை
மாறறபபடடுளளது
விருமபினார
##புரததைச
பொருததவரை
கொளளுமாறு
##நலலூரில
உறபததியாளர
கவனிததுக
கருபபையா
ஸகாட
ஸடைல
இசுலாம
ஃபல
அககாலததில
பஙகை
##ையையே
எனககே
##டைகினறனர
##ிடமாக
கடதது
தேவானநதா
பாககு
வாறு
பொடடு
துளி
சிலிர
நடிததால
##லாடி
பாலஸதன
##தாபி
எடுததுப
அமெரிககாவை
மாவடடததிலும
வேலையும
தளவாட
நிறுததபபடட
அமமாவுககு
யானையை
வெளியாகிறது
தயாரிககபபடடு
யூடிய
தாஙகளே
வாசகன
விஸவாசம
வனமுறைகள
அருமையாக
விடுதலைபபுலிகள
பழனியபபன
ஆமை
தாவது
##கருககு
##வப
##பபனை
##ுககுரிய
##களிலேயே
திருவு
காரபபரேஷன
கொணடன
பிடிசச
##பபோவது
குளோ
மாகாணசபை
##பபோரட
போதுமானதாக
ஏவி
##ககூர
கடனு
மேடு
##பபடக
நெடும
செனறவரகள
ஊரின
தூககிய
பிடிததுளளார
மேறபர
இஸமாய
முனைவோர
விசாரிததபோது
உமிழ
சிகிசசைய
புனரமைபபு
உறறு
உளளதை
##வேதி
##முல
செலகிறாரகள
கொளளவேணடும
முகில
துவை
##யாணி
##தியாகவும
அமைககவும
காமப
எரிநதது
வைததிருபபது
பிரசவம
##பபடுவதுடன
##ொழிய
வேடஙகளில
தரககதரி
ஸடிரைக
சவர
##லிய
நடநததாக
வழசசிய
பாரசல
மககளைக
##ேஷகம
ஏறகாடு
வாஙகினார
##ிருபபதும
##ுககாகவும
குவிநதனர
கழகத
அடடகாசம
நடைபாத
புவனகிரி
டூவலரில
தணடவாளததில
ஊரகளுககு
பிஷ
மனநலம
திருடரகள
நேச
கிடைததுளள
எபபோ
கொணடிருககினறனர
பணியமர
திருவதி
பேசசுககு
##பிடிபபு
அழுததி
விழிபபுணா
லோகேஷ
ஈழம
விறபனையானது
செயறபாடுகளை
மறுமலர
குடுமபப
##தெனறு
##அர
##நதாரகள
வரச
பயோ
வழஙகப
சிலரும
இருநதிருகக
வாரததுககு
நிகழவை
இனததின
நூற
படைபபுகளை
வஙகததில
உடைககபபடடு
போடபபடடது
அவனைப
பேசுவதை
விரோதம
பிபிசி
எகிற
எறிநது
ஓசை
கநது
##யூன
##ிடடும
சிதில
##ரிககாய
##சனட
கொளவதில
##ஸடா
மெசே
ஸரகாநத
நலனை
அமரதத
செனனிமலை
வளரசசிப
படடுவாடா
மணியன
சானறிதழை
பேரூராடசியில
பளபள
காபபடடுத
திருமுருகன
தூயமையான
துபபாககிசசூடு
ஒகேனககல
தாகம
ஷலா
##கையுடன
##ககததுடன
போனா
ஆகாஷ
குறைகள
செலலூர
படடப
##ையாடி
உஙகளுககும
விமானஙகளை
போனாரகள
விதிதத
பாடலுககு
ஆணடிலிருநது
தொடககக
குளிரகால
வேகததடை
பூமியை
அமசஙகளை
சேனா
பதுஙகிய
மாநிலஙகளவையில
உததமபாளையம
தனிததனியே
சதஷகுமார
இநதோனேஷ
விடுபடட
எமபிகக
வணடிய
##ரான
தவறும
நமமா
செனறதாக
சூலுார
நினைவே
##ாஙகல
##ததுறைககு
##பபெற
நோயின
ஆபிரிகக
##ோலோ
விஷயமாக
மேறகொணடது
ரசிகன
ஆனமா
மேறகொளவது
குறியடடு
ரதியிலான
கோலகடடா
ஏரிகக
ஓரு
தேஙகும
##ததினபடி
காலககெடு
அனசாரி
வநதிருககிறார
இருநதபோதிலும
மினவி
மரக
கெம
இயககுகிறார
இயககபபடுகிறது
கதவுகள
ஜோஸ
எழுதினர
கோடடூர
கலவியறிவு
பசுபதி
ஆசிட
நாப
##டடுகளை
குக
வெறறு
காலடி
இயனற
எழுநதன
செலலபபா
செனறடையும
தறபோதும
##விடவிலலை
திருமூரததி
##ககினறேன
கடசியுடன
பதிலளிககும
மலாய
பிரசனைகளுககு
இளவரசன
பிரசசாரததில
காததிருநதனர
நிறைவடைநதது
தறசமயம
அவதிககுளளாக
மாணபுமிகு
அசர
விநத
##ரிம
துாரம
ஆகாது
##ாஜன
##ஞசனம
பூரி
பூகமப
விஜயககு
இடைபபாடி
எதிராகப
கேடகாமல
உணடாக
பசுமப
பககமும
லோகநாதன
பிரசனனா
ராகுலகாநதி
நோககததுடன
டாலருககு
வரலாறறுச
நமபுகிறோம
உததியோகபூரவ
வெறறிபெறறு
இஸரவேல
##லெ
##பயிறசி
மாதர
பாரககிற
##சாரஜ
மககளைப
நடிததிருககும
மோடிய
இருககற
ஸடே
விடடாள
முறைமை
மெலி
மாரடை
##தலைவர
அநநிறுவன
வருமானவர
##பபதைக
தலைநகரான
முதியவரகள
பாரமபரியம
தரபபாயம
அபபடியெனறால
துனபுறுததல
சுவிடசரலாநது
பிநதைய
ராடசத
ராகவே
##ஜென
##குடியில
சரதார
##டடைப
இவவாற
காணொ
பகுதிகளைச
மாதவரம
மதுரைககு
சிககியது
கதையாக
பனவார
அரிபபு
பாரவையாளர
##களுடனும
வெளிபபடையான
தரிசிகக
திருககலயாணம
முலாயம
பணவககம
சடன
டாய
ஷே
##ரிமையை
வெசச
தேயில
பலதர
இராக
இரததின
சரககார
இருககே
அதனடிபபடையில
தேசியத
பதிலளிததார
பெறபபடடு
இழபபிறகு
##ாகிவிடும
அதனைப
அறையை
##ககுறிபபு
பெடரோலிய
முதலல
திடடமிடடபடி
சாபபிடுவது
கலாசாரம
இரணடுமே
உயரதிகாரிகள
அபராதமும
அடககுமுறை
பிசினஸ
முமமுரமாக
இஷட
##தேர
##தையே
##ககாடடு
##ியோடு
முறிநது
##குணடம
பயனபட
மணபபாறை
ரனகளும
##ரிடமும
உருவாககபபடடு
இலவசம
பேசிககொணடிரு
எஙகேய
இருககிறதே
முனவைதத
ஹெர
விணகலம
கொளளையடி
கணடறியபபடடுளளது
சனிவாச
பாததிரஙகள
திருககழுககுனறம
செறி
##ோரும
பாஷ
கோரடடு
பாடகி
விடவிலலை
##பபதறக
நோயகளை
பலரையும
பேசியதாக
காடசிககு
நிறுததபபடடுளளது
ஆழததில
##ாதிபதி
அமலபடுதது
போதனை
வியாழன
கையெழுததிட
புறககணிபபு
பனனிர
ரஷயாவின
தேயதது
செயதுகொணடார
பெருககெடுதது
டிபளம
ரஸ
ஸவர
##துல
##ோருககான
காலககடட
தரபார
விளஙகி
அரசமைபபு
இநநிலை
##சைடு
##பாதி
தகவலறிநது
ஆசாத
அதைததான
குறறாலம
நாடுகளைச
அழைதத
அமெரிககப
மாறறபபடட
பொறுபபான
நிறுவு
கூடடுக
முனனேறப
பிரசசினைகளுககு
வரவேறபைப
தியேடடரில
நிழறகுடை
பகுததறிவு
தழுவி
நதியின
##ாறபோல
##சசணடை
பலவித
சமததுவம
போராளி
##ததிறகுரிய
லடசததை
##வானம
அடைககபபடடார
கணணா
உசசியில
##ிருபபேன
இலககியததில
முஸலிமகளுககு
சாயல
ஒருஙகிணைதது
இபபடததிறகு
கேமராவில
பதமாவதி
செயலபடுவது
செடிகளை
பொறாமை
டிராபிக
பாதிரியார
குறிபபிடுகிறது
##ிறகே
##ுவான
அமைததது
##வெண
பெருமையாக
நதிமனறஙகள
##வருடைய
ஊழலுககு
சுவையான
டிரா
ஊடகப
ரொகக
வாரததைகளால
மழையை
##சசாரியார
காபபாறறும
பொறுபபேறறார
பேசுவதறகு
நநதகுமார
ஹரதிக
கடடுரையை
காணபிதது
ஐரோபபாவில
ஊஞசல
ஸடிகக
##மரி
##றகாலி
பாபப
பாரட
செலபி
##காரன
வளஙகள
செனறாரகள
கிராமததினர
கணடகடர
##ககேறற
பெறுகினறன
செயதிருககிறாரகள
மேறகுவஙக
அணணாசசி
சொததுகள
கொடுககிறது
விணணபபததை
பொனசேகா
விககெடடை
விணணபபிதத
திடடமிடல
பாடடிலகள
உணரநதேன
ஹாஙகாங
குனிநது
ஓடிககொணடிரு
நாதன
நதியர
##வயல
##ரையை
வென
துன
துககம
செனறதும
விடுவேன
கொணடிருபபது
சினனப
உடனேயே
ஒவவ
கணணிய
வஙகிகளுககு
அனுபபியுளள
நிறுததினர
அணைததனர
செயலராக
தமபதியினர
வலுககடட
பவானிசாகர
பரஙகிபபேடடை
தெரசா
வககம
##ததையோ
##பபநத
##ாகததான
##ாமபாள
பலவனம
சொத
ஏறபுடைய
##டசம
போருககு
நகரும
மகரி
காவடி
ஆரமபிததனர
அவளும
##ூரிலிருநது
குளததை
இடைவேளை
திடலில
##தளததில
ரோடுகள
திடடமிடடுளளதாக
ஏழைகளுககு
தேனாம
ரஷயாவில
ஸடானலி
##ிலலர
வரபபடும
வரலடசுமி
மறறைய
கைகளால
இபபோர
ராஜராஜ
சினே
பாகவத
வைககபபடடுளளனர
அயயர
கேடகலாம
சிஙகமபு
வைததியர
##வுளளதாகவும
கொணடுவரபபடட
இநதிரன
காவி
வருகையை
பயபபட
இருமப
##ெயனர
சரகம
நடைமுறையை
##ாசாமி
நடிபபை
பாலன
மதிபபடடு
வலியை
வடடுவசதி
கடலுககுள
பனிகக
கேரளாவுககு
கவுரி
அவதூ
கோபததை
பராமரிபபில
விககெடடுகளையும
எனறழைககபபடும
அதது
இமா
தமாக
மயமாகக
##லுவ
##ககாவது
##திகமாக
##நதுளளார
பேனரகள
மககளில
##ளியும
பரோவில
தாஙகும
இறால
விசாரணைககாக
தேரவுககான
ஸரநகர
பசஙக
இருககுற
சுருகக
சபரிமலையில
கருணாஸ
விடுமுறையில
கறிவேபபிலை
##எனற
##குற
கூவ
பிச
அறிவும
தவிரபபது
இளஙகலை
நிதிநிலை
வடடுப
தருகிறேன
கையோடு
நிறுததபபடும
சோதனைககு
ஆடுகளை
ரஙகநாதன
பிரிககபபடடு
பநதுவசச
கதாநாயகனாக
மறுசரமைபபு
கநதர
ஸபான
##மூலம
##ாடியில
வரா
மூன
பாரககிறோம
##ாசின
அதிகாரபூரவ
##ககிண
பெறறிருநத
வாரா
நடவடிககையால
படடறை
பதடடம
வாகனததின
நோயககு
##மபெரும
தலைவரகளில
சுமித
##விடுகினறனர
ஸடாலினுககு
உறசவர
எனபதோடு
காடசியளிககிறது
இதழகள
பெனஷன
கததார
னர
##ேகர
##ஃபெ
##ாரன
##ககுடடி
##னனறு
மூடட
பாரககிறாரகள
தரநது
முனவிரோதம
சொலலத
தேரதலினபோது
ஆசிரியைகள
எதிரபாரககபபடட
எபபடிக
பயிறசிககு
அவரகளுககுத
இமமா
நபரகளின
இழுததுச
தெனனாப
##ககுரியது
நாவலை
தோலவியடைநத
மொழிகளிலும
சுயேசச
கவுரவி
கொலகததாவில
ஏகாம
லடசியம
##ரப
##ததமபி
மேதை
அவரிடமிருநது
சேஷ
சூறைய
உணரததும
இரணடாக
படுதோ
காடடுவது
நோககிப
பரமசிவம
படிததவரகள
உறபததியாகும
கொடியேறறினார
பொருடபடுததாமல
ஹனசிகா
லாம
##ிணி
##வையாகும
##ாபடடி
பாலிதன
பழககததை
ஜெயபால
##வளர
நலசசஙக
குழநதைகளுககும
மரமம
##பிரான
சுநதரராஜன
காயகறிகளை
மளகு
ஆதமா
சமைதது
ரெயனா
சனப
##மெ
##லடசும
##ஷே
##பபிரியா
##மபடடு
##ிககோ
பிரததிய
சிஙகை
தொடரநதனர
மனததில
நதிகள
பொதுசசெயலர
நராடி
அறிவிததனர
படிததுக
காஙகயம
அதனைக
ஆலயததின
அதிருபதிய
சிறபஙகள
சதாசிவம
எகட
டாரக
##விதை
##ாமபாளையம
நடப
சுவராஜ
கைதிகளை
டிடி
கரபபம
ஆதரவும
சூழலுககு
ரெஙக
நாடடுப
உணமைகள
பினபும
ஜோதிகா
எதையாவது
அயரலாநது
நடபபாணடில
இலகுவாக
பரஸபர
பனவாரிலால
எதாவது
##கததிறகு
##வோரகள
மாவடடக
கருவறை
முடிவாக
பரபபும
மோடட
அதுகுறிதது
##தேவா
நிலைதது
கொளகையில
இதைவிட
சொலவார
வழககததை
வெறறிக
கவுணடர
எதிரகாலததை
விருமபுகினறனர
கலவியாணடில
இககடடு
உடனபிற
வராஙகனைகள
கூறியுளளதாவது
துரியோதனன
##ணடார
நடாதத
##ாதவர
காணிகக
வருவோம
பொடடல
மனநிலையில
அமிரத
இயஙகுவ
செலசியஸ
நிததியான
நாளகளாக
டிஎஸபி
மகான
அறிவிததல
##ததிருபபதாக
துவார
நாசசியார
சொனனதும
மலையே
பாடலகளில
ஏறறவாறு
குறிபபிடடுளளனர
அடிததுச
சடடமனறததில
அசைவ
அசைகக
பேஸபுககில
வடசெனனை
டிபளமோ
தடடிய
##ூடடி
போபால
அனறி
அபபாஸ
கொணடேய
சூரி
இணைச
##பபோட
அணையை
##ுமபோதும
இநதியாவிலும
போகாமல
கொணடிருநதாள
அறிமுகபபடுததி
மாநகராடசிககு
உணடான
முரச
பறறித
குறறசசாடடுககள
சிபிஎஸ
கொலையில
இமமாவடட
##ிருககிறரகள
##ததோடும
வலைததளததில
நடததினாரகள
பினனடைவு
தயாநிதி
நமமாழவார
##பதியின
##ாவத
உளளததில
தேதியுடன
மூசச
##ாககியது
பேராசிரியை
உடபடடு
சேவல
இபபாட
படிததார
கமம
அமைபபுககு
விதவிதமான
மாறறுவது
பாரவையிடட
மயயம
மாயாவதி
##விலலையாம
வழஙகுவதறகாக
இவவழககு
உயரநிலைபபளளி
பெருமபானமையை
அசமபாவித
தமிழரசுக
இனனைககு
விதது
##குர
மூவரையும
இதுவாகும
தெரிவிததிருநத
கூடடணிய
இதிலும
இனஸடி
அதைததொடரநது
விடபபடும
நுாறு
##வருகினறது
நடநதாலும
எபபடிச
குழுத
தநதைககு
கலலூரிகளுககு
மாநகராடசியின
தணடபாணி
மூனறும
குறறசசாடடில
பரிநதுரைகளை
##சோழ
சிறுமிககு
வழிமுறைகளை
கோததபாய
##ளின
##ெமபர
தெளிகக
அதனமூலம
##ோரியா
கோடியும
இரடடி
குறைநததால
சாபபாடடு
##ககாகப
மழைக
பொருடகளையும
##ெனறாலும
அசசததுடன
சுயாதன
வாரததைகளில
வாயிலில
திறமைகளை
செகய
பெருநதோடட
ரவநதிரன
கணினியில
ஈசன
எவருககும
##சாதன
கொடிகள
கூநதல
கடமபூர
ஆஙகிலப
##முருக
சமனப
##ாபத
தொழிலமுனை
இவரதான
திருமஞசனம
மறுககும
பதவிகள
சினனததை
ராஷடர
வானொல
ஈடுபடடுளளது
வழியிலலை
முதுக
ராயபபேடடை
கலவியின
எனபதையே
கணமூடி
விவேகம
எசசரிததுளளது
வெறறியின
சோகததில
நமபிககையிலலா
புதுமையான
மகாதேவன
ஸடபன
அஞசி
தாத
##ைட
புடி
உளளாரகள
தேவாரம
##பபடவுளளதாக
வருவதறகான
வருகிறான
##முறையும
பொகலை
அனேக
விலகக
நினைககிறாரகள
வடடாரம
மையஙகளை
மாடடான
கொணடாடிய
ஆஜரானார
வாலிப
முனவைககபபடட
##மாகிவிடடது
நெரிசலில
பிரானசில
உடனபடிககை
எலகட
ஹோணடா
நோரவே
தனனிசசையாக
சைதாபபேடடை
பங
##படிய
##ததுள
மாள
இருத
கொமப
வரபபடடு
வைததில
கிராஸ
நடிததிருநதார
பிறித
போலசாரால
எதிரபாரககபபடடது
மோசடியில
அறியலாம
வாழககைத
மேறகூ
எழுததுத
பசசன
கறுபபுப
ஸகூடடர
கொளவனவு
##பிரியா
##வசி
##வாவில
##ஹு
முசசககர
குவியல
##வைஸ
பாண
வாண
பேனா
குழமபு
##ருகில
இலலாது
தினமாக
குடோன
சினஹா
தலைமைத
கொடுததிருககிறார
இரணடாவதாக
ஏறகவிலலை
குழுவுககு
யாவரும
வருடமாக
மனனி
போடபபடடு
நிலையததிலிருநது
நடிததவர
முடககி
கொடுபபன
வாடஸஅப
திரையரஙகு
புருஷன
மகிழசசியான
வடபழ
ஹத
##ிககினறனர
கோயல
கணகளுககு
மாநிலததைச
மனுஷ
தனியாருககு
ஓரின
பறகள
படததைத
ஆஸதிரேலியாவின
டொலர
ஹாரட
மூதாத
பசிபிக
நோககியா
பஙகுசசநதை
வாலாஜாபாத
உளம
கூரிய
கூபபிடடு
புகா
##வரகளால
##சுக
திடடஙகளின
தாதத
இருககுமோ
குழநதையும
பாதுகாபபறற
ஆசாமி
எனககுள
பிரசசனையில
நகசல
ஆலைககு
மிஸடர
சொரகக
மூடடைகள
##சசானறு
மோதும
நறபணி
நிறைவடைநத
மைதரிபால
கறகும
##மாதிரி
##ெரி
##ககாலை
##றுதல
##ணடின
கோகு
##பிங
##பிஐ
செலலுஙகள
வயிற
லடசததிறகும
குடில
காயஙகளுடன
திருபபிக
திருபபலி
தரமறற
பததிரிகைகளில
ரஹானே
நாவலகள
காரைககாலில
பாரவையாளரகளை
மூதாடட
ஸரவிலலிபுததுார
கைரேகை
ஓடுகிறது
ஜலல
##பபொழிவு
பேடம
கிசுகி
அரசுகளுககு
செயதுகொள
சேததியா
பளளித
அதிகாரியான
அதுபோனற
இருபபான
நலலு
விருபபு
சினம
வரித
இடததிலிருநது
முயறசிககு
இலககியஙகள
ராமநாதபுரததில
புததளம
முதனமைக
தேவையிலலாமல
குதிரைகள
உருவாககியது
தொலகாபப
நுவரெலியா
ஆவிய
உடுதத
பவார
##ுமாக
##பபையில
போப
பாபபிர
படஙகளிலும
இருநதுசசு
கிராப
எனனடா
பெறறுககொணடு
மெஸ
கொடுததாலும
சகஜ
மதுரைக
நேரமையாக
ஏறகும
வசிதத
அநியாய
கணககுகளை
ஹரோககள
கருவிகளை
தூதரகம
வெளிவநதுளளது
தைபபூச
ஆதாய
##ிடுகிறது
##ஃபோன
##ொடு
பிரவு
##ோரட
முடிககும
நாளொனறுககு
சடடக
வாயபபும
கோடிககும
உஙகளுககாக
அதிரஷடம
ஊராடசிகள
நிறைவேறறிய
அடையாளததை
அயன
நெருககடியை
வரததகரகள
குணஙகள
வடடுககுச
தமபதிய
##கோரி
அருணகுமார
கதாநாயகியாக
அமமையார
ஹாஸ
ஹாஜி
##ஞை
அராஜ
வாசம
தனம
படததிறகாக
திரடடு
கருட
இபபோதெலலாம
நிகழததுபவர
பழந
பாடனா
ஜெயசஙகர
நடததிக
தெரிவிககபபடடு
இடைததர
வணாகி
உபாத
செலுததாமல
கொணடாடினர
நாடுகளுடன
நடவடிககைகளையும
நொநது
வலியுறுததியுளளனர
சமாளிதது
வகிததாா
எருமை
உருககு
நககல
##ஙகிறகு
வரககூடிய
##ிககண
##வாஙகி
##ாககா
நடிததுக
இபபளளி
பணிகளையும
அடிததது
இவவிழாவில
இருககவே
ஆடவர
வளரததுக
கொளததூர
பெறறுககொள
மெது
பிடிததம
கலவிதத
கருததும
போனான
ஓடடிய
அமைபபுகளை
நடததியுளளனர
ஆழியாறு
ஒதுககபபடடது
நடததுகிறது
நடககாது
நனறாகவே
திருமபிச
சாகுபடிககு
##குளததில
நாடகஙகள
ஏறபடடுளளதால
அருளபாலிததார
டெலிவரி
கிரணபேடி
நியூஸிலாநது
ஜாஸ
பசசி
வநததை
##ரஙகில
##பபடடை
பாரலி
பிசை
கணணம
பரமபர
குறைவால
தொழிலுககு
##ேஷவர
கொளவதிலலை
ராமு
நலவாழ
சாலைப
தளததின
சாமானிய
வாடும
இவைகள
கனனததில
ஸடாலினை
உணமைகளை
வெளியாகவிலலை
கோடடாடசியர
##தாககல
சுடடிககாடடு
துருவ
நைடர
பறறாககுறையை
உளநாடடுப
ஹைதராபாததில
கூடுவாஞசேரி
ஆலி
ஹககம
##ழபபு
##வதியில
##விடச
##விதததில
துடு
துயில
தரககூடிய
அலகா
விரலகள
டிஸக
போதுதான
பகதர
விருத
டெணடுலகர
அதறகுத
மலையின
கதைகளில
சினனததில
ஆழததியுளளது
சுதநதிரப
நடவடிககைகளும
வரலாறறுப
மேமபாடடுத
பெனசில
பிரிவினருககு
வெஙகடராமன
நமபபபடுகிறது
திறமபட
ஜாமபவான
##யக
புணடை
கோடடம
##ததிறகுத
நிகழவாக
கணணு
பெறுவதில
பிடிககாது
குணபபடுதத
செயலபடுததபபடடு
அமமாவை
உடையது
விறகபபடும
ஈடுபடுவது
அமுத
பணியாறறியவர
##ககாண
##பபதா
##ையலல
இருநததாகவும
##பபுள
நிலையே
காலன
இருநதிருககிறது
மதுவில
வசபபடட
புதுமுக
பேசத
கலநதுக
கடடுவது
இதைததான
எணணஙகளை
மணடை
தஙகததை
ஒபபடைககபபடடது
படடியலிட
அறிவுறுததி
நாணயம
வெறறியும
##ரலால
பழிவாஙக
இனனிஙசில
ஏகாதசி
இஸமாயில
ஷாஜ
##மகள
##படியும
##எஃப
##ாரதன
##ிககி
கோகில
சுடடி
##திரி
எனபவன
திருககோ
எதிரககும
இயஙகிய
##பரன
முடிநதுளளது
தானமாக
##டடைக
கூடாத
கணடம
தயாரான
ஸரனி
விளையாடடை
இளஞச
அடிபபடையான
காடடவிலலை
அரசாஙகததில
பெறறோரும
ஆகியவறறுடன
கவரநது
##போனது
நூலகளில
சாகர
முயறசியாக
நிழறக
விநியோகிகக
வாஙகுவதறகு
சோரவு
இபனு
விவேகானநதா
பொமமைகள
மிய
முததுக
##பபுளள
பிரமாணம
மூலை
##பெரு
முடிவும
செலலிட
பெறறுககொணட
சமூகததினர
படைகக
##ாணடின
அவரகளுககுப
அணைகக
அநநிறுவனம
கடடடததின
காபபாறறிய
குலதப
ருகம
தோறறததை
பராமரிபபினறி
கைவிடபபடடது
இபபடியெலலாம
பலலாவரம
அஷட
எறுமபு
ஏஜன
##ெறி
##ிறக
##பபடுகிறேன
முனனறி
ஆணடுகால
##ததுககுரிய
இருககவும
##கோளை
##சசுப
கொணடிருககிறேன
பளளிப
ஸரவை
மணலை
சரியலல
பேசியபோது
பெருமபால
தாமே
எழுதியது
உழைகக
அமமாவும
மெடரி
நடமாட
பணிபுரிய
##ககுறைவால
ஆபாசமாக
திருவெணணெய
##ககெதிரான
டெகனாலஜி
பாபபிரெடடி
உனனி
தடும
##ுயிர
##தரும
செயினை
பெனனாக
மாசம
வருநது
சிஙகிள
##சாரா
இலடசிய
இருநதபோதும
சொலலிடடு
உயரததிய
இருககைகள
தொடககி
ரூபாயின
படிம
நிறுவனமாக
எனறுமே
நடததவும
காவலநிலையததில
அளிககபபட
கணணுககு
வாஙகினால
அஙகாள
விருதுககு
பயனும
பினனே
அறுநது
வாசிககும
மையமாகக
சிரமபபடடு
பிழைபபு
ஆவணி
பாடடாளி
கணடுகொளளவிலலை
டூவலர
எபபோதாவது
மெகசிகோ
தாறுமாறாக
சயினஸ
##கையாக
##துறையில
##விககபபடடது
வேடடையில
வரககம
மேடம
##ிடடால
##தமும
கருவியை
##வமும
நேரமை
##வெளியை
மாநிலமான
கிடைததுளளன
விடாது
உடலநலக
##ககரணடி
பாரககபபடுகிறது
குரலை
திடககழிவு
அசசததை
முயனறபோது
நவமபரில
சுறறறிககை
பளளிகளிலும
அமுதா
##ககாயசசல
வலலுனர
புணணியம
சிடனி
##குழாய
முஹமமத
பொகலைன
##பபிரிய
##ோய
##ாலினி
##ணடான
##சுழ
##ரியன
பேரணியை
##டையச
அதிகாரததில
டிஎம
சாராயம
காணோம
முகமாக
ஈடுபடடவரகள
ஈடுபடடதால
முகாமிறகு
பாதம
போடடுவிடடு
சினிமாவுககு
எடடியுளளது
ஆரமபிசச
தோறறததில
சுடடிககாடடிய
காஙகிரசுககு
கிளரசசிய
விமரிச
முததுமாரியமமன
கேளவிககுறியாக
பெனனாகரம
ஈஸடர
ஸி
##மெனட
##பபசி
##பபடடறை
ஆரஎஸஎஸ
அரசாண
பூஜையும
ஆறுகள
கோலததில
கழுதை
சகோதரன
அருணாசல
துருககிய
மாவோயிஸட
அசமபாவிதம
நகா
##நதபடி
##டுசசு
வேறறு
ஆரடி
வழஙகினால
கணககிடடு
இநநோய
எலலாக
நாஙகு
மறுதததால
##சலனை
படைததுளளார
பயிறசிகளை
பெருநாள
அருகிலிருநத
சிறைதத
நினறார
பொருததமாக
ஐயோ
கடடாயமாக
கரிம
கவிழநதது
தாவரஙகள
குடிததுவிடடு
##துருகம
கஙகா
##ெஙகிலும
##தியானது
##ூரதத
##ாடடாரகள
ஆணடுககுள
கணேச
##ாணு
ராஜாவின
இருபபர
ஒருவரே
பாகயராஜ
வெளியேறறு
சிவலிஙகம
பெணகளுககும
மேறகொளளபபடுகிறது
ஆபிர
ஆடடஙகளில
வணகக
முருகானநதம
நிறுததிக
ஊழியரகளும
பயஙகரவாதம
திருததஙகள
காளைகள
புரியாமல
இககரு
கடசியினரும
அவுடட
வலைதளததில
மாறறியமைகக
மஜத
கேடடறிநதார
தபபிடி
மதே
ஹாசன
##பியா
மாநாடடின
##ரகளுடன
மறறவர
##மானதாக
##ிதய
செலஃபி
வயதாக
பேசுவார
பிரிம
புலமபு
தடையில
செலவுத
ஒருமிதத
குணமாகும
அபாயகரமான
போதனா
கடடிடததில
##வாசகம
##ுககிடையிலான
இததகவலை
அஷடம
ஓடிக
ஜக
டாட
##காளியமமன
##பநது
##விறகும
##பபள
தொஙகிய
##ததினாலும
##கினறான
##நிலைக
##டையான
கொணடதால
சநதியா
##பபடுததபபடடு
##சசுடடு
திருமுறை
ஜெயிகக
இவரகளுடன
சொலலை
வலியுறுததும
உசசததில
பறிதத
புரத
நடிகராக
தொடஙகுவதறகு
திரைபபடமாகும
பஙகுதார
மாடடிறை
முனபெலலாம
மறநத
வழியிலலாமல
வடமேறகு
சேகரிககும
விசுவாசம
முடிவடைநது
ரகுராம
கணடுகொளளாமல
அரையிறுதி
##தாஜ
##ககடையில
எணகளை
மாதே
##வாசகர
கணவருடன
நிததிய
##ககொடுதது
குறறஙகளை
அடஙகி
கிளின
நாடடுபபுற
கிலோவுககு
##ோனியா
##பபாரதது
கேடகிறாரகள
சொததுகளை
திலக
யானைகளை
தரபபளிததது
பிரிததானியாவில
தலைமுறையினர
சிஙகமபுண
##வாவது
##சிர
##ாரே
மூளையில
வழஙகவேணடும
படிசச
அனுமன
##வதாகும
வடுக
##பபெடுதத
அருட
##பபோடட
ஆணடனி
பொருடகளில
##பாகஸ
உரஙகள
அறுபது
கணடுபிடிககபபடடுளளது
சாமபியனஸ
விணணபபிதது
தடவைகள
ஆகசிஜன
பழை
##ுதன
##ககாது
##ோவா
விதத
அதையெலலாம
##வாது
சிடி
மனதிறகு
##ரைச
பொருநதிய
அதிகாரியை
டிபபர
##சனஸ
தொடரபை
படிபபுககு
உடலகளை
##ிகளிலும
அறியபபடட
தளளிய
##புறததில
இருககிறரகள
##கடநத
மோகனலால
நிறகாமல
விதததிலும
ஃபரஸட
பபளிக
அததனையும
மளகுடியே
ஃபோன
##ேடடு
##ையறை
குபேர
##ிருககான
கொண
வாஸது
அறிநததும
கருஙகல
சமூ
எழுததில
உருணட
அதேவேளையில
ஆரமபிககபபடட
போயச
எபபடித
மறலகள
நணடகாலமாக
முரடடு
பரமேஸவரி
காளான
தியாகி
பாராடடிய
எனபதெலலாம
சவாலகள
உருவாககுவது
சரமைககும
வவுனியாவில
அஙககரி
சதவததத
சநதரபபததில
ஒபாம
மககாசசோளம
சிபாரிசு
சரகாழி
கையும
சடரகள
சககிர
நஸ
##ஹரலால
##ாமின
புடை
##சியர
##ரியாதை
தெரிவிததிருநதது
அனட
எழுபபும
மோடியும
இருபபவரகளுககு
விவசாயக
இனஸ
நிரவாகததிறகு
நடததப
இனிமே
தவறினால
##நாடடிறகு
ரொமபவும
நடசததிரததில
நிரணயிதத
அமைநதிருநதது
லெவல
திரிணாம
பறறாககுறையால
மறுததுவிடடார
வடிவமைககபபடட
சிறுகதைகள
சிததாநத
திருவணணாமலையில
ஜிக
டோர
##ிருநதத
##ாயும
##பபடைய
பாரததா
சிறகு
மனகளை
##ாககிக
கைததொழில
நேரததிகக
##தேசிய
வழககுபபதி
வடல
##படடின
வியநது
நிறுவி
பாஜகவை
எனபவரிடம
முகமூடி
நமககுக
தியாகதுருகம
வைததிருநதனர
இராசசிய
தெனகிழககு
மணடிய
##ரூ
##ஹை
##ையபபன
தொபப
##டனில
பாரககிறார
மாவடடததுககு
வழஙகலாம
கொணடுவரும
அதிகாரஙகள
வாயபபாக
பாதுகாபபது
பொருளின
வியாசர
மாடடாது
குமரேசன
வெடிககும
வெளியாகியுளள
மரியா
பொதுவாகவே
முதலடுகளை
இநநூ
சரணயா
குறையாமல
துளிர
பதிவேடு
நிகரான
நரததேகக
வழககுரைஞர
உததே
டல
ஸகே
##ககாடட
##ஙகததில
கொற
மனசூர
மேலிடம
##ிதமாக
செயதுளளன
குழமப
அளவே
வியகக
தாமப
தரமானஙகளை
குருசாமி
அறவே
எலலாததையும
ஒழுஙகை
##நேரமும
வைககபபடடிருநதது
மரணததை
கைபபறறினார
உறுதியளிததார
வணடிகள
சுவாரஸயமான
முனனுதார
சுதரசன
வழிமறிதது
கலநதாலோசி
மைசூரு
டின
##ளூர
##னதாக
##பிறை
##ருககே
##ககுரல
##கிறதே
சிஐ
##பபடுதல
தேரவான
வழஙகிட
##வொரக
உயிரைக
சிவநத
மலேரியா
சரியாகப
புலமை
அதனாலேயே
சபைகள
தரமானிதத
அனுபபபபடடு
பூஜா
ஒனறியஙகளில
##ஙகளாகவே
##பபடுததுவதறகு
நணபரகளும
பேருநதுகளில
டேஙகர
பெரிது
ஒனறுமே
பதுஙகி
ஊரவலததில
வினாககள
வாழவாதாரததை
##பபொருட
ஆரமபப
பணடாரநாயகக
நுணணுயிர
அணடு
டசசர
தோம
நவநத
##ளுககு
##ககாடசி
##ையென
செஙகம
முககோ
விசில
சுவரகள
சுறறும
பயததில
காலகளில
பணியின
உதவிக
##களாகப
##ைககுள
ஆனநதம
சனிககிழ
##நதுளளதாகவும
கதவைத
அதிகமாகவே
இலஙகைப
##ையொனறு
நடைபெறறுளளது
தடுபபுப
பரமா
எடடியது
புகுநதது
##ிககொணடார
ஒபபநதததின
சாகுபடியில
அடச
நயே
லாய
##யாக
##லைனஸ
##சியன
தனிகக
குறிசசி
கிளிய
வாழவது
குறைகிறது
பிறவி
தகவலகளையும
பயனபடுததபபடுகினறன
பெரனா
காமம
தனனாடசி
வேளாஙக
##தொட
செயறபடும
வேணடுதல
படகுகளை
பஙகடு
தபபினார
அததியாயம
சாலையோரததில
முனவரவிலலை
எலிச
உவ
கபர
ஜாரக
தடப
தததம
நஞசு
வரகள
##ரஙகம
##ஜே
##றுகிறது
தெனற
துதி
திருததி
கிரிய
##னிவர
##ககொலை
பாடசாலையில
கடசிகளுடன
தேரவுகளில
கேடடோம
கிருஷணர
வரலாறறின
ஜனாதிபதிககு
மாறறுக
பிகசரஸ
உடையவரகள
இயநதிரததை
உனனுடைய
விணணபபிககும
டோககன
பூஙகொ
செலவாககை
செரிமான
இடுககி
ஊரகள
கமா
ஜொ
##பளளி
##ஷகர
வேணாம
உளளவர
வைரம
##காரணமாக
பராக
பாலஙகள
இருபபதே
பழமொழி
முழஙகால
நாறகாலி
மறுபடி
பெயததால
கனவை
பாரததுப
பஙகேறறன
அமைபபுகளுககு
முருகபபெருமான
மாதிரியே
பாயசச
கடறபர
லெபட
பிரசனையால
சணமுகசுநதரம
எடையுளள
அடுபபில
அனுசரிகக
##ாதபடி
##ிககிடடு
காததான
முதலடடை
திருநகர
போரககால
உணவும
##கோடட
##ியாபுரம
எடுததுளள
அருவியில
ஆளிலலா
அளிககலாம
தொலைதூர
##ையுடனும
பழனிவேல
ஏறறார
உதவியது
சததுககள
கமபெனிகள
மாதததிறகுள
வரதராஜன
முதிரநத
டிரம
மலலி
ஹிர
அமைபபாக
அமைபபாளரகள
##ணடிங
கழபபாககம
வசதியான
பணததையும
துறைகளின
வலியால
இடமளிகக
போககுவரததிறகு
பாதைகள
தரமானிககும
##ாடசியமமன
விதவை
ஒதுககடடில
டெலலிககு
மலையடி
முடஙக
சிததரிகக
ஜோதிட
கமபயூடட
நுணணறிவு
கடையடைபபு
சிபிஎஸஇ
எடடும
லைக
##பாடடு
##வரமன
##ாமதது
குடு
வருமபடி
முதலதர
திரியும
இநதியரகளின
சமநிலை
வாழவும
இபபளளியில
ராஜாராம
##ததமன
விசாரணைக
நாககு
அபபடிப
தவறானது
அனபின
குவிததது
நமபிககையும
சிவகஙகையில
கடடுரைகளை
விருமபுகிறாரகள
லெவன
நடமாடட
சாடடபபடட
கடடுபபாடுகளை
பநதுவசசில
மவுனம
ஊரைச
பிரகடனம
##சசாவடியில
ஆயுரவேத
நெறறியில
பஹ
வநததாகவும
##தோர
##ெஸட
##ஜூ
##முறையின
##புழு
படததையும
போலத
கைகூ
கடடததை
##கொடுகக
சாககு
இனஙக
சோனி
##பபெறும
ஆணடவன
இளையான
திருவடி
அதிமுகவை
பாஜகவில
வெறறிட
வாசிதத
##ககாணம
இயநதிரஙகளை
துறவி
##மொழியை
அறநிலையத
மியூசிக
கெடுபிடி
##ஙகுறிசசி
பிலல
##ாமே
##ாயை
##பபுழ
##பபுகளில
நிலககடலை
பிககு
இடததின
மருததுவரை
அரசினர
பெறறிருககும
##வுககுக
##கோட
முகவரகள
மெஹ
தலைமைககு
அனுமதியில
கணடால
பாதிககபபடுகிறது
##ிருபபோம
கூடியதாக
தவறுதலாக
சலவை
சிகிசசையில
நுடபம
வசூலிககபபடுகிறது
பெலஜியம
##கிருஷணா
பகாரில
குததகைககு
அஜிததின
வததலககுணடு
அரைசதம
ஓல
ஜோக
##ஹளளி
##ொனன
எனறை
##னறே
பிரமாண
##பபடவுளளன
மணிமாறன
கொளளாத
கடசிககுள
ஜெயசசநதிரன
குடுமபத
கதையும
யோவான
முனனேறிய
கறபூர
கறபிததல
##ெழுதது
மறிதது
ஜமால
கணடறியபபடடது
பரபபுரை
போனறவறறின
ஆபகானிஸதானில
மோகனராஜ
கணடிககததககது
சுடடுககொலல
புகையிரத
பதமநாபன
கதம
##ததடியில
கூதது
எனபவை
எனபவருடன
சிலமப
##பபடுமா
கொணடுசெலல
##வானநதம
அதிகாரிகளால
கமெணட
பெயரகளில
சரிநதது
புறபபடடார
கழிபப
கிளறி
தககவை
பொலிஸாருககு
முடிநதவரை
சடஙகுகள
சநதைகளில
வேணடியதுதான
விடுவிககபபடட
கடறபடையின
##நாராயண
விபததுககுளளானது
ஹெகடேர
இததிரு
ஊக
ரியோ
வசை
##ிடி
##ையிடு
வழியும
##முனையில
சுபர
கணவருககு
பிறை
பயனபாடடை
மாரபில
##பேக
இதனைப
காடடுகினறனர
மாறாமல
நனறிகள
பரிசோதனைகள
காலவாயகள
எடடாவது
கலவியாளரகள
ஆரவமுடன
கையெழுததிடடு
வாககுறுதிகள
முடிவடையும
மழைககாலஙகளில
தறகாபபு
விதயாசாகர
மதுசூதனன
இமே
ரிய
##மிஷ
##ாரில
##ஙகற
##ரிசி
##ிடடது
திருததல
திதி
அனுசர
மரஙகளில
சிவலிஙக
காதலிகக
அமைபபுகளில
மததேன
பிறநதவரகள
உடைகள
##எஸசி
பாடலின
வெஙகையா
கணிகக
பயிரகளுககு
தமபதிகள
கைபபறறபபடட
சோமசுநதரம
ஒததிவைககபபடடது
வலலுனரகள
பூசசிககொ
##சசெலலும
வருடாநதிர
பேடடியளிதத
தனியாா
இககடடான
புமரா
##ஈடு
##பபடடியை
திருததுறை
கடடப
தொழிலாக
கொளளிடம
இனனிககு
ஆணையை
நிலையஙகளுககு
வடடுல
வினய
தமிழகததிலும
பாதயா
பறிககும
சினனஙகள
விரிநது
சுரஙகம
தளளும
அறிமுகமானார
அடிபபடைக
துரககை
பலலாயிரம
துவஙகபபடடது
விருமபுகிறோம
ஃபள
மறுபககம
திணறல
உததரவினபடி
அதிகரிததுளளதால
விகிதததில
அமுலபடுதத
குதூக
படைபபாளிகள
கறை
மழு
##ஸவ
##நதரி
கூபபிடு
##காடடு
திணண
##ினைத
##வெலலாம
மாநிலஙகளை
பிறகக
பாதுகாபபுககாக
##ியனு
உருவாககம
மனுதாககல
வைககபபடுகிறது
திருமபுவ
இழநதார
##ககொளளுஙகள
புதுசசேர
ஈடுபடடுளளார
##விரை
காளித
வளைநது
கறவை
தலைமையிடம
எலலோருமே
அவசியததை
வெறறிகரமான
சநதரபபஙகளில
அமலாககததுறை
அவதானிகக
விணமன
திருவலலிககேணி
கிசுகிசு
##சிறு
##ஷித
##ததாறு
##ொபைல
##ாகஸ
பெடடியை
பாரபபன
சொததுககு
ஆகம
உடகடடமைபபு
அதிகாரியிடம
##ையினபடி
சாரி
நமககும
குழநதைப
பேசபபடடது
நடததபபடுகினறன
##வதறகுப
சகாய
பகுதிகளிலிருநது
ஓடடுப
காடடுகினறன
##பபிரசசினை
நடககவுளள
அனறைககு
பவுரணமி
கடடாயமாகக
காஙகிரசின
புலனாயவுப
பிறபபிககபபடடுளளது
புலலட
சரோஜா
எனனமோ
நுஙகமபாககம
##பலம
##டிபபு
முததமிழ
தொடை
சிதது
நிரல
##ததிறகுக
பாலராஜ
##வருவது
##வருகிறாரகள
சோபரா
கேளிககை
பாதிககிறது
வகுகக
குரஙகுகள
ஓடடுனரகள
கமபஙகள
செயதிருநதது
சுதநதிரததை
செலவுகளை
கடநதும
சுருககம
பொஙகலுககு
கதிரேசன
வழிபாடுகள
ஜமாத
சோழர
##பபாடல
தெயவஙகள
குததுசசணடை
நெடவொரக
ஒபபிடுமபோது
##னருககு
##சைகள
குடுதத
செயவதறகும
##ுவே
தேனம
பொஙகி
தமிழரின
படவிலலை
##காணட
##பபடுகிறோம
தவஹத
பணிககான
படிபபது
உயிரி
உததரவுககு
மதிதது
கருததுககணி
புராதன
கமபோ
நினனு
பிரமமாணடமான
ஒழுஙகாக
அயோததியில
எனறபடி
சமஸகிருத
##ிடையேயான
ஆககு
தளி
##வடைநது
##ஷிகா
##ககடல
##ததுறைய
##ிககோடடை
##விலும
##ரியல
அபபோலோ
போடடிககான
இலலே
கொளளக
வயதாகும
குடிககும
சிறபபுத
கடசியிலிருநது
ஆதரவான
இயககபபடடு
மகனான
பைததிய
தவிச
காஷமரின
மோடடாரஸ
விபரத
குலதெய
பயிறசியும
ஒனறுமிலலை
கூலித
ஆயிரககணககானோர
குடியேற
##மபாறை
கோபபையில
வாழவுரிமை
உறிஞச
வமசாவ
பிரவேசி
##ஙகுளததில
நைஜரிய
நககர
வஙகம
##ோபாய
முணடிய
கூகிள
கோடிய
சுபபர
பாரதம
##ணமும
அனிம
##லாததால
பூசல
வரைபடம
இனறுடன
##களுமே
நினைததார
##வருட
அழகும
புறபபடடது
கையளிகக
ஆராயசசியில
காடடுககுள
நணபரகளே
அலஙகரிககபபடட
அழுததததை
கடடுபபாடடுககுள
கரிகால
முனனெடு
கைவிடபபடட
முமதாஜ
நாணயஙகள
சதவதததில
##வாசலில
வாசுதேவன
பருமன
ஆதிதயநாத
ஆனி
டககடை
##தடி
##ககரம
##டடூர
வெந
மறறொனறு
நிலககோடடை
செயயபபடுவதாக
சிவராததிரி
கலலை
மனசச
பூசாரி
பாதுகாககபபடட
அளிததால
யாராக
கெனன
##ககெனன
பறறியோ
சொநதமானது
##பாகரன
உரையை
விளைவிகக
பினனூடட
போகவிலலை
பஙகேறகலாம
சேவையா
பழுதாகி
மிதரா
சிததிரவதை
காடுகளில
பரதநாடட
உஷா
ரததினம
##ணததின
##ுமலையில
எனககாக
குபபம
மாஙகாய
காககா
##ினறார
வாதததை
அவரோடு
செயயககோரி
அவமானம
ஆரட
வழஙகியுளள
சிலுவ
சநதிரம
சநதிததனர
சரவச
அனைததி
ராஜசேகரன
கடசிக
அதிரநது
மைதது
கிளபபி
##ஙகலாக
மாநகராடசிய
பககஙகளில
##ோடடா
அறிவுறுததியுளளது
உறுதியளி
##ொருவ
ஹரப
எதையோ
பொறுமையாக
மௌனம
சையது
தெறகில
பயிரிடடு
நெதரலாநது
##எனபி
டெயலர
ராதார
##ஜனா
##பபெய
##ினு
முபபடை
நடததினால
வரியில
கோகோ
வருநத
தலைகக
##வாககு
நிறகினறன
தரபபும
நரமப
##பாரக
பொருளில
கடடுதல
உணரதது
நலனில
ஜிமப
வடடுககுப
காதலில
பரிசோ
படுகினறன
மனனிதது
நவககிர
பேசுகிறாரகள
சிரஞச
தமபதியர
லிஙகம
நிகழவுகளில
பாலைவன
வலியுறுததபபடடது
அமாவாச
கையாணடு
பிலிமஸ
இடமபெறவுளளது
நிரவகி
ஆசசு
உஸ
ஒததிகை
களிய
##பபாயவு
செஙகுனறம
##பபுலி
##வேணடி
காணிகள
##திரை
ஆகவேணடும
எனனவாக
தாடி
முகநூ
காயசசி
##நததறகு
நோயகளுககு
மலரும
வாககுகளைப
நியமி
பதவிகளுககு
வசிபபவர
கமபததில
நடததியதில
விவகாரஙகளில
மஹால
பெருமபாலானவரகள
வலலரசு
முறபகல
பாடசாலைகள
பிராமணர
கொடைககானலில
காசோல
முபபெரும
##தியாய
ஒருததி
தேசி
பலவறறை
சிஎஸ
##ுமபடியாக
சேரபபது
ஆயுதத
திசு
கொணடாலும
முனவ
மாநிலததுககு
பிறருககு
##ிததுறை
நரசிங
##ுளளதாக
சநதேகததை
எஙகாவது
கடடுமானம
தஞசையில
குடியிருபபுகளில
காரியஙகளை
விறபனையாளர
சிதைநது
புவனேஸவரி
ராமகிருஷணா
வையுஙகள
ககான
பையை
யே
சுததி
##மாறி
நாடகளிலும
கொளளபபடும
அறிவிபபில
புதுவையில
மரககாணம
ஆகியோரது
##நதததை
மையபபடுததி
அஞசலக
தொகுதியிலும
லாரிகளை
தோலவிககு
பிரிடடனில
அரசசகர
தலைபபுகளில
அருணாசசல
பாளையஙகோடடை
ஆாபபாடட
வாறுகால
விழிபபுணாவு
சேததியாததோபபு
அடுபபு
ரஃ
##ோலை
செயகினற
##சுவர
பேதம
ஸடல
கூறியதால
வைககப
விரைநத
ஜெபம
முனபும
முறையாகும
குவிதத
நபராக
தெனனில
எடுபபதறகு
ஆரவததை
சொறகளை
நாவலில
பெருநதொ
உதாரணததிறகு
மெரினாவில
வாடிபபடடி
அதிரஷடவசமாக
முதுகுளததூர
தனிததுவமான
மெசேஜ
எலிசபெ
அனைததிநதிய
ஷை
##ஜனம
##லலு
##சிவ
##சிடடி
##மைபபின
##தியாகக
அவரோட
இடஙகளும
நிாவ
குழநதையுடன
அருவரு
##சேது
பககததுல
##கலன
##ஷனில
அணைகளில
நடததுகிறார
சபைத
அறிவுறுததினார
காறறுடன
இஸலாமியரகள
துரநாறற
நேபாளம
கெய
பளம
##மனி
##வளள
மாதததின
##புகள
பாரதய
எழுதலாம
மணிபபூர
நகரப
மகாக
பாடக
உலகததை
ஈரககும
##ககேடு
சினனச
கேரளாவின
திருமணததில
அனுமதிககவிலலை
சிறைகளில
யாழில
##விடமிருநது
செனடி
தெயவானை
நமமைப
சமையலறை
எடுககுமாறு
வாசகஙகள
ராஜஸதானில
காரைககுடியில
ஜவகர
அமைபபைச
குனறிய
பரிசோதனையில
அபகரிபபு
பிஜேபி
சததிரம
வடிய
##ாவர
##பபடியாக
##ோடை
நடேசன
காரனர
செலவதில
##கோன
பாகூர
சொனனாஙக
குரஆன
தொடரபுகள
##ேலும
உபச
பெணணுடன
நியமிககபபடடுளள
கொணடாடபபடும
பெறுமதியான
கோடடததில
காததிருபபு
பதமா
மேயசசல
டிரஸ
டோககிய
நகுல
##பதம
வழததியது
தேவதை
அவஙகளுககு
சிறபபுமிகக
திரிநத
செயலியை
பினதொடர
திம
முனிய
இவஙக
எடுததுளளனர
ஜெயகுமார
கலவிச
விமானி
அமைககபபடுகிறது
ஜெம
பெருதத
நாடாளுமனறததின
துரகா
பிலிப
உறவினரகளிடம
பததாயிரம
எனனவெனில
புலிகளை
குடியேறிய
ஒததிவைபபு
மனனிபபுக
ஆகியவறறைக
ராமானுஜர
நாறகாலியில
வலுககடடாயமாக
ஷமி
##மரு
##ஸதி
##அரசு
##சசாறு
பிரயோ
மறறவரகளின
காலணி
கூறினான
கருவு
செலவாரகள
அதிகாரியின
பொதுததேரவில
பாடஙகளில
பெரியது
பேசபபடுகிறது
அஙகுல
##மமி
பெயதால
இநதியாவுடன
இரணடாயிரம
சொலவேன
நிதிததுறை
ஒதுஙக
விதிபபு
வணடிகக
தெரிநதும
பானும
கதிரகாம
சவாலான
##ிருககிறாள
இஙகேயே
குழபபததில
துறையும
அடிததளம
ஓடடிச
அபாரமாக
டொனாலடு
வேலாயுத
சுணணாமபு
இதையறிநத
கவசம
##ேசம
##தாரகள
##தாவின
##நதியில
##சசநதை
##மபாளையததில
##வேணி
##பபடததை
##முழ
வைச
சொததை
##ேயானால
செலலபபடடார
மறுககபபடட
பாதிததது
ஜனஙகள
பெறுவாரகள
##ாநதோடடை
வருவாயை
##ககுறிசசியில
காததிருககிறது
இதறகென
படஜெடடை
சவாலகளை
##சசுவல
வசியது
ஆவேச
ஜெகதசன
வேலாயுதம
ஊததஙகரை
தெனனாபிரிகக
##ஸு
##நதரகள
##ததுர
##வரவு
##வுணடன
##பபடையின
சொசை
படபட
ஏறபாடட
போலததான
சாதிக
ஸடேடிய
##ததானது
கலவிப
தலைமையின
பொறுபபாக
நிலையஙகளை
கருததுரை
மேமபடட
##ததிகா
அவைகளை
##வோரின
நிறைவேறறபபடும
கமலின
##பிரசாத
சுதநதிரமான
பகிரமான
இருககிறாள
மூடபபடடது
தேசததில
எலலாவறறுககும
குமரகுரு
சாயம
தாதா
ரசனை
ராணா
##ரட
##ஜோ
இருககான
##மபளளி
##ாதவன
சுடும
அமைவாக
தனககும
##ததிடு
பேரா
செலாவணி
தவிரககவும
செனறுவிடடு
பேசபபடும
குடிதத
அதனுடைய
அடைககபபடடனர
செலுததினால
பாகிஸதானை
நிறுததப
இறுதித
ஆஸதும
##பபாரா
அலைகக
தவிதத
பிலி
வணிகவியல
வைககபபடடனர
காலநடைகளை
பகுதிகளுககும
##வறறையும
துரைராஜ
இடதுசாரிகள
உமேஷ
##ிருககினறார
நறுககிய
சுபபுராஜ
பாலசுபரமணியன
நிாவாகிகள
மேதயூ
சிறபபமச
பொடடாசியம
செகயூரி
ஐஐடி
##காலை
##ககனி
##விககு
இடமபிடி
தெரிவிததிரு
காரணிகள
##பரஸ
கைசசா
##டசே
நிரபபும
மோதிககொ
அரசிறகு
பாலச
பாடத
துறைத
மாரடடின
##மேட
பாதிபபால
இரணடிலும
பாரககப
அதனைச
ஒதுககபபடும
உருவாககிக
யுதி
##தியமமன
##ொனறின
சமுதாயததை
பிறபபிததது
தடுபபதறகாக
எணணிககையிலான
ஆஞசநேய
விகிதததை
மனபபானமை
அபதுலகலாம
டக
##ூககு
##ககணண
##ககடடி
##ூரியில
அவரையும
திளை
அதிகாரப
மாநிலததிறகு
சாரம
அலலி
அலுவலகள
தெரியாதா
கரோல
கமயூன
மறுததார
தணணரும
பாதுகாபபுததுறை
அதிரவு
எதிரபாரககலாம
கேடடுககொள
தஙகியுளள
எரிநத
பேருடன
ஆடசியைப
கூடடணிக
நணபரகளை
அகறறினர
ஆஜரபடுததி
இழுதத
மாரகசிய
குழபபததை
விளையாடிக
மெனபொரு
சாததியமிலலை
பரவாமல
ஒரேயொரு
ஈரம
ககளின
சமுக
நதத
ஹிடட
##மெணட
##ககாடடில
##ாலோ
முநதி
##குப
##ிருநததாக
##டரில
செலவார
பணககாரரகள
களஙகம
எனககுச
பதிலும
நியமிககபபடடு
கரைநது
ஜனநாயகததை
முதனமைச
##செனனை
மணமகள
கோவிநதசாமி
பரிசோதிதத
வடிவமைககபபடடுளளது
அபபகுதியினர
மலக
ஷரம
##ெடடின
##செனற
##சசஙகம
பெஸட
போஙக
வரககூடாது
படாத
தரபபடடுளளது
கருவிய
##வுககுத
வெளியேறறி
அதிகரிததுக
##மபெருமான
##ததலாக
##ிருககக
தொடரபுகொணடு
பனஸ
மாணவிககு
அவைததலைவர
குறுகல
தொழிலநுடபததில
யுனை
ஒபபுககொளள
##ககாறறு
இஙகிலாநதுககு
திலகம
ஜபபானின
ஏதுமிலலை
##பபோலவே
வறுமையில
திருவிழாவை
ஜாகசன
தேவதான
##மாடடாரகள
அணமைககால
பழிவாஙகும
##பபவை
##ோசிஸ
கொடடிய
பிரிக
அவனால
சிபபாய
மனையில
வெளியூ
செலவதறகான
கொணடதாகவும
சேவியர
##ததிரையில
செனறடை
##ோகிரா
ஆசையை
கலைநிகழ
தஙகசசி
##ஙகரையில
கூறிக
அககரை
சுமாா
முஸத
காடடுப
அறிவிககபபடடுளள
##ேடஸ
நாடடிலேயே
வெனறனர
விளககததை
போலிஸ
வலியுறுததியுளளது
ஜலலிககடடுககு
கமலஹாச
டமளர
அலடசியமாக
##சசேரநத
தலைமுறையின
ஆகஸடு
பிரசுரம
பிளாடபார
உககிர
ஐபபசி
தநதி
முறிவு
விததை
இருவருககு
கொதத
தேடியும
##புது
கேடடும
ஒனறைக
வேலைநிறுததம
##ிஸட
ஸடாணடு
அழைககும
##ககோடட
சோபபு
சிவஞானம
வரிததுறையினர
தொலைவு
சபத
சைஸ
மாதிரியாக
கோலாக
சிரமமாக
நடைமுறைகளை
இதறகெலலாம
அவனைக
உயரததபபடட
வலுபபடுதத
பாலிவுடடில
##சாமியும
பெரமபூர
ஆகியவறறால
ஆகரோஷ
ஆபிரகாம
சகு
##பிற
##பாதை
குககர
##றிககையில
##ககளால
வைககினறனர
இடஙகளைப
மோன
வளமான
போடடனர
கோரினார
பாடினார
தாககினார
ஒவவோர
கலைப
இபபடிக
பாதாம
சினனசாமி
முருகனை
அவரகளுககுள
வலைபபூ
குணடுகளை
சுறறித
நலகிரியில
##ிககொளளலாம
சமபளததில
ராமேஸவரததில
ஒழிதது
வைததியசாலைககு
அதறகேறற
ஸதானததில
இரசாயன
எசு
ரிம
##இநதிய
போகுது
தொனம
பலூன
தேரோடட
நரால
ஆனநதி
எபபடிபபடட
##ததனார
எஙகளுடன
இனறைககும
பஙகேறறனா
வணாகும
சிலரின
நகைககடை
வைததேன
சவுநதிர
ராஜபகஸ
மடகபபடடு
பலனகளை
கிளமபியது
இததனைககும
கமபயூடடரில
உததியோகததர
சுநதரமூரததி
ரிஷிவநத
ஓரிடததில
எஜமான
வழககுபபதிநது
நககபபடடு
ரேட
லடடு
லாகக
##ககொரு
செயதியாக
தொடரநதால
இருநதிருககலாம
நடைமே
நகரஙகளுககு
உதடு
தொடரகளில
##ேஷனை
நிரவாகததுககு
பகிரவு
துபபாககியை
லேடி
வாடிககையாளரகளின
ராகேஷ
அமைசசரவைக
சிவசஙகர
இகபால
வரககததின
உலகுககு
முதுகெல
ஏமன
ஒச
##வஙகளுககு
##சாட
##களிடம
##ததையொடடி
##விஜய
புததம
பிணமாக
தரவும
சொலலவேணடும
ஜெயநத
அழுககு
பெணகளையும
கேடடுப
காரணமா
புரிகிறது
அதிபரின
கேடகபபடட
உடையார
##கொணடிருநதது
தேனகன
சோழவநதான
பழுபபு
பாசறை
அடைககபபடடுளள
நோககுடன
எறிதல
தேவஸதானம
தொயவு
திரணடனர
தஞசாவூரில
கடனுதவி
எமபிககள
##ததவிர
##வரடு
##ணிக
கூதத
அரியானா
பிராக
##ககளைப
தேவச
பாஞச
அறிநததே
அமரு
இயறறிய
ஆரின
பூடடிய
நடவடிககையின
நரதே
செயலபாடடில
படைததார
கணடுகொள
குழநதைகளையும
காதலுககு
வேளாளர
நடிகரும
ஆடசியரிடம
தவறிலலை
நடககாமல
எனகவுன
தோடடஙகளில
பாராளுமனறம
ஒததுழைகக
இறஙகினர
குறைககபபடடுளளது
பிரியதர
விசுவாசி
அபபடியொரு
நியூசிலாநத
ஓராணடுககு
தாமோதரன
ஓடடும
தடச
மடிககண
##மண
##ெம
##ஞசியம
##டடுகளில
கோன
##மானால
ஆகஸி
மணிமணட
##வாரததை
விடுவிதது
மரஙகளின
தணணா
வடுகளிலும
படைகளை
தனிநபரகள
நணபகல
##ததொகையை
பாதைககு
சமபவஙகளும
ரெடடியார
கடிகார
இநதியாவிலிருநது
பயனகள
தொகுபபில
ஒதுககடடு
இயறகையை
தேடிப
போகுமபோது
##தததைத
##ககொணடிருககிறது
தமபதியின
பேசசுவாரததைககு
##கொணடிருககிறது
மறுபரி
பூரவக
##ககுறைவாக
பாறைகள
குறுமபடம
ஒகடோபர
மோதிரம
திவாகரன
ஏனனா
##ாததம
##வடைநத
குததிய
பெட
பொணண
டிபஸ
##வெளள
வைததுககொள
##ியாங
முழகக
பெறவேணடும
புறபபட
திருமபியது
நடநதுளளன
காடடினர
உசசகடட
தணடையார
உறபததிககு
வளாகததை
விமரசகரகள
மரமநபரகள
சிறைததுறை
ஏறறிக
அவசரகால
அனபுளள
குழுவினரின
செபடமபரில
சாகிதய
எனபதனால
வெளளிப
தஙகளுககுள
துணையுடன
நாவலின
விடுபடடு
கேசவன
அரவிநதன
உருளைககிழஙகு
அஙகாடி
##படியால
##ஹரி
##ஆஆ
தெறகே
அமைததால
வைககோல
##ுமபொழுது
செலவோம
செலபோனை
முனைய
சாரநதது
இவருடன
இவவூர
தேரதலுககாக
தொழிலாளிகள
தவிரககலாம
செயலபாடட
செயலபடுததும
ஒருவரது
இதனுடன
மறுததுளளார
பாதுகாபபுக
##சலேம
வடிகடடி
சாதனம
குரலகள
புததகததின
மறறொருவர
இளைஞரை
வழஙகுவதறகான
வாசகம
விடுதிகளில
வாதாட
உளுநதுார
கோஷஙகள
பளளிககூடம
காளிமுதது
ஆதிதிராவிட
கோடிககணககில
தாணடுதல
நரபபாசன
ஹரபஜன
வமபு
##ிடுதல
##ிடல
சிததூர
##பபடுகிறதா
உடுமலையில
தினறு
படிககிற
அமெரிககாவும
வழிகளை
நடததபபடடுளளது
பெயரையும
உஙகளுடன
##பபெருகக
விழுநதன
சாலைககு
இழபபடடு
காடடுகிறார
போடாமல
ரொனால
கடவுளுககு
ரவிசஙகர
தகுதியை
சடடததினபடி
முயறசியும
ராவணன
ஸபெஷ
துணடுகள
சரசசையில
உதவியாளராக
##மாடடேன
ஆளாகினறனர
அனைவராலும
நேரமுகத
துறையூர
நொயயல
கலிபோரனியா
கொததமலலி
அலெகச
மொடககுறிசசி
வைததிலிஙகம
அழிபபு
ஆதிக
ககளுககு
ஸகிர
##னிடம
##ததனா
அதர
பாராமல
கலககி
அறிவோம
##ததிப
மதுபானம
விளககிய
நெற
தெரியபபடுதத
முககியத
ஆசிர
முறைகளில
##தாரம
கூறியபோது
##வளாக
##பாலா
வனததுறையின
அடஙகு
தேவைககேறப
சிககினார
தொடஙகியுளளனர
சுரணட
ஏராளமாக
##ிடுசசு
விவாதிககபபடடது
சதவிகிதத
எடடிப
ஆசசரயம
ஓடையில
##ஜியை
##ொய
வெடடும
##றகோ
கலயாணி
மேலதிகார
##ாளரும
நடிததிரு
நோடட
மாநிலக
##ேயாகும
ஒனறாம
நிறுவனத
விடுவதால
நாமககலலில
நிரவாகமும
உடனான
மெடிககல
துணைக
மனுஷன
சொலறேன
ஈராககில
பினபறறும
இழுததடி
திடடமிடடுளளார
கிடைதததும
ஆளுநராக
ஒததுழைபபை
ஓடினர
நரமூழ
அமைககபபடடன
ரஹம
புதைதது
பூரவமாக
யூதரகள
அரசியலமைபபுச
பிணையில
பிரதிபலிககும
உருவெடுதது
பறைசா
ஐதகம
ஜிமபாபவே
ஆலக
டரம
நவா
##ராவ
##வரததில
வெது
கோடையில
வாடடி
பொடட
##தாகச
ரூட
மணிககும
எனனோடு
சூலூர
முகதி
வலிய
நாடடிலும
தேவையாக
தொலைத
அணணாமல
கணகாணிககும
அறியபபடும
போகடடும
##தததைப
தனனைக
உதவியும
தாரா
சிஙகின
எதிரககடசியினர
மூடபபடடு
##பொருட
மோகனூர
திருவாரூரில
பாடடிலகளை
அரணமனையில
ஊடுருவி
ஹிடலர
சேதமடைநதன
நயினார
குறறபபததிரிகை
மனதளவில
அககமபகக
ஈரோ
உளளாகி
வழககும
அவவழியே
மினதுறை
##விடடுச
ஊழலில
அவருககுக
மாதிரிகள
எனபவரால
கவரநதது
நினைவுகளை
கரைதது
விளககுகளை
பாராடடும
மாதஙகளுககுள
விருதுநகரில
விடயததை
பதவியேறறு
குழபபஙகள
பிரபுதேவா
குறறமசாடடி
பழுதடைநது
விளிமபு
எநநேரமும
தமாகா
உலம
##டககம
##மாத
##ிவிடடது
##ஜெட
##ததூா
##ாயுத
##மாகததான
##ாடடததில
சிததிரம
அவரகளையும
##வியூ
ஆயவை
விலசன
கொளவேன
போராடடததால
நதிமனறஙகளில
சோழி
வாஙகலாம
ஆஸதிர
அறையின
##தததைக
சிறைபிடி
கறபழிபபு
உதவியோடு
காலவாயை
சாதாரணமான
கணடுபிடிககபபடட
தலைமையகம
ஏறபடுததுவது
ஒறறுமையாக
காசுகள
வழிததடம
எதிரபாராதவிதமாக
வியரவை
ஈஷா
தணிகக
##ுனை
தொழி
##டியைச
தமிழிலும
கலிய
தேரில
##துமே
##ாளரகளும
##ததிறகுடபடட
ஒனறைத
மாணவரகளில
மாரததா
நதிமனறததிறகு
ஆணடராயடு
சனவரி
ஜோஷி
காடசிபபடுதத
விளைநத
எளிமை
ஆசிரியரகளுககான
கைபபறறு
##வழகன
நடிககினறனர
பயனபடுததுவதால
சவுத
##கடலில
பானை
அஸதி
##பபாடும
மதியழகன
கழிபபறைகள
வாசுதேவ
திரளாக
பயிறறுவி
பிடுஙகி
அசி
சஞசி
நபார
ரிதத
##ாஙகு
##பபககம
##ளளு
செந
குயில
##ிருக
##ணிநது
பகுபபாயவு
அலுமின
புதுககோடடையில
பேசின
மரணி
ராமேசு
எலுமப
ஏறபடடிருககிறது
பதிலகள
தனிப
கிடஙகில
அமரர
நாயகக
அணியாக
ஒதுககபபடடு
காயமடைநதார
##செலவி
துவககினார
டெஸடில
சுநதரராஜ
பளூ
பனனிரணடு
முனனெடுககபபடடு
கனரா
முதலிடததை
மஹிநதிரா
##தட
##ஹரன
##ததவில
##ளளாரகள
##ிருதி
கொததடி
பிரகார
போலிருககிறது
தரபபடட
சிலபபதி
கிரகஙகள
கழககணட
வசநதி
போராடடக
##தாரரகளுககு
காஙகேய
உடலும
இஙகுதான
பயணிகளும
குளததின
அனுமதிததனர
பாரததாள
எடுததல
சைககிளை
##ேஸவரம
மூனறரை
மலைகள
ஆஸி
விவரஙகளுககு
மொழிப
நிரவாகிகளும
புரிநதுகொள
மோதலகள
சசிகலாவுககு
ஆசியாவில
விணவெளியில
பிரசனையும
விகிதா
கருபபுப
சரசசைகள
பகுதியாகும
தொலபொருள
வனனியர
போனறவறறால
ஊனமுறற
##டுவேன
##பபடஙகள
பேணட
பேரையூர
முனனுககு
அதிகாரபூரவமாக
##ேயு
இருககககூடாது
அனுர
##ககாகவே
இனனிசை
சதயம
ஆலப
வெளியேறறும
வியூக
தலஙகள
மாடடிக
##ரிடமிருநது
ரசிகரகளும
திறனாயவு
எலலைககு
வசதிகளையும
வதிககு
சனாவுககு
புளளிகளை
துறையினருககு
கதாபாததிரஙகளில
ரவுடிகள
நூலகததில
##ரததுபபடடி
பணபுகள
பெருஙகடல
விலலியமஸ
நரேநதிரம
மேனேஜர
அபளிகேஷன
வோல
##ேறப
##கனை
##ாணடி
##நகா
##விகா
பாரதியின
குறிகக
அபபர
பளளதத
விளஙகியது
##வெலல
உணவுககு
பேசலாம
பிடிபபு
சொலவதறகு
பாதசாரிகள
உயிரிழநதுளளதாக
இநதுஸதான
கூடியிருநத
தோலவியு
உரியது
கறபக
நிறையவே
##ுகதா
ஜெரமனியில
வசூலிதது
அவறறைக
மிடில
இபராஹிம
குளோபல
சிதிலம
மறுபரிசலனை
ஏறறிய
ஜஸடின
##ுகமாக
##ாமபூ
மாசில
கொடிக
##ிழநது
மேனம
காபபிய
கேகக
இதுமடடும
திருவா
திருவானம
##ெயின
சேதுர
அமைசசரகளின
உயரவுககு
கடசிப
அவனே
கொடுததாரகள
##ியுமான
இயககியுளளார
இணகக
##ககேறறி
காதலிதத
அடிபபடையிலும
இறுதிவரை
உருவாககியுளளது
நிமிடஙகளுககு
ஆசைபபடட
மிதககும
படுகாயமடைநதனர
நிறபதால
##சசாவடிகள
குறிஞசிபபாடி
ஆடடோமொபைல
இமாசசல
டோன
தடடில
நநதன
##ூனற
##பபயிர
##ிருநததை
##ிகான
##தானிய
போலியாக
##கைககு
நேரபபடி
மருததுவச
நராதார
நிலைகளை
பிடிசசு
##பபெறறது
விஷேட
விழாககளில
இனனுமொரு
சரியலில
அணியாமல
கூடடுப
தடவ
நெடுநத
ஒபபடைததார
கணடுபிடிதத
பொருததபபடட
கடடணஙகள
செயதியாளரகளுககு
படிககுமபோது
காலபநதாடட
முரணாக
ஜவஹரலால
##பபழககம
ஜாகர
கிளிநொசசியில
ஆபபரே
கநதன
ஜலலி
##நமபிககை
##டைமை
மேடச
வழநது
பலிய
##முணடு
பிஞசு
செயலாளா
எழுநதுளள
போரவையில
நிறுவிய
செலலப
##ெனக
விடுவதாக
பெரியோர
பிடிவாத
சரியானது
கிழககே
பககா
புகழை
சேவைககு
ஆழநது
தொழிறபயிறசி
இமமாத
கொஞசமும
கூலிததொழில
பதவியேறக
இனஸடிடிய
பாபபிரெடடிபபடடி
பரிசோதிகக
லயன
ஷிகர
##வனால
##ஹாசன
##ினியின
குணமாக
பலக
செயயச
##ஙகுனற
ஏறபு
##ததிண
##ோமி
சேபபாககம
நாளா
மாநிலததிலும
##ததிராய
நிகழவின
##வளிகக
கலைகள
வனபு
தனிச
##ினாலே
பெறுகிறார
அழைததுப
எசசரிதது
கனனியா
விசயம
நிறையப
கொடுககிறார
தரபபிலும
விளககஙகள
சேதமடைநதது
சுருள
முதற
அகடோபரில
இலைகளை
பதவியேறறார
திணற
காணிகளை
பாமபுகள
வாழநாளில
ஆவேசமாக
கடமையாகும
மனவளததுறை
பாதரூம
நிதயானநதா
சததி
பஹார
மமஸ
லைப
##கணம
##வவ
##றே
##ஜெ
குழை
போககி
அரசசு
சுகர
பேஸட
காலனியை
பிபர
தரஷன
நெலலிகக
சாணடி
இனததை
இவரே
மதிவாணன
நாறற
கொடுதததாக
சரிவை
மையததிறகு
பூஜையில
அதிமுகவுககு
அசா
இனிவரும
வாடச
தளளுவ
சுறறுலாபபய
மேலநிலைபபளள
மொபைலபோன
பிடிததமான
கவலையில
தளபதியாக
உகரைன
நினைவேநதல
ஆஹா
எதத
ஐவர
ஜை
மசசான
ஸார
##ருநத
செயவதே
கூடப
##வேடு
வாககில
அமைசசருககு
வாயஸ
எலலாத
##வாயம
##பபதககம
குறிபபிடபபடடுளள
##ககாரரகளுககு
பறிகொடுதத
வழியாகவும
உறபததித
அறியபபடுகிறது
வைததிருநதது
ஒபபுககொணடு
மயிர
தகுதித
கவலைககிட
சிககலகளை
சுபரமணி
லகஷமி
வேடபாளரகளின
##பாடிலலை
பாலிசி
எனபதறகாகவே
சநநி
இலககணம
பொரி
மாயன
இருபால
##பபுழு
பிரதிய
மேகால
##வதோ
காரடட
##வாகன
##ெயன
வாழவதறகு
நிறுவபபடடது
அடிவாரததில
குறைததுக
தகவலகளும
விவசாயத
நிலைத
பிரிவிறகு
படைததுளளது
எணணூர
கடலின
சொநதக
ஆயிரககணககில
ஏரலைனஸ
வளரசசிததுறை
வகுபபுககு
விபததுகளில
விவரததை
பயஙகரமான
##ததேசிய
கழிவுநரை
வலிபபு
மதுரையை
துணிகள
இறஙகினார
வசூலில
பதிவாகிய
டோலக
சேதபபடுதத
முறறுகையிடட
ஜாதகததில
குறறவாளியாக
இயலபாகவே
புததுயிர
தியேடடரகளில
ஓராணடாக
செலவழிகக
##சுழறசி
##யாவை
##றுமப
##ஞசிக
##லைகள
ஒருததன
##சுபரமணிய
தலைமுடி
சேரககபபடடனர
முனனினறு
அலசி
திடடிய
நெளி
சொலலக
சூடடு
சிறபபுரை
நாததிக
நுாறற
ஒனறுகூ
##களாகவே
கேடடாலும
தநதையார
தாமபர
மானு
கேரளததில
##வநதால
கைபபறறும
டிரைவரை
களைக
துறையிலும
வைககுமாறு
கதாநாயகி
பாசனததிறகு
உததரவிடபபடடது
யுததததில
போஸடரகள
ஹரோயினாக
ஜமாஅத
வருடாநத
விமரிசையாக
டுவ
##தரை
##நதைகள
விநாயகம
பெப
##சிபி
##சிடம
பொடியாக
அவஙகள
மூககை
திருவிள
தரப
தரபபடுகிறது
செயலுககு
செயலதிறன
சமிதி
##டசகர
பளளததாககு
அதுபறறி
சாரபறற
பெறறிருநதது
மகேஸவரன
உருகு
பணததைக
அகறறம
அனைததுககும
நினைவிடததில
கூறுவதை
##பபோனற
சிககித
கொடுககபபடடு
எதுவாக
விளையாடடுத
பொறுததிருநது
லைனில
மாலதி
தளளிவை
பரவலான
அறிவிககபபடடிருநதது
##ெணணை
தோதலில
பககுவ
அவவளவாக
திரிணாமுல
உமம
கியர
விதியை
குலாம
குறும
##பபடடணம
##ிடா
அவஸ
திருஞான
அமனோ
அலறிய
சரவர
டிம
இருககககூடும
பாடததை
வடடாடசிய
கெடுதது
ஏறபடுததபபடடது
சரிதான
மையஙகளுககு
நாகூர
பககமாக
வெளியிடபபடடுளள
அதிகாரிககு
விரிநத
வடடாரஙகளில
பேசுகினறனர
ரகஙகள
அனறும
துவஙகின
கடடடஙகளை
இழுகக
வழியிலேயே
மாறுகிறது
திடடமிடடுளளோம
தலைமையகததில
பலியானாரகள
பணியிடஙகளுககு
வெணகலம
எசசரிததுளளார
மினவாரியம
வடகொரிய
பதககஙகளை
முரணபாடுகள
கூடடததொடரில
தினகரனை
##தககது
##ராடசி
கூநத
மேசை
காா
சுதார
##தைச
சேநதம
மருததுவத
மிகஸ
நினைககவிலலை
##ககூடு
விருததி
செயலபாடடு
உதவிககு
சோடியம
மிஞசிய
காடடாமல
சமபவததனறு
தெருநாய
பயனிலலை
வடிவஙகள
ரசிகரகளிடம
சூழலியல
இருககினறாரகள
கிணறுகளில
விருமபுவதாக
ஜாலியாக
நிதிஷகுமார
ஒரிஜின
விலலியனுார
அபில
மசை
ஹமப
##சென
##டடததை
##ிருபபின
துபபு
செயயாது
பாரககிறது
மனோர
படாமல
சேரககவும
தேரவெழு
செலவராக
கொணடுபோய
பொருடக
பெணகளில
சடடமா
நரக
அறிவிததிருநதார
தூஙகிக
செயயபபடடிருநத
வெளளப
காரணமும
சமபவததிறகு
ஒளிநது
நணபரகளின
குவிணடால
உணடாககு
மகளிரணி
கோடடையில
சிகிசசையை
நிழலில
புழுதி
பெடடிகளில
பைரவர
ஷெரப
சூளகிரி
ஹெனறி
உறும
எமபெருமான
ஸவி
##ழும
##சசாரி
##சசேரியில
##பபுததக
வேபபூர
தனககென
படையை
##ேனு
##வாகவே
அபபோஸ
கணவரும
##காரடு
மாநிலப
பெறறேன
இருபபிடம
தகனம
ஆசான
விருசசிக
காயசச
பஸஸில
வியூகம
தலைவரகளுடன
அறியாம
இயறகையாக
பாதிககபபடடனர
யானையின
நாடடிலுளள
ஒபபுககொணட
பேருநதுகளை
தககது
அமமனை
விருபபததை
சாடடினார
இருபபதைக
சாவக
##பபோனது
புனரமை
ஒடிச
சிறபபுரையாறறினார
முரசொலி
நபாரடு
எஙகளைப
டெய
##சுவை
இருநததிலலை
வெணடை
ஒருவனை
மேகத
கோசச
கோவிட
##ாடடோம
முதலவருமான
வைபபதறகு
கைதிகளின
பயனபாட
நிலைககுத
##வானாக
நினைசசு
##பாரமர
நதிமனறத
காவலாளி
அடையலாம
அஙகிருககும
திமுகவுககு
அபிபபிர
ஆகியவையும
##வதறகாகவே
சிறிதாக
புரிநதுகொணடு
அகறறபபடடு
பணியாளரகளின
தெரிவிதததால
வியாதி
விருபபமான
கேடபார
வசூலை
இபபகுதிகளில
விகனேஸவர
நியூயார
உளளுராடசி
நேரததிககடன
ஃபு
கினறனர
டபுள
##ோககி
குன
##மபடடியை
திருவரு
எதிரவினை
##ணியினர
கிரஸ
பாலககோடு
##சனல
எஸடி
தினககூ
விவசாயததிறகு
விறறது
உயிரகளை
உணரவும
சொலறது
மிஷின
தருவார
ஆராயநத
குறுஞசெய
வடிவஙகளில
##படசததில
துபபாககிகள
ஆதிதயா
##பூச
இயநதிரததில
பொனமுடி
கொணடுவரபபடடது
தனுசு
செலுததுவது
நோயாளிகளின
இடமாறற
சுடுக
கிளரசசி
துடுபபெடுதத
சிஙகமபுணரி
எவை
வணடல
##ஃபோ
##ையொருவர
கொஙக
தொடடியை
##வதையே
தனியான
##கைப
##ாபால
பரகூர
கிராமக
பாடததிடடம
##தததுககும
நாடடம
படைததது
முயறசிதத
எனனைச
கோவைககு
புரணடு
பாஜகவினர
குழுவாக
##சாநத
வெளியிடடுளளன
பாடலகளும
வலைபபதி
மாணவரணி
பலகலைககழகஙகள
##வுளளோம
வேணடுகோளை
அருணகிரி
நிலைமைகள
பஞசாயததில
மளவிககபபடடது
பிரசசாரததை
கொடியேறறம
ஜாதவ
மலிவு
கேரகடரில
ஒளிர
தலைகழாக
நனறு
##நெட
##உளள
##விதிகக
சுகன
போரககொடி
நகராடசிய
கிடைபபதால
செனறிருநதார
புதுார
ராமா
மெகஸ
##பபாணடி
கலவிககு
நோயத
வனத
##ததிருநதாலும
ஏறபடககூடிய
களைநது
தெரிவிததனா
சுருஙகி
மரணததில
காயசசலுககு
ஆரமபிசசு
பஜாஜ
கனடாவின
இடமபெறவிலலை
சுநதரே
பாதுகாவலர
தெருவிளககுகள
திடுககிடும
எகக
ஜொலி
மடு
ஸவராஜ
##ஹன
##பபிறகான
இருணட
##ையிலேயே
சிககும
பேககரி
காலஙகள
##ததுககுளி
ராஜித
தறபோ
தினஙகள
தவிரவாதம
பேசினாரகள
எனபதைச
விபததுககு
புறநத
##படடியை
முயறசிகக
திரைபபடத
அபிராம
போலஸாரிடம
அடையாளஙகள
நாடகளே
கோலடன
சநதேகநபரகள
கவிதைகளை
விளககுகிறார
பெயரைக
##ொருவன
கிளமபும
கஜேநதிர
அனைவரது
ஆராதனைகள
ஜாமினில
மாததிரைகளை
கடடிலில
உபகரணஙகளை
எலகடரானிக
இவவாணடு
மேறகூறிய
ஃபா
ராஸ
முகா
கொககு
கொறற
ஒருவகை
இடமான
இருநதுளளனர
உடகொள
உடகடசி
சநதையை
அலச
தொழிறது
இருககககூடிய
தொடரகள
பரிம
நிலைதான
வேலைககுப
வழககுபதிவு
ஜெயபபிர
உலகபபோர
புலிகளுககு
காதலரகள
கிருஷணகிரியில
அணைககடடு
புரிநதுகொணட
பிரேதப
நடைபெறுவது
மரணமடைநதார
வாடிககையாளரகளை
காஙகிரசில
ஆஸதிரேலியாவுககு
எபபடியெலலாம
இனியாவது
##சசிகரமான
தேனாமபேடடை
அபபோஸதல
உஙகளில
நடுபப
பபபாளி
ரபேல
##ழகர
##வசச
##ததாம
##ானில
ஒருவழியாக
கருததிற
சேவாக
மோபப
ராஜலடசுமி
நிகழததினார
அறிவிபபும
தொடரபிலும
கிராமததுககு
எபபொழுது
பொறுபபதி
ஏறபடடிருககும
##பபோகிறார
கவனததுடன
ஆயவுகளை
கொடுககல
ஆடசிப
மலைககு
ககுப
##ததேவன
##பபதைத
பொறுபபுகளை
வேறெ
உயரததபபடடது
மூனறாமிடம
இதழின
பிரதிநிதிததுவம
மஙகளூர
அரசசனா
காபபுரிமை
ஐதராபாததில
ஊறுகாய
ஓக
ஜட
மசச
##ெடடுகள
##ியக
##பபிறகும
##ையாமல
விநது
குய
##ாவம
அபபாவும
செலகள
கைவசம
டிஎனபி
##சைதது
களு
பாகததில
சுறறுல
கேடடாரகள
நலபபணி
சிககலில
டாகசி
உறுபபினரான
வளாகஙகள
##பபிரதேசம
##பபாரகக
இசககி
படிககலாம
காளையார
பாணடியா
##விலலாமல
கொடுபபதாக
பதினாறு
ஃபேஸபுககில
நெசவு
பலவனமான
ரிகடர
குளியலறை
இககோவிலில
ஸதமப
நிலசசரிவு
ஸடூடியோ
கெஙகவலலி
பொககிஷ
வாராநதிர
புகாா
சோழிஙக
ஜோல
##ிககார
##ககளம
திருததும
##ாரகளின
காரிம
##ிதாவின
##காரர
இலலற
பிறகால
வயசுல
கேளவியும
விழுது
பிளகஸ
பதவிகளில
கதைககு
வசிபபவரகள
முறையிலும
இநதுக
நணபரகளுககு
கடடிப
நாரவே
விருமபுகிறார
ஹைடர
அருணாசலம
##செஸடர
##ாஷடிரா
பிரதிநிதியாக
உததவ
உறிஞசி
சுதாகரன
ஹிலாரி
##ககுடுமப
ஜபதி
பானம
வந
##மால
##பபாது
##ஙகுககு
##வராகவும
##திடடம
வைததல
திருவாத
படததுககாக
பொருநது
##டடைகள
வாயபபே
நிறுவனததினர
குடுமபமும
அமெரிககத
கிடபபதால
கேடடுககொளகிறேன
தருவாயில
அதிகமாகக
மானிட
அசததிய
கடனாக
பறநத
அழுகிய
தடையும
தொழிலநுடபஙகள
மேறகுறி
##விராஜ
லோகசபாவில
ஒபபடைதது
இனனொருவர
படிததுவிடடு
சநதேகமும
படபபிடிபபை
மாரககததில
டெலிக
##ிராஜன
கெளதம
இததிரைபபடததில
மறுமலரசசி
பளமேடு
ரிஷிவநதியம
தவை
ஷாருககான
ஸன
##லையா
##ஷியன
எணடு
##ாளியை
##வரகளாகவும
பிரஷ
##ழுததம
வாதிகள
அதிகபபடுதத
அறிஞ
மேலதிகமாக
காரன
நேரததுல
வளஙகளை
உயரவால
நராட
நரகொ
ஆலநதூர
ஆசிரியா
களஞசிய
தனிம
எஙகளுககும
சமபவததால
தலஙகளில
ஆராயசசிகள
மனமாரநத
வாசிகள
கடடித
நெடுஞசால
மயஙக
இடமபெறறன
தேரநதெடுககும
நியூடர
துவககபபளளி
ஓவியர
பகுதிகளான
##ிககிறோம
அரஜெனட
மேனமுறைய
வசூலிககபபடும
ராஜவகாநதி
கடடமைபபை
பிரமாணடமான
சதுபபு
அவறறுள
குடியிருபபோர
களிமண
அடியை
##ணைய
##கிராம
செமபர
##விடை
குவியும
கூவம
உளளூரில
இதயததில
செயயுள
ஆகலாம
அபபோதெலலாம
போரசசு
இபபகு
##வெபப
சாரப
படடால
குடிததால
நடததலாம
கலைதது
மணசரி
இரணடே
அமைபபுச
அபூ
பததிரபபதிவு
பெறுவர
##ததுளளேன
##ஃபோர
பயணஙகள
பொழுதுபோ
கணமாயகள
தானியஙகள
நாகரகோவிலில
நகருககுள
உருமா
முகநூலில
அதிய
சாடடி
டபிளயூ
துககு
ஷோர
##ஸடிக
##சததை
##ககையும
இருடடு
உளளு
மேககப
கோபபுகள
பலவும
சிஙகா
சிறபம
##யரநத
செயலாகும
சிலவர
சநதையின
அலறி
முனியா
அரசைக
நமஸ
எடுககக
பகவதி
நிறைவாக
கணடுளளது
வைககாமல
##ககாரரகளை
பாரததுககொணடிரு
அபதத
ஆடசிககாலததில
கணடிபபா
தடவையாக
##ியரின
போடலாம
பாஸபோர
முதலமைசசரின
பிரதானமாக
இறநதவரகளின
செமமண
யுததததின
திருவிழாவாக
குறறமசாடடினார
தரமானிககபபடடது
படடிமனற
சையத
டியூப
உததேசி
ஈடடு
படியாக
##ேனை
##றலகள
##டனின
வாணல
சிறல
##பபடுபவரகள
##பென
சநதா
தோணடிய
குடுமபஙகளில
கடடுநாயகக
உணரதத
செலலுமாறு
வரவேணடிய
ஓடடுநரகள
ஓடடளிகக
பைலட
குருவின
மறையும
சோதனைச
மேறகுத
செயறபடுதத
ரொம
நடககவுளளது
கொணடாடபபடடு
ஒலிககும
கொடுபபாரகள
உபயோகி
துடிககும
நிஜம
பதறறமான
சிதரவதை
கணணாடியை
##ராதபுரம
உளுநதுாரபேடடை
##மறை
##யததின
##வற
##பபணியில
##ிறோம
இருக
##றபததி
பிரபாஸ
##ததினான
அதிகமுளள
காரம
கிடடு
திரிஷா
கிரகம
தோய
சூலை
சஙகததை
முறையின
உதவிகளையும
ஏறபடடன
கருததுரு
திருபபதியில
போனகள
உணவுத
##வுடனும
ராததிரி
கலெகடரின
கானடராக
தொடககபபளளி
##நதாஙகி
மகாவி
நடைபெறுவதாக
இறநதுவிடடார
##போரடு
பயிறசியாளரகள
ஆகிவிடும
பாசனததுககு
அவளைப
கனனியாகுமரியில
சாபம
புவனேஸவர
எழுதினேன
முடடுககடடை
நஜ
நதிய
##இய
##லலாமல
##ிடஸ
முதலநாள
தரலாம
காரடை
பேரழிவு
கருககலை
சமிக
மாணாகக
கணககுப
##லகொ
அலறல
திடடஙகளும
அனைததிறகும
இபபகுதியை
உணவின
பாலாஜ
தெரியாம
லடசமாக
தஙகளால
கேடடுககொளள
எணணெயில
குழுககளை
##ககுளததில
வினோ
ஒதுஙகிய
போடடுககொணடு
வெளியிடவிலலை
பொருளாதாரத
வருவாயததுறையினர
ஏபரலில
விபரககுறிபபு
முறையறற
உனனால
தாககியதாக
ஒறறுமையை
கௌரவி
இயஙகுகினறன
முதுகுளததுார
இநநிறுவனததின
டப
பறப
படியே
ரததக
##ேலா
##லெட
விதியின
##வுககே
அரையா
தனககான
தெரிவதிலலை
சொததுக
கொணடை
மினக
காணபபடடன
கொளகினறன
சிகசர
##நததாகக
மலடி
வாஙகிககொணடு
வேடபாளருககு
திருமணஙகள
மாறிவிடும
நியமிககபபட
பலலவி
ஆணையததிடம
நடிகையும
இஸலாமாபாத
பொனனமபலம
சிததபபா
தேஙகியுளளது
காடசியளிகக
செயதுளளேன
குடுமபததினரை
திருவிழாவின
முடடைகள
வலலுநர
நேபாளததில
உததியோகததரகள
எவவாறாயினும
ஏசு
##ஷவநத
செண
பிரிடஜ
எனறெனறும
##ததினேன
பாரபபதறகாக
அறிவார
போலட
அவரகளோடு
முடிஞச
கடடவிழ
விலையே
சொலலுமபோது
செனனைப
பழன
நினைவிட
அதிகாரிகளுககும
கொளவர
துவககபபடடது
ஜெயலடசுமி
##படிக
மதிபபும
சோதிகக
வனமுறைய
அணணி
மணபுழு
தாயமொழ
எதிரபாரககும
எதிரபாரககவிலலை
இழககும
##மையாகக
சாதகம
##பாடுகள
ஊடகஙகளின
##ெழுநத
சநதேகநபர
தனககுத
பிடச
விலகினார
குறறமசாடடியுளளார
வயிறறுப
ரெயிலவே
பரஸபரம
நிலபபரபபில
தேரவாணையம
புருஷோ
மிதுன
ஆயவாளா
ஷான
##மககள
##கஙகளில
##ளவை
##ககாரி
வேமபு
கூபபிட
உளளாகக
##ிககிட
##கரின
காரமடை
கிளளை
பகுததறி
##ஞசை
வநதே
வநதவாசி
##ருககுத
விரும
உயரததும
பிறபக
வயலின
ஊரே
நிரவாகஙகள
ராமலிஙக
சோஷ
இலஙகைககான
##ததனூர
கேரளம
விளையாடடுவரர
நனறியை
முததுலடசுமி
மூலமாகவே
நோககமாக
சநதிததேன
முடிநதுவிடடது
சூரியனை
வெறறியைப
கடததலில
காபபகம
வழிபடடால
பிரமாணடமாக
மோதுகினறன
அறிவாலயததில
லில
வததிராய
##நதூரில
தொனி
##ாடகள
வழததினர
வாழு
##தானநத
சிறார
கலககிறது
படததுடன
தெரிவிககிறார
கருதும
திவாரி
சநதைகள
கைபபிடி
தோனியின
##வுககுச
கொளளத
கூடல
லடசததுககு
நலலதொரு
அவனின
விஜயசேது
சனத
காமர
இணையமைசசர
பெறுவோம
##றறினாரகள
செயதிருநதால
செலுததபபடும
சகதிவாயநத
புகழும
ரிசார
சிததரகள
படகுகளில
கதாபபா
##ிருககிறதா
வாககாளரகளை
கடடாயபபடுதத
இருமபுக
ஆதரிககும
தஙகியிருநது
அறபுதமாக
தோறகடிதது
பேரரசர
முனனோடியாக
சநதுரு
மகரிஷி
சுககு
தஸ
##ிறேன
##சசிககல
மாபபிளள
தொணடி
வருதல
##பரக
செலவும
கடடினார
நமககுப
விவசாயததில
உயிரணு
சாரபிலும
முடியுமோ
பயனபடுததபபடடது
ஒனறுடன
வெளியேறியது
அலுவலகஙகளுககு
மலையை
மைநதன
வேலையாக
நாயனார
வகிககிறார
இனிமையான
தூரததுககு
பணணையில
சநதேகஙகள
வாழததுரை
விசாரிதததில
சுழனறு
சாடடியுளளார
உததேச
தகுதியுளள
நிரவகிகக
வயதிறகுடபடட
ஒருபககம
பளளிககலவிததுறை
கலபனா
விகடோரியா
ஜாரகணட
டிரி
நினறனர
நழுவ
##தாள
##ஸகோ
##ியகக
##ோனில
புணர
வெனி
##வைகளை
பேல
திருசசு
இலு
அமே
எதிரதத
மதுளள
எழுதிககொ
நடிகன
உணரும
வரைநத
உருது
##ெலலா
##பபடடுளளமை
கொளவதும
பயனபடுததாமல
நடநதபோது
ஸரதே
பாதிககபபடடுளளன
மணலி
டிராவல
நாயகளை
அஙகமாக
பதவிககான
உசசரி
உணமையா
சுயமாக
நனறாகப
இருபபதாகத
கழுகு
யூனி
டாலராக
உயிரிழநதவரகளின
உனனிடம
தஙகியிருககும
அகமதாபாத
பவுணடேஷன
சருமம
கேனசர
அஷவின
முதுமலை
தினகரனின
##றறொழில
பககவாடடில
பலதரபபடட
காலககடடததில
##கனி
பெலல
சுவரை
கேலக
##லமின
##ிருநதாள
நோட
தொடருநது
தெரியலை
விடுவர
நலலெணண
காயகள
தேரவுகளை
காவலநிலைய
பாதிககப
கொடுததவர
##ியுளளேன
சனு
கேடடுளளனர
பாரககவே
வாயபபுணடு
குழுவும
##விருககிறார
பாடலாசிரியர
பயனபடுததுவதை
எழுததுகள
தமிழரசன
உடபடடது
ஈழதது
விககெடடுககு
தொழிறசாலைகளில
##பபாடம
வதககவும
வெளியேறினர
ஹரிஹரன
குடியேறி
வடகிழககுப
அரஙகேறற
வருஙகாலததில
தசாபத
சுநதரி
அநதஸதை
வானூரதி
ரஃபேல
நகலை
##ிரல
குசசி
செயவரகள
##ாவோட
நிலஙகளுககு
துலாம
இராவ
##ணடிக
கைக
மருதம
டிஎன
விலையு
##வாரியாக
செனறுவிடடனர
நலலெணணெய
புதுசா
சிறுதானிய
ஊழியா
கொடுததுக
தொடஙகபபடும
பெறுவரகள
தவறாகப
மடடெடுகக
பாரவையிடு
இமமுக
அடடைகளை
அடடையில
எலுமபுகள
கிரகணம
வாரததையில
வரவேறகததககது
நிபநதனைகளை
தறசெய
அனிமேஷன
நஜி
##பபடடதை
அதனம
##பபடததின
பிணம
மனநிலையை
மககளுடைய
##னமாரக
நகரமாக
ஊரணி
##ாஙகம
##வருடம
கூறுகள
அழியும
தனிசசிற
வைககவிலலை
##ிருககார
விதிககும
ஓரமாக
முழுநேர
சினனாள
##ககளைத
வணாகிறது
இநதுததுவ
##ழுவதும
வைததாரகள
##தொடரபு
நோககமாகும
படுததிய
##ததெரி
அகரஹார
உறைநது
கரபபிணிகள
புழுககள
திருவனநதபுரததில
குமபகோணததில
வாரணாசி
பிரததியேக
கணடும
சாகும
யால
##கததுககு
##யமா
##ாபபு
##ையாலும
##றுவது
வெணம
##னனன
##டியு
துவர
முதலடடில
வேணடுமெனப
இடஙகளையும
திருநத
மாவடடஙகளைச
செயதுக
திடடஙகளையும
பூமபு
அடிசசு
பரிசில
பரிபூர
பெறறுததர
அடைநதுளள
உளபடட
அடவைஸ
ஓரஙக
குருபகவான
நடுநில
மதவாத
ஏறறது
படடுளளன
##ையோரம
மெயினர
மரணமடைநத
பெரியாரின
குடுமபததினரும
கலநதுகொணடார
மேமபடுததபபடட
சாவடியில
வளரசசியின
விழிதது
##பபுலன
அறுவடைககு
புனரவாழவு
மினகமபஙகள
திரிபுரா
பஸஸடாணட
தேவதானபபடடி
##உதவி
ஒருவருடன
##மாகஸ
காலமான
செயலதிடட
மோகம
வளையம
பதறி
கோயிலுககுள
தயாரா
கேடடுககொணட
பறறியது
##பபடுததுவதறகாக
நடததுவோம
கவுல
மாணவியரின
மேறகூர
தைவான
தெளிவாகத
உறசாகததுடன
##எனஎல
மூடடைகளை
காடபாடி
புனனகையுடன
போடடியினறி
சிதமபரததில
அததுமறல
குரோமபேடடை
சவாலை
கோவாவில
சமூகவலைதள
அலகாபாத
தேனகனிககோடடை
இததொடர
உசு
வதிய
வடும
##றதுறை
##ஷனை
##ுமாறு
##ததுதல
செநதூர
செஞசில
##ாயிருககும
பிரியம
தேககரணடி
கேழ
##லமும
நானா
கடடிகள
நென
மிகமிக
பரிதவி
பாதுகாபபும
கெல
சிறுவரகளை
பயனபடுததக
இயககத
##ககாரணம
பறிததுச
சினனததிரை
எசசில
எளிது
நினறான
சுறறுலாததுறை
சமரவர
நிதியாணடு
வலுவிழ
ஏறறுமதிய
போடடியிடுகினறனர
சோரநது
நஷடஈடு
முனனெடுததுச
நிதியிலிருநது
வறுதத
பததிரிககையாளரகள
துணடிதது
##சொலல
அசுதத
மிடடாய
மாரடைபபால
இளையானகுடி
இதி
ககளும
நவர
##ணயா
விஐ
வேலம
மேஜை
பாசு
தலைதூ
பிஙக
எதிரபபுகள
திரௌ
திணிகக
அரசரகள
##ியாகவே
கிடைததிருககிறது
பதிதது
விவசாயப
ஜெயபபூர
ஜெயஙகொ
விடபபடடு
ஒருவரையொருவர
தேரவுக
வெளளிக
திருபபித
திருமபிக
மேறகொளளபபடடன
மறைவுககுப
காடடின
தொடரபுகொளள
உயிரிழநதது
அழுகை
வெளியிடடனர
சிறைசசாலையில
அலைசசல
துரதிர
பிடிககாமல
சவுதரி
வைததியம
நடிகரகளின
கொடுமைகள
மருததுவரிடம
கதாபாததிரஙகள
கோடமபாககம
##சூழ
ஜாகடோ
கலவரததில
அனுபவிதத
பயிறசியாளராக
துஷபிரயோகம
பெருமூசசு
சொததுககுவிபபு
ஆஸதுமா
யுதிஷடிர
எநதிரன
பதியில
வகக
##ூறறு
##இர
##இது
முபப
##ணடவர
குணடம
##சிவன
கடறறொழில
##வைககபபடட
##முனா
அவகாச
தெரிவிததால
##னபேடடை
##ததிககு
மாவடடஙகளின
பகுதியினர
##ஞசாவடி
##டசாமி
பரஸட
வளையல
##சைட
ஊரல
பாடியுளளார
கடைசிய
உறவும
பொறுகக
ஸரநி
மிச
சிககலை
விறபனைககாக
ஆபகன
காடசிகளும
##மிங
எழுதியிருநதார
அரிதான
செயதிருபபது
செயதிருககலாம
தூரததிறகு
கறபழி
பெறுமதி
நினைவுச
ஆதிவாசி
இருபபதாலும
முககியமானவை
நமபிககைகள
பேசசுவாரததைகள
திருசசப
ஆதவன
உரிமையாளரகளுககு
அறிமுகபபடுததபபடடது
அரஙகததில
நெசவாளர
தாவூத
கடையநலலூர
விணணபபதாரரகள
வைணவ
ஹாரிஸ
சாகலேட
##ளிபகாரட
ஜரோ
தழு
##ிளா
எணட
##ிருந
போவதாகவும
கொதது
##மைககாக
உளளிருபபு
துாகக
திருபபா
செயலாகக
நெஞசம
பாலும
##கோஸ
தெரியவருகிறது
அதைபபறறி
ஆலஙகுடி
கூறியிருபபது
கணடறிநத
உணரகிறேன
##சலயா
படைத
##கூற
மூலககூ
குறிபபிடடது
வெளியிடபபடடு
படுகொல
மாறறுவதறகு
##பபாடுகள
##ோடின
கறபன
துவஙகினர
இருககிறதோ
ஜனநாயகததின
இடிநத
##பபோருககு
கடடிடததின
தோழிகள
தெனமாவடட
கரபபமாக
ஜமாப
மஞசுளா
மூளையின
வாழைபபழம
முனனிறுததி
தனனாரவலரகள
இககூடட
சஷ
நியு
ரியால
##லடு
##சவ
##ஃபை
##ஃபல
##ஆப
##ாரட
##டிப
##வதறகே
செயயவே
செயயாறு
காலததிறகுள
##ணணர
திருவர
திருககுர
படததொகு
கருவில
குறிததுக
செயலபடடார
##வுகளையும
எதிரபாரககிறோம
சமபவததின
தொடஙகினேன
##பபிடிபபு
பததிரிகையின
எசசரிககையாக
சநதேகமே
முறபடு
தளளிப
பரிமாண
நனமைகளை
செயலபடடால
கணமாயில
தோடடககலைததுறை
சேலைகள
புறமபாக
சாவிததிரி
உரையாறறுகையில
எதனையும
அழைபபிதழ
பானுமதி
டரோ
##ியட
எணகளில
பெசனட
வழககாக
மூடும
##டிககபபடட
இநதியனஸ
உருணடை
பணறது
காணாம
பெரியநாயககனபாளையம
கொணடிருபபதாக
கடடுபபடுததி
##மனையில
ஏறபடுததபபடும
பெறபபடடன
ஆணடரசன
பாதிபபில
புலவ
இயலாமல
புனசெய
ஞாயிற
ஆளுநரின
பயிறசியின
சாதிதது
பூரணா
ஏரியா
சோதனையின
விலஙகுகளை
விலஙகுகளின
நிகராக
தொகையும
வாதிடடார
அனைவரிடமும
எதிரகடசிகள
குஙகுமம
வாககெடுபபில
பசசிளம
சிறைததணடனை
ஏஙக
ஏவு
சசசர
ஜாப
##மையே
##நமபிகக
##ஸதல
##றறர
குவைத
##சசியம
மாணட
பாடடுககு
பலரிடம
வருவர
இதுநாள
##ஙகுடு
இயலாம
##ளைக
கைலா
சேதது
சடடில
##ககொடு
அமைசசரகளை
தயஙகு
இருககுமாறு
எடுககபபடுகிறது
ஆணமை
அடைகினறனர
மாரககம
##ுடையது
மறுசுழறசி
படைபபாள
##ிலலையா
ஜெரு
குழுககளுககு
##வரிச
பததிரஙகள
##கொணடது
சநதிரயான
சநதிததுளளது
ஊழியரகளிடம
சுயாடசி
தளளபபடடுளளனர
உதவியால
மேறகில
பாவன
மகாஜன
##ஸடரோ
பரிநதுரைகள
நெடுஞசாலைகளில
திருசசிரா
ராசிககாரரகள
##ககலலு
படடாசுகள
##ஙகுவதறகு
வளரசசிககாக
தரிசிதது
தெனனாபபிரிககா
வெளிககாடட
##ஙகானாவில
ராபின
சாஸதா
நிரவாணமாக
வெநநர
படன
மதததில
##மருநது
##ளவான
##பணட
##ததகுநத
முநதிய
##ாயினர
வேஙக
தொபபி
##ிகே
தலைவல
தனிக
சிறுதத
பினவாஙக
போரா
சமபியன
பெறறிருககிறது
அமைசசரை
நமசசி
இருககததான
நிகழகிறது
அகஷ
நிலைநிறுதத
கலலால
வளரநதது
நலலதலல
##ததிருதத
குடிபெயர
விடடாலும
குடுமபஙகளை
அனுமதியுடன
சிகஸர
ஏறபடடாலும
சனுவ
ஜோனஸ
பறறியே
மாறினார
பிரேமா
அவறறைத
முனவைததார
கொடடியது
தரபபளிததார
செயறகைக
சூரியனின
வசூலிககும
சுனாம
இடுபபில
நிபநதனைகள
ஊடுருவல
கையகபபடுததும
அருஙகாடசியகததில
தபபியோட
பைனானஸ
சேநதமஙகலம
##கஙகளை
##பபவரகளின
##ாகோ
##வரஸ
##றறவரகள
##றபடடு
##கரையில
திருதர
பினதொடரநது
இவனை
நரநிலைகள
வயதின
தூஙகும
லடசககணககில
வெளிபபாட
பதரி
நினைததது
வாகை
டெனமாரக
தேவாலயம
வடமைபபு
பாதிதது
வாஙகாமல
பாரககையில
மேறகொளளலாம
மறைமலை
ஆயிரததை
மககளுககுத
கொலலும
புகழாரம
பிடிககாத
இளைஞரகளும
இதறகமைய
கொளளையடிதத
எதனால
நடுநிலைபபளளியில
இததிரைபபடம
ஏயபபு
ஏரோ
வஸ
##ெள
##விறகான
##றார
##றுகினறனர
##ாமஙகலம
குககிராம
##ுவதாக
காபபாளர
##சுநதரி
அமைததுளளது
அரசுததுறை
நோனப
##ககிப
நரேன
அறிவிததிருநதது
பதினம
நிரவாகத
##ிடடுக
செயலபாடடை
சமூகததைச
##ததலும
வாககுகளும
விதிவில
விதிகளுககு
கிருஷணகுமார
வகைபபடுதத
இசைப
குறுவை
வாஙகிப
கருதபபடடது
எலலைகள
கொடுபபோம
திருபபிச
பாடசாலைகளில
பிரசசினையாக
உனனைப
பிரானசு
இததாலிய
வரவேறகபபடுகினறன
சரதிருததம
அரேபியாவில
ஆடடமிழககாமல
தரபபினருககும
புறமபான
இவறறையெலலாம
நிறைவடைகிறது
வறுதது
ஸரபெருமபுதுார
அசோசியேஷன
நதியரசர
ஜஸ
##ிராப
முததலாக
விருக
வரடடும
##ிககடை
வேணடுமெனில
##ளிபபதாக
சிமர
பேஷன
கிரம
கிரிக
நகரமான
போனறவையும
இறஙகியது
சினமய
குழுக
ஒனறியததுககு
பெறறோருடன
இநதும
தொழிலநுடபத
தெளிதது
நெடுஞசெழியன
தாஙகாமல
ஏரிகளில
ஆரவமுளள
திரிநது
ஆதனம
தடடசசு
ஜாபர
பனறிக
தருணஙகளில
குடிநருககாக
பனமரததுபபடடி
தபாவளிய
புரொடக
செணபக
ஃபால
##ஜஜ
பாரஸ
இலையை
காரியால
கூறபபடடிருநதது
எழுததுப
சரள
##லாறு
நெபபோல
வளாசசி
கொளளபபடடது
##ோதெர
பணபபடடு
சஙகப
குடா
ஆரமபமானது
அருளிய
சகஸர
கொடுககவும
எடுததேன
அமமாவிடம
சுயசரி
உஙகளுககுப
பிரிவிலும
முடககம
தினகரனுககு
குலசேகர
செயலபடவிலலை
ஆடிடடர
பெயரைச
அசசுறுததும
கொனறது
சிறுநரகம
எலலாவறறிலும
சேதபபடுததிய
நாலவரும
தூககிக
நஷடததை
சரிபாரபபு
பிரிவுகளாக
கலெகடருககு
தனிமைபபடுதத
திருததுறைபபூணடி
பிபரவரியில
ஜாககி
டட
று
லெக
ஸபின
##யுதத
##ரத
பாஷா
படல
##கமுவ
விரடடு
விலகல
ராஜக
கிடைபபதில
பாதுகாககவும
இனவெ
நினைககிறார
பேசவும
முதலவரிடம
பிடிபபது
சிககிம
தடைவிதிகக
##ிககொடுதத
கோரிககைககு
##ிருபபரகள
உரிமைப
ஒபபிடும
சுயநிதி
அறிமுகமாகி
ஏறறததாழ
கேடகிறது
ஜூலி
நமபிககையோடு
தமபதிககு
அதிகரிககபபடடுளளது
தெரிநதவரகள
காரியததை
வேணடிக
பூஙகாககள
முறறுகையிட
ஆபபிரிககாவில
மேறபடிபபு
பலகைகள
ஒவவொனறாக
விடுதலையை
நிறைவடையும
காலகடடம
தாஜம
மேகதாது
ஒனனும
பஷர
ஹைக
##ொறி
##ிருபபான
வரவிருககும
பொததான
தமிழறி
மனமும
மேலாண
தருமபடி
சொலலபபடடது
படடினி
நிறுவனததால
இனட
குடிநா
முறைபபடுதத
எலெகட
சிறுகத
##ியுளளாரகள
##சேவை
மானம
குறுகக
கொடுபபதறகு
புளளியியல
கடுமையாகப
நெலசன
குறைநதுவிடடது
##பபளளம
##சேனா
அமைதிப
முறையிட
தனிததுவம
பலியாகியுளளனர
பனறிகள
வாயபபிருககிறது
துலலியமான
மேஜிக
அதுமடடுமலலாமல
ஒடுககுமுறை
சகிபபு
தெனறல
தவிசாளர
கினறன
ராகி
##ோவ
##ையனை
இருநாடு
தொடுதது
##ாவதும
தெரும
தேவியின
##ிடடர
செயயவேணடிய
##ுமபோதெலலாம
கேஷ
கேபின
மணிககே
அடிபடட
விழாவாக
நினைவ
ஜெயஸர
##வருவதாக
கொடுததான
கிடநதன
தாயககு
அடவான
முயறசிககும
சுகாதாரப
##பபேடு
மகிழநத
புதுசசததிரம
ஆராயசச
படுகாய
ஆகியவறறு
குவிகக
சிநதனையில
நாரசசதது
பாயநதது
புதிது
எழுததாள
முதனமைத
முனைபபு
விபரதம
லகஷ
உமாம
கூடடமைபபினர
##ிககொணடிருககும
பிரானசின
ராணிபபேடடை
பெலட
உடறபயிற
##ாமபிகை
உணவகஙகள
##முயறசி
வடபழனி
அமான
ஒலல
ஜனனி
மளம
ஹமது
##வடைய
பெனன
##ாயசசி
தொடடில
##மாகியுளளது
கோதா
வேணடுமெனறும
கலகு
அனலமின
செலவுககு
திமி
எழுபபின
மிகையாக
நிகழநதுளளது
இதனாலேயே
முயலும
அதிலுளள
வேணடியவை
##நததன
மணவாள
போயிடடு
முகாமுககு
பேருநதை
பணணுஙக
சணமு
டரெணட
செலவககுமார
##ததளததில
##விலலாத
ஏறபடுவதாக
அதிகளவிலான
கடடாயததில
அறுவைச
கடமைகளை
அவசியமானது
அடியெடுதது
வாஙகுவதறகாக
கசசததவு
புளோர
லூயிஸ
விடுமுறையை
தெரிவிககபபடடிருநதது
பரிநதுரையை
லியோன
குறுநதக
விறபனையாகிறது
காரிமஙகலம
உநத
ஓது
தாணு
வதத
விடியோ
குடுதது
குடடிகள
செயகை
கொய
புஙகுடு
வராணம
நிலையாக
##ததினுள
மனநில
காரகளில
வழஙகியுளளனர
முனனைய
உடபுற
பொருததும
மருததுவரகளின
ராஜராஜன
##ததரமான
கழும
சஙகதம
##வாயபபு
அமெரிககரகள
களிக
பொதுமேல
அமைககப
##குமாரை
##குறிசசி
ஓடடுககள
##ேஸவரா
நிறுவனஙகளிடம
பெணணுககும
பரிசுப
##ணுமு
பொருததபபடடு
தேசததை
தொணடரகளை
பூரததிய
பரிமாறி
##ிககொணடது
ஜெகநாதன
அடரததி
நிலுவைத
சிதமபரததின
முஸலமகள
பிஸகட
##ோரைடு
ஆசிரமம
##ததொடஙக
ஓசூரில
சமமேளனம
அடிகளார
கருததியல
நாபகின
ஏஞசல
டவடட
வணை
##அறி
##ியாரகள
##ததிடமிருநது
குவால
துபப
தெரிவிபபது
கிடு
வநதிற
##மாடி
கடடிககொணடு
சராயவு
மோதிக
செலலபபடடனர
சூப
வசினார
நிலைமையில
##பபினபோது
நாடடார
மழைநரை
கொடுததோம
மனுத
குடியாததம
திமுகவை
மூலதனம
பாரததவுடன
தருகிறோம
அரசாஙகமும
இலலாமலும
##ியோட
காநதிககு
கேடகபபடடது
சுறறிததிர
குணசேகர
பெடரோலியம
பஙகேறகவிலலை
அவவகையில
தெரிநதிருகக
கிருபாகரன
சோழவரம
இனபோசிஸ
தனுஷகோடி
பஙகேறபதறகாக
நரசிமமன
எமஜிஆ
பெறறுககொளளலாம
அநேகமாக
கிருமிகள
சுறறுசசூழலை
ஆபிஸ
அஹமத
வாணியமபாடி
பூமபுகார
கவா
##நேசன
##வடையும
##ஹூ
##ியத
##பபையை
##ருபபு
##ஙகளோடு
போடா
அரப
தொடரகத
விலககிக
நாடகததில
பரிசச
அழைபபுகள
இதனகாரணமாக
##தியைச
பெணகளே
சொனனபோது
குடியிருககும
வஙகியை
##ககழகம
எதுவுமிலலை
குவிககபபடடுளளனர
கானஸட
அபபாறபடட
மடகபபடடது
இறைவனுககு
##கையையொடடி
கடததபபடடு
திருவிழாவ
வருஷநாடு
ஷூடடி
வழிநடதத
நலலிணககம
சூதாடடம
சுடலை
மாததறை
வாததியார
சாமரததிய
நாஙகுநேரி
ஈகோ
எபி
சச
தநதுளளது
மரை
யாம
வயர
வலர
##அதி
##துககு
##ாலேயே
செயபவர
##ககளைக
பயஙக
மனதின
அறிவிய
நிதியாக
பாலாறு
சொலலவே
கிடைககிற
பதிநத
பதிவின
ஒனறிரணடு
அகனற
வேலைககாக
தலைமையே
உரிமையும
சரியஸ
சாலையாக
சிககியுளள
வாஙகல
தளவாய
மகிழநதனர
வழியாகச
நிரவாகிகளுடன
ரிங
சநதேகஙகளை
தரபபிலிருநது
அஸதின
விருமபுகிறது
ஈழததில
தேஙகியுளள
சோதனையை
இலககுடன
ஒலிமபிககில
நடைபய
நேரகாணலில
டிரானஸபாரமர
சிவராமன
உனனதமான
திருவெணணெயநலலூர
முனியாணடி
மளமள
இககுழு
ரசன
ஶர
##ையாள
குவை
உளளக
##ிடடிய
சுவரகளில
முதலியன
அவரகளுககாக
##லாடை
பதிதத
மொடட
##வரைக
முககியததுவ
நினைவிரு
நாமகிரி
கொளவதறகான
கொணடிருககிற
அழகே
குழுககளின
காடடன
அமைபபுடன
முருகப
தெளிவாகக
யூசுப
சனிபகவான
சநதேகமிலலை
நளமுளள
கலவியாணடு
சமமதிகக
உரையாறறும
அவசியமாகிறது
இலககுகளை
உருவாககுகிறது
ஏறபடுததியிருககிறது
வநதுளளேன
வனமையாக
மகிமை
மாடடிறைசசி
பரியா
##டவு
##ஹே
போசசமப
##சிப
##மபால
##வரகளுககான
##டரன
##ூரைச
அவவிட
நிஷா
செலலக
பரிஸ
பொருளும
கூறுவர
சரிசெயது
குழநதைகளைப
கிளமபு
தொலைநது
சாமு
வெளிக
அமபிகா
தேடித
##ஃபிக
மேறகொணடுளளார
துணிநது
##வாககததில
பாராடடுகள
வெளிநாடடுப
கணவனின
##கிராமன
கோபமாக
வாககுறுதியை
காணபோம
செயலபடடது
மாரககெடடிங
வேலுசசாமி
பிஸியாக
வரையறுககபபடட
மேலமல
கஷாயம
பொனனுசாமி
கேழவர
பவான
பகி
ரும
லோன
முறறும
##ோரு
சுகு
ஆரப
அலையும
நிரமாண
சாரும
ராஜமாணிககம
எஸடே
காணபபடுவதாக
##பாசி
இனபபெருகக
மாரப
சிறுசிறு
ஸரமு
சரிசெய
மைதில
அமரநாத
ஈரகக
இபபடித
கிருஷணராஜ
தருகினறன
ஆசிரியரின
ரெககார
வானததில
நிரவாகிகளுககு
இராணுவப
நபரகளால
ரமஜான
பகுதிகளின
##ஙகாலம
பிரகாசம
வருகினறமை
வருகினறோம
இடதுசார
ராவத
எசசரிததார
நிரூபிககபபடட
##பபொருடகளை
சபரிமலைககு
அகதிகளாக
முடிவடைகிறது
விளாததி
முததரசன
அவிழதது
எலலாரையும
புலவாமா
வமப
##வடடு
##ிலி
##டுவோம
செயவதாகவும
கொயயா
##வரகளுடன
பொணட
நிலவின
வைததான
##ருககுக
நரபிடிபபு
பேசபபடட
களாக
வடுகளும
செயயபபடடதை
பிளேட
நாயை
##கேப
பாரததாரகள
##யூட
உயிரிழபபுகள
கேடகிறேன
இருககுது
ஆரோககியததை
ஆரவமும
பிரகாசி
பிரிடடனின
மகாராஜா
திருநெலவேலியில
குபபையில
பதுளை
முடிவடைய
புலமபெயரநத
கெளர
தலைமறைவாகி
அகாடம
உணவகததில
செயததாகவும
தரமானிததுளளது
ரிசசரட
ராதாரவி
வஹ
##பபணண
##பபவரகளை
##ஙகனனு
##வரதான
எனபபடுகிறது
தமிழததேசிய
சிந
தெரிவிததிருநதனர
தெரிவிததாா
சேரததல
கிரேட
பரவுகிறது
##ஙகளுககுச
கழபப
ஆடல
கடைகளின
எலெக
அழறசி
நோயாளிகளை
புறபபடடனர
தணடன
தருகினறனர
சானியா
நிறுததபபடடன
பிளளையின
அமபிக
தினமணி
வெடிதத
கறபிககும
நாடகளுககுப
எஙகளுககுத
வாடிககையாக
உடையவர
வேலைவாயபபுகள
தூககிப
உளளடககி
உறுதியுடன
இததாலியில
ஹாலில
அமலாககத
பயஙகரவாதததை
யூரியா
அதிபருககு
##ததிறகாகவும
வகுபபறையில
பிசைநது
அறைய
நூர
##சரை
##றறிக
தொடும
காபபோம
##டனட
பயநத
##ஙகுழ
தரபபடடது
##ககொனறு
குறைககபபடடது
உயரகல
##படாமல
படடாப
விஜி
சமூகததிறகு
##பபெரிய
அருநதிய
குறிபபிடாமல
மைலக
பெருமபகுதி
பககததினர
அபய
உடைககபபடட
நடுரோடடில
##விடடாராம
அறநதாஙகி
வாடசன
ஆககிரமிகக
நெருககடியான
ஆணையததுககு
தாரசசாலை
சிரிததுக
கபபலை
வாரடுககு
வழஙகுவதை
##சபையின
##பபகுதிககு
படையினரின
சஞசவ
போராடிக
தவுகளில
வாசுகி
புதுபபிதது
பாரபபனர
கோதணடர
அனுகூல
திருவிளையாட
சஹ
##டகக
##ிது
##குலம
போறேன
##கிறாா
அதோ
வழமை
##கரான
மறறவரகளும
தலைகு
துளளது
சிறபப
##ாபாய
பணிபபெண
பாலசசநதிரன
சொலலவும
கிராமஙகளிலும
தூககும
அணிவது
கொணடிருபபதால
அமெரிககன
மாறறபபடும
சிறுக
பொறுபபுகள
பெறச
கேடடா
புறததில
அவளோ
தொலைநோ
வாயபபுளள
##ாகிம
முகாமகளை
பெருஙகுடி
சொநதககாரர
தணடாமை
##நாடக
உடைகளை
ஆழகுழாய
நிறுவனஙகளுடன
##ராசு
சிநதாமணி
கறறுககொணட
மூடபபடடன
வருவதுடன
சபாநாயக
மகாராஜ
வரையுளள
பததாவது
தலைமுறைககு
##ககுழநதை
மூசசுததிண
##சசேனை
கிறிஸதுவின
விமலா
நனனடததை
தூணகள
ஜூலையில
தெனனிநதியாவில
புஜாரா
ஹதஸ
ஹய
##ககெட
##ிலம
##ுவாரகள
பாபி
சுலை
அவென
தனமையும
பிஎச
ஆகவிலலை
சேரததால
தரன
அமளி
ஆரோக
அவரகளைச
சிலக
கிரிஸ
அலவா
சேரி
நகரச
நகராடசியின
நடிசச
வநதுளளதாக
விருதும
ஏறபடுததினார
ஏறபடுததபபடடுளளது
##ஸவரம
விபசசார
இரணடாணடு
கவனததையும
இபபோதுளள
பறறியெலலாம
புரதம
ஓடடலகள
முனபுற
இறுதிபபோடடியில
##பபடுததுவதில
இவைகளை
துவககப
கவலைபபடாமல
ரசிககும
ஜானகிராமன
தலையிடு
பிரமாத
பநதலூர
திறககபபடடுளளது
தரமபுரியில
பனனரசெலவ
மனிதனாக
கருதுகிறாரகள
தவிரவாதிகளின
திரையரஙகில
ஆககிரமிபபை
ஸமிருதி
மினகமபம
புததுணர
விளாசிய
முனஜாமன
ஆகஸிஜன
ஆணம
##தறக
விகாஸ
##சசடடம
##ாயே
##ாயடு
##பபடடில
நடபை
மேறச
தனசேகரன
சிததம
கலககம
அறிநதால
அறிவழகன
சமஸதான
கைவிர
எழுபது
##ாபாளையம
போரூர
மருததுவரின
##ைகளுடன
உருணடு
எடுககப
இரணடுககும
இதனடிபபடையில
சனாவை
தேவைபபடடது
ஈரானிய
நாஙகளே
வணாகக
வருடததுககு
பயனடை
தேடிவருகினறனர
அனனையின
கவுடா
பெருமபாலானவை
தயாரிககபபடுகிறது
பொயதது
கணடுபிடிபபுகள
தொணடரகளும
லிஙகா
மனோனம
அவனைத
கொடுபபார
##வழிப
விடயஙகளில
மேமபடுததி
முனனெடுககும
இலடசதது
வசநதகுமார
வாரிசுகள
இடடுச
##பபகுதிகள
சாததானகுளம
சமஸகிருதம
கலநதாயவில
பகதாகள
செலலிடபபேசி
செலவராகவன
கமாணட
சடர
மககும
மாலி
ரசம
##சநதிர
தொபபுள
கூடுகிறது
சேரககபபடடுளளனர
அமமை
##மாதி
சேய
##லாபுரம
பெறறதால
கொளளப
பிறபகுதியில
நரப
ரூபாயாகவும
##வரைப
##ஸடல
திடடமிடு
சகதிய
நலச
நடததியும
ஆடசியமைகக
இருநதாலதான
ஏறறிககொணடு
ஒருஙகிணைபபாளரகள
இமெயில
இறநதுளளனர
பளு
கடறகரைககு
பூஙகாவை
வரததமானி
அளளும
பாசிச
அலுவலாகள
பிஎஸஎனஎல
கோழிககோடு
நறக
ஹலோ
##தடட
##ியததில
##பபுது
கொசசை
##சிககு
##ாவதால
காஙகே
பாரககபபடட
அமளியில
தவின
வாயபபில
##படவிலலை
##ஙகியல
கிராமஙகளைச
படிகள
இனசு
முகஙகள
ஆணும
கடைகளும
குடுமபதத
உதவிககுழு
கூறுவாரகள
விஜயய
விவசாயிகளுககும
அணில
இயககியுளள
புறமும
காடடபபடும
பறிததுக
எழுதியவர
ஊடகஙகளும
##ததுவதும
பரிசுத
குறறசசாடட
திருததநதை
விநோத
வெஙகடேச
வேடபாளரகளுககு
நியாயமாக
பொருளாளராக
வசசாளரகள
பரிதாபம
கோடஸவர
மேனமை
ஆபததானது
குறறவாளிகளுககு
கருததடை
பஙகளிபபுடன
வழிகாடடும
கோணஙகளில
உரிமததை
விணணபபதார
கொலமபியா
எவரையும
ஒடு
சாளர
##கிக
##நினை
##பாப
##ககஸ
##ததவன
##ததடுபபு
எனனன
சொரு
குடுகக
நடபபதை
பிரதேசச
வைககிற
##டசெல
நடிககிறாரகள
தொழிலமுறை
இருபபதையும
சாநதன
கழடடி
##ோகிராம
பாடமாக
நடததவிலலை
நூறப
நோயவாய
மிம
கதற
உசசததை
எணணிக
நெருஙகும
ஓடடுச
ஏரவேஸ
யோஜனா
அபிமன
பேசசும
அமமாபேடடை
பயணிகளிடம
கொலலம
தோடடத
தாராளம
வெகுஜன
வனமுறைககு
மாடுகளுககு
அவுஸரே
உணரசசிவச
அடுககடுகக
இததலததில
எஸபிஐ
##சுபபிரமணியன
இககல
ஏநத
ஜும
தாருஙகள
யோர
##ோடடில
##னராக
##ளிபபது
இரவும
##ாககடன
அடிததனர
விலஙகின
கொளளுதல
பிறபாடு
கோரியுளளார
சூல
திருமலையில
குறறததை
ஸடிரை
பிரதமரும
நிலையஙகளிலும
##சலே
சொலகிற
அளிககவும
ஈடுபடடனா
முழுப
பெறுவார
பெறுவதாக
விளையாடடுகள
பொலிஸாரால
நோககததை
ஞானசேகரன
தாணடிககுடி
நுகரபொருள
நுடபமான
வழஙகுகிறார
ஜுலை
எழுநதருளிய
உடலுறவு
மஹாராஷடிர
காஞசனா
உஸமான
ஒரிஜினல
ஜயர
தவனம
பிருநத
மகுட
##ேதான
##மூர
##ததடடு
குனறு
##ாவோடு
ஒருவார
தேவார
செயயது
பாரதததில
பாரககினறனர
கலபபடம
##ாபான
பூககளை
இருபபதைப
திறமையாக
சிகபபு
இவரகளால
##பாலாஜி
ஓரஙகளில
போடடுளளார
மகிழநது
பொருளாதாரக
ரோடுகளில
கழகஙகள
ரசிகரகளிடையே
துவஙகினார
தாழநத
அடைநதேன
##சசூழ
செயலபாடுகளில
##விளைய
இருககினறார
விறகபபடடது
பணிபுரிகினறனர
வடடிககு
வளரசசிக
வளரசசியும
பணடிகைககு
இடைககாலத
வேலையிலலா
##ஹரான
இவவிதம
பாடுபடட
வெஙகாயததை
நிசசயதாரததம
சோதனைய
சிவராம
பெயரிடடு
இவவாறாக
காததானகுடி
அஃ
ஏவல
சனம
சினை
##செனறு
##அவுட
##திபப
அதிகமா
சிஙகர
##கினறனா
சொறறொ
முடிசச
##ணியிடம
விரகதி
##ததாலதான
சடடென
##கோப
குழநதையாக
விழாவும
பேசபபடடு
உடனுறை
மாரததான
சிவகாசியில
பொதுமககளிடையே
ஆனடர
குடியமர
காரணமே
தாககுதலால
பாரததபடி
நடததியதாக
வளரசசிககும
போலஸாரின
பினனலாடை
புதுசசேரிககு
கொணடிருநதால
செலுததலாம
நுழைநதது
இசையும
சுறறிப
ஒருமு
செவவாயகிழமை
பிரசசனைககு
துணிகளை
விருமபுபவரகள
வேணடுகிறேன
##பபிரிவுகள
##நதோபபு
பனனிரு
ஊதியததை
புறறுநோயால
எலலாவறற
வெளிபபடுததினர
##களிலிருநதும
பதினெடடு
கோபுரஙகள
எடிடடிங
சேதமடைநதுளளது
உருகி
விநாடிககு
சுறுசுறுபபாக
எலிசபெத
##ககலலுாரி
ஆறறி
சததார
சறறம
##காதேவி
##றியை
##ககபபட
##ரிஸ
நடர
வரணம
அவவாற
அதிகப
##வனா
பேரல
##ஞசரஸ
செயதுகொணடிரு
நேரததி
இவவிர
மிகசி
தாவி
##வடிககை
இருககுமபடி
இருககப
எஸயூ
படடாள
சூறை
அகறறிய
சாலமன
கிளாரக
பேசியிருககிறார
திருவால
##ஷடவசமாக
கணகாணிபபாளரகள
அநநாடு
அசசிற
பினனூடடம
வடியோககளை
கிறிதது
மிரடடும
மழல
கரைசல
திடடததினகழ
தியாகராய
ஆணையராக
புகாரினபடி
விடுககபபடடது
சனனதியில
சுஙகசசாவடி
பவுணடரிகள
பாரததிருககிறேன
பதககஙகள
வாணிப
மெககானிக
தேரவாணைய
வெடகம
வேளாஙகணணி
ஆறறை
யதாரததம
வோட
ஸந
##கவு
##வாரு
##ஷாவின
##ஹெ
##ககாவ
##ததகம
##பபிடடி
செயபவரகளுககு
தொகைய
நடால
ஒருவகையில
##ிகளுககும
##புலலா
தலைபபை
அவம
இரான
நகரததி
##ரிககல
பெறறோல
இநநகர
காணபபடுவதால
லடசமும
மாணவரகளுடன
காரணததிறகாக
குடிமை
சூழசசி
தெரிவிககபபடும
உபதேசம
காடடுதத
சிறையிலிருநது
பேசசுககள
விதிககபபடடு
பநதுகளை
சிவகாம
எழுதுகிறேன
கதிரவசசு
வாககளிபபு
கடடிடததை
##ஆரபி
சேனலகள
சிவசகதி
அழகியல
விஸவநாத
வருஷததுககு
சுடுகாடு
ஹூணடாய
கையாணட
அநதோணிசாமி
கடமபததுார
கியூப
விசாலாடசி
யூடியூப
ஸடிககர
ஏகாமபர
வததிராயிருபபு
கதியில
ஜனம
நச
ஹஸ
ஹான
ஹனும
##ஹாரி
##ியூரில
வரதா
பிரதர
துடிய
பாரததும
மேலாளரகள
மாவடடமாக
உணரு
##றியா
சூடடி
காணகிறோம
இனபபெரு
மராடடிய
மெதத
டெபிட
மணநது
வரவேறகும
திருவையாறு
பரிசும
கேரளாவை
வகையைச
ராஷட
விடுதலைக
அணுஉ
செயதிருககும
அடிபபடைத
பாயநத
பாமபை
குளிரசாதன
ஞானசார
எதிரககடசிகளின
ஏறபடுவதால
திகழநத
படிபபுகளில
புததாணடை
வாழககையும
பணியாறறியுளளார
ஆசிரமததில
ஆறுமுகசாமி
அறிமுகமானவர
நிரபநத
நிமிஷம
ஈரபபதம
மதுவிலககை
அணணாமலையார
உமாமகே
கவிய
நாமல
பதான
ஷாஙக
முணுமு
இருஙக
##ுவதறகான
பிரிககபபடட
எனபவறறை
கேடடை
திருததேர
திருவிளககு
தேரவின
அரசுக
அபபல
முடிகினறது
அளவும
##ையினமை
##ோதய
பணபபரி
காணபபடவிலலை
##வாயாக
நுரை
வடுகளுககுள
##நதரின
குறிபபிடபபடட
##விழாவை
நிகழசசியாக
கிழி
திடல
ரெணட
யுர
பெணணிய
பேசுகிறது
டிரைவ
விதைபபு
முடபுத
ஆனநதராஜ
விஞஞானம
அளிககுமாறு
ஞாயிறறுக
நாடகததை
##ததோடடம
கொனறனர
வெனறுளளார
அழகபபா
தயாரிததல
தடுபபணைகள
அரையிறுதியில
சுறறுசசூழலுககு
மஹாராஷடிரா
ஆடசேபனை
படியும
லாஜ
##யரிங
##பபணணை
##ிரான
##றிகக
பிரய
வழித
தேவிய
##ததினா
நிறஙகள
சிறாரகள
கலவையை
மனஅ
தவளை
பரோல
இருபபதில
பழவே
பெருமையும
பொருளகளின
ஆலஙகுளம
##ரகளைத
கொலைககு
ஈரதது
முனபுறம
பெறுபே
##ியோபதி
சுமுக
அனுபவிககும
மூனறாவதாக
மாடடே
உததரவுகளை
இருவரது
கருதபபடட
கழுவு
கறறுககொள
இறநதுவிடடதாக
பநதயம
மாயை
நிருவாக
சேவையின
ஜோதிமணி
கோபாலபுரம
ஜவஹர
ஏமாறறததுடன
சமபாதிதது
சககிரமே
எதிரமறையான
கோததாபய
ஜெகதஷ
சொககலிஙகம
இனறியமையா
காணிககையாக
ஜெமினி
ரொனாலடோ
சாவகசசேரி
ஊததுககுளி
ஐஸக
ரிட
##ூதது
##படடை
##டடததில
##டடரை
##ோபபு
##ததுவா
நடககிற
வழியனு
##ததைநது
##முககிய
தெரிவுககு
காலிப
இராமன
முடிவின
முடியலை
நகரஙகளை
நிறுவபபடட
அடிபபது
கிடைததாலும
வயலகளில
கரக
காவறது
மரபில
மரஙகளும
ஆணையா
பிரதமா
பதிலில
திருபபம
சொலறாஙக
தொலைதது
குளஙகளில
அனுபபபபடுகிறது
##மபிளளை
வகைய
ஆடசியைக
மாணவனை
நணபரகளிடம
##ையோடும
##ிராணடி
அகறறபபடடது
வருமானததில
நிதியமைசச
சுறறிக
மனோபாவ
முடிவெடுககும
பிரசனையாக
ஆதஙகம
இவரைப
வழஙகுகினறனர
சுலபம
புஷகர
வெளிபபடுததினார
திணணை
முடிதததும
சாடசியாக
மாறறுததிறனாளிகளுககு
பிரமமாணடமாக
சணடிகர
வனவிலஙகுகள
எலகடரானிகஸ
பககுவம
உதவேகம
சிறிலஙகாவின
அறககடடளையின
ஸரவைகுணடம
இணடி
ஏககம
சறகு
குனிய
##றபடி
மேகன
##சுவரர
கலையை
எழுநதுளளன
##பபிததன
விரலை
திடடமாக
##ததாலே
கிடைசச
பிறபடட
கூடத
பளளிககுச
பினனரதான
பெயரநத
மறுததுளளது
தேவையா
ஏறபடுததவும
சிவனை
அதிரவலை
படைகளின
##ஜினி
##ததிருநதேன
இறுதிபபோடடி
அநநாடடில
வெளிககொ
விவரஙகளையும
மாறாத
தடுககலாம
பேசிககொணடிருநத
##ஙககிடட
சாதாரணம
படையெடுதது
##ககுளளே
யூனியனில
கடடாயபபடுததி
அமைககபபடடிருநத
திருபபுததுார
கசபபான
தொகுதிகளுககான
ஜாதக
##சசொலலி
கலாமின
வாரஙகளுககுள
துகளக
சுயமரியாதை
கமயூனிஸடு
சூறையாட
தககுள
பஷமர
##றின
##பபடியே
##ிராத
##வரையிலும
குஷி
போனப
இருடடில
மறறவை
செயயபபடுவது
அமைததுளளனர
செலவநத
சரணட
இபபளள
எமர
நிலைப
கொளகையின
கடடுவதறகான
மறுததது
சோடா
வெளளிககிழ
வெளியேறறம
தேவைகளுககு
உறபதத
பெருககம
எரிபபு
தேடிச
##ாதிப
##ழுவின
வாரததைககு
##ெழுநது
சநதோச
கொடுமுடி
வதககி
காஙகிரசை
வரததகர
நிருபரகளுககு
வணடலூர
நெஞசை
பதியுதன
அறநிலையததுறையின
ஆகியவறறைப
லடசுமண
மனதுககு
நிலவுவதால
##தெரி
திகைதது
தியாகராஜர
மிஷகின
பழநியில
நரேநதிரமோடி
இததுறை
நசர
##தரகள
##னரிடம
##ையோட
செமபு
##விசார
குததிக
இருவேறு
கூததா
வரதர
##ிககர
படகை
படஙகளையும
காருககு
##சசிங
நேரஙகள
பளளஙகள
குறறபபுலன
பஸகளும
பெணகளுடன
கனேடிய
தநதையிடம
வினசெனட
##வாரகளா
அரசாஙகததுககு
வகுபபுகளை
ஒபபுககொணடார
##சசூழல
குழாயகளில
இணையதளஙகளில
சாககடையில
வழிபடும
சாதனையாக
சிநதனைகளை
துறநது
சமாஜவாடி
கனடெயனர
சபபாததி
பிஷப
காளையாரகோவில
நியூடரினோ
சடைய
பமபு
##றசிய
பிரிகஸ
##முனன
நிலவ
சேரததார
சேரததது
##னபாளையம
##ிடமே
##ிருநதோ
##ககமைய
##டமி
படிததுப
ரயிலகளை
கணடான
தணணரின
அடில
குழநதைத
ஆறுகளில
சூரயாவின
குருவாய
அழைததுககொணடு
தொழிலநுடபஙகளை
சுயமபு
நடததுவதறகான
பாமர
கரைகள
உழைதத
இசசூழ
மிகககுறை
குபபைத
மாறுபடும
அடடூழ
நகசலை
முரணான
அறிமுகபபடுததியது
வளளியூர
##ாதனையும
இநதிராணி
சுரஙகபபாதை
ஜாங
விழுமிய
##போதெலலாம
[...]
